{
  "vocabulary": [
    "\n",
    " ",
    "!",
    "\"",
    "\"\"",
    "\")",
    "\").",
    "\"no",
    "\"s",
    "\"the",
    "$",
    "$1",
    "%",
    "&",
    "'",
    "'d",
    "'ll",
    "'re",
    "'s",
    "'t",
    "'ve",
    "(",
    "(\"",
    "((n)",
    "()",
    "(),",
    "(-",
    "(0)",
    "(1",
    "(1)",
    "(1),",
    "(1).",
    "(1):",
    "(1,",
    "(1/",
    "(1/2)",
    "(14.",
    "(14.1",
    "(16.",
    "(19.",
    "(2",
    "(2)",
    "(2),",
    "(2):",
    "(2,",
    "(2.",
    "(2/",
    "(2/3)",
    "(23.",
    "(24.",
    "(25.",
    "(26.",
    "(28.",
    "(28.1",
    "(29.",
    "(29.1",
    "(29.3",
    "(3",
    "(3)",
    "(3):",
    "(3,",
    "(3.",
    "(3.1",
    "(3.3",
    "(30.",
    "(31.",
    "(31.3",
    "(32.",
    "(33.",
    "(33.1",
    "(33.3",
    "(35.",
    "(35.1",
    "(4",
    "(4)",
    "(4):",
    "(4.",
    "(4.1",
    "(5):",
    "(5,",
    "(6",
    "(6):",
    "(7",
    "(9",
    "(A",
    "(A)",
    "(A,",
    "(A.",
    "(A.1",
    "(A1",
    "(ATA)",
    "(B",
    "(C",
    "(C)",
    "(C).",
    "(C,",
    "(C.",
    "(C.1",
    "(C.4",
    "(Chapter",
    "(D",
    "(D0)",
    "(Di)",
    "(Exercise",
    "(F",
    "(Figure",
    "(For",
    "(G",
    "(G)",
    "(G,",
    "(H",
    "(Hint:",
    "(I",
    "(If",
    "(In",
    "(L",
    "(L,",
    "(Lemma",
    "(M",
    "(P",
    "(P1",
    "(P[:q]a",
    "(Q",
    "(Q)",
    "(Q,",
    "(Recall",
    "(S)",
    "(S,",
    "(Section",
    "(See",
    "(T",
    "(T)",
    "(T,",
    "(T[",
    "(T[:",
    "(T[:i",
    "(T[:i]",
    "(T[:i])",
    "(The",
    "(Theorem",
    "(This",
    "(V",
    "(V)",
    "(V,",
    "(We",
    "(We'll",
    "(a",
    "(a)",
    "(a),",
    "(a).",
    "(a,",
    "(a0,",
    "(a1,",
    "(and",
    "(as",
    "(b",
    "(b)",
    "(b),",
    "(b).",
    "(b,",
    "(b/",
    "(because",
    "(but",
    "(by",
    "(c",
    "(c)",
    "(c),",
    "(c).",
    "(d",
    "(d)",
    "(d,",
    "(e",
    "(e)",
    "(e.",
    "(e.g.",
    "(e.g.,",
    "(f",
    "(f)",
    "(for",
    "(g",
    "(g(n))",
    "(g)",
    "(i",
    "(i)",
    "(i,",
    "(i.e.,",
    "(if",
    "(in",
    "(including",
    "(j",
    "(j)",
    "(k",
    "(k)",
    "(k),",
    "(k).",
    "(k,",
    "(l",
    "(l,",
    "(l1,",
    "(l3,",
    "(l5,",
    "(lg",
    "(lines",
    "(m",
    "(m)",
    "(m,",
    "(mod",
    "(n",
    "(n)",
    "(n))",
    "(n)),",
    "(n)).",
    "(n),",
    "(n).",
    "(n,",
    "(n-1)",
    "(n/",
    "(n/2)",
    "(n/3)",
    "(n/4)",
    "(n/b)",
    "(n2)",
    "(n2),",
    "(n2).",
    "(n3)",
    "(n3).",
    "(nlg",
    "(no",
    "(not",
    "(or",
    "(p",
    "(p)",
    "(p,",
    "(possibly",
    "(q",
    "(q,",
    "(r",
    "(r,",
    "(r1,",
    "(re",
    "(read",
    "(s,",
    "(see",
    "(shown",
    "(since",
    "(so",
    "(such",
    "(t",
    "(t)",
    "(t),",
    "(that",
    "(the",
    "(u)",
    "(u,",
    "(v",
    "(v)",
    "(v,",
    "(v0,",
    "(v1,",
    "(v2,",
    "(vk-1,",
    "(w",
    "(which",
    "(with",
    "(x",
    "(x)",
    "(x),",
    "(x).",
    "(x,",
    "(x.",
    "(x1",
    "(x1,",
    "(xi,",
    "(y",
    "(y)",
    "(z)",
    "(¬",
    "(¬x1",
    ")",
    "))",
    "),",
    ").",
    "):",
    "*",
    "*)",
    "*.",
    "*[q",
    "*[q]",
    "*|",
    "+",
    "++",
    "+1",
    "+1)",
    "+1,",
    "+1.",
    "+2",
    "+n",
    ",",
    ",\"",
    "-",
    "--",
    "--a",
    "--and",
    "--in",
    "--is",
    "--that",
    "--the",
    "--then",
    "-.",
    "-1",
    "-1)",
    "-1),",
    "-1).",
    "-1,",
    "-1.",
    "-2",
    "-2,",
    "-3",
    "-4",
    "-5",
    "-FRON",
    "-K",
    "-Karp",
    "-SEARCH",
    "-W",
    "-address",
    "-and-",
    "-av",
    "-avg",
    "-based",
    "-bit",
    "-bound",
    "-case",
    "-choice",
    "-common-",
    "-flow",
    "-free",
    "-function",
    "-heap",
    "-in",
    "-in,",
    "-key",
    "-length",
    "-list",
    "-major",
    "-matching",
    "-matrix",
    "-notation",
    "-notation,",
    "-notation.",
    "-of",
    "-order",
    "-path",
    "-point",
    "-programming",
    "-rank",
    "-s",
    "-search",
    "-set",
    "-size",
    "-theoretic",
    "-time",
    "-to",
    "-to-",
    "-tree",
    "-triangular",
    "-up",
    "-weight",
    ".",
    ".\"",
    ".)",
    "..",
    "...",
    "...,",
    ".1",
    ".1-",
    ".1-1",
    ".1-2",
    ".1-3",
    ".1-4",
    ".1-5",
    ".1-6",
    ".1-7",
    ".1-8",
    "/",
    "//",
    "/2",
    "/2)",
    "/2,",
    "/2.",
    "/4",
    "/ak",
    "/n",
    "/span",
    "0",
    "0)",
    "0),",
    "0).",
    "0,",
    "0-",
    "0-1",
    "0.",
    "0.0",
    "0.05",
    "0.1",
    "00",
    "000",
    "000,",
    "011,",
    "0:",
    "0]",
    "0s",
    "1",
    "1)",
    "1),",
    "1)-",
    "1).",
    "1)/",
    "1)/2",
    "1)/2.",
    "1)st",
    "1,",
    "1-",
    "1-dimensional",
    "1.",
    "1.)",
    "1/",
    "1/2",
    "1/2,",
    "1/2.",
    "1/3",
    "1/4",
    "1/4,",
    "1/n",
    "10",
    "10)",
    "10,",
    "10.",
    "10.1.",
    "100",
    "100,",
    "1000",
    "100n",
    "100n2",
    "101,",
    "102,",
    "11",
    "11,",
    "11.",
    "11.3.",
    "110",
    "114",
    "117",
    "118",
    "119",
    "12",
    "12,",
    "12.",
    "12.4",
    "13",
    "13,",
    "13.",
    "13.1",
    "13.7",
    "14",
    "14,",
    "14.",
    "14.1",
    "15",
    "15,",
    "15.",
    "16",
    "16,",
    "16.",
    "17",
    "17,",
    "17.",
    "17.1",
    "18",
    "18,",
    "18.",
    "19",
    "19,",
    "19.",
    "19.1",
    "19.4",
    "195",
    "196",
    "197",
    "1972.",
    "1973.",
    "1976.",
    "1979.",
    "198",
    "1984.",
    "1985.",
    "1987.",
    "1989.",
    "199",
    "1993.",
    "1994.",
    "1995.",
    "1996.",
    "1997.",
    "1998.",
    "1999.",
    "1:",
    "1:]",
    "1:s",
    "1]",
    "1])",
    "1],",
    "1].",
    "1g",
    "1if",
    "1let",
    "1s",
    "1}",
    "1}*",
    "1},",
    "1}.",
    "2",
    "2)",
    "2),",
    "2).",
    "2,",
    "2-",
    "2-1",
    "2-2",
    "2-3",
    "2-3-4",
    "2-4",
    "2-5",
    "2-6",
    "2-7",
    "2-8",
    "2-approximation",
    "2.",
    "2.)",
    "2.1",
    "2.3.",
    "2.8",
    "2/",
    "20",
    "20,",
    "20.",
    "20.1",
    "20.2",
    "20.3",
    "20.7",
    "200",
    "2000.",
    "2001.",
    "2005.",
    "2007.",
    "2009.",
    "2011.",
    "2012.",
    "2017.",
    "2018.",
    "21",
    "21)",
    "21,",
    "21.",
    "21.1",
    "21.1-",
    "21]",
    "22",
    "22),",
    "22,",
    "22.",
    "22.1",
    "22.2",
    "23",
    "23,",
    "23.",
    "23]",
    "24",
    "24,",
    "24.",
    "24.1",
    "24.4",
    "25",
    "25)",
    "25,",
    "25.",
    "25.1",
    "256",
    "26",
    "26,",
    "26.",
    "26.1",
    "26.2",
    "27",
    "27.",
    "28",
    "28,",
    "28.",
    "28]",
    "29",
    "29.",
    "29]",
    "2:",
    "2T",
    "2]",
    "2],",
    "2].",
    "2for",
    "2i",
    "2k",
    "2n",
    "2n2",
    "2r",
    "2t",
    "3",
    "3)",
    "3),",
    "3).",
    "3,",
    "3-",
    "3-1",
    "3-2",
    "3-3",
    "3-4",
    "3-5",
    "3-6",
    "3-7",
    "3-8",
    "3-CNF",
    "3-CNF-",
    "3-CNF-SAT",
    "3.",
    "3.)",
    "3.1",
    "3/",
    "30",
    "30.",
    "31",
    "31,",
    "31.",
    "31.1",
    "31.1-",
    "31.2",
    "31.3",
    "31.6",
    "31.8",
    "32",
    "32.",
    "32.1",
    "33",
    "33.",
    "33.1",
    "33.3",
    "34",
    "34.",
    "34.1",
    "34.16",
    "34.4",
    "34.5",
    "34.5.",
    "34.8",
    "35",
    "35.",
    "35.3",
    "36",
    "36,",
    "37",
    "38",
    "39",
    "3:",
    "3T",
    "3]",
    "3],",
    "3].",
    "3g",
    "3n",
    "4",
    "4)",
    "4))",
    "4),",
    "4).",
    "4,",
    "4-",
    "4-1",
    "4-2",
    "4-3",
    "4-4",
    "4-5",
    "4-6",
    "4-7",
    "4-8",
    "4-bit",
    "4.",
    "4.)",
    "4.1",
    "4.2",
    "4.7",
    "40",
    "41,",
    "43",
    "44",
    "45",
    "46",
    "47",
    "48",
    "49",
    "4:",
    "4]",
    "4],",
    "4for",
    "4n2",
    "5",
    "5(a)",
    "5)",
    "5),",
    "5).",
    "5):",
    "5,",
    "5-",
    "5-1",
    "5-2",
    "5-3",
    "5-4",
    "5-5",
    "5-6",
    "5-7",
    "5.",
    "5.1",
    "5.2",
    "50",
    "50,",
    "500",
    "512",
    "54",
    "55",
    "56",
    "57",
    "58",
    "59",
    "5:",
    "5]",
    "5],",
    "6",
    "6)",
    "6),",
    "6).",
    "6,",
    "6.",
    "60",
    "63",
    "64",
    "64,",
    "67",
    "68",
    "69",
    "6]",
    "6],",
    "7",
    "7)",
    "7),",
    "7,",
    "7-",
    "7.",
    "7.1",
    "70",
    "78",
    "7]",
    "7],",
    "8",
    "8)",
    "8),",
    "8).",
    "8,",
    "8.",
    "8.1",
    "80",
    "89",
    "8]",
    "8],",
    "9",
    "9)",
    "9),",
    "9,",
    "9.",
    "9.1",
    "90",
    "93",
    "99",
    "9]",
    "9],",
    "9].",
    ":",
    ":]",
    ";",
    "<",
    "=",
    "==",
    ">",
    "?",
    "@",
    "A",
    "A(x",
    "A(x)",
    "A(x,",
    "A)",
    "A+",
    "A,",
    "A-1",
    "A.",
    "A.heap-size",
    "A1",
    "A1,",
    "A11",
    "A2",
    "A2,",
    "A22",
    "A3",
    "AC",
    "ACK",
    "ACM",
    "ACM,",
    "ACTI",
    "ACTIV",
    "ACTIVIT",
    "ACTIVITY-",
    "ACTIVITY-SELECTOR",
    "AD",
    "AL",
    "AM",
    "AN",
    "AND",
    "ANG",
    "ANT",
    "ANT,",
    "AP",
    "APPRO",
    "APPROX-",
    "APPROX-SUBSET-SUM",
    "APPROX-TSP-TOU",
    "APPROX-VERTEX-COVER",
    "APSP",
    "AR",
    "AR-",
    "ARRA",
    "ARRAY",
    "AS",
    "ASE",
    "ASE-K",
    "ASE-KEY",
    "ASSI",
    "ASSIST",
    "AT",
    "ATA",
    "AU",
    "AUG",
    "AUGMENT",
    "AUGMENTING-",
    "AUGMENTING-PATH",
    "AUTO",
    "AUTOMAT",
    "AUTOMATON-",
    "AUX",
    "AV",
    "AVL",
    "A[",
    "A[1",
    "A[i",
    "A[i,",
    "A[i]",
    "A[i],",
    "A[j",
    "A[j]",
    "A[j],",
    "A[p",
    "A[p1",
    "A[p2",
    "A[p]",
    "A[q",
    "A[q]",
    "A[r]",
    "Ac",
    "According",
    "Ad",
    "Adding",
    "Addis",
    "Addison",
    "Addison-W",
    "Addison-Wesley,",
    "Addition",
    "Adj",
    "Adj[",
    "Adj[u",
    "Adj[u]",
    "After",
    "Again,",
    "Aho",
    "Aho,",
    "Ahu",
    "Ahuj",
    "Ai",
    "Ai:",
    "AiAi",
    "AiAi+1",
    "Aij",
    "Aj",
    "Aj.",
    "Ak",
    "Ak+1",
    "Ak+2",
    "Akra",
    "Akra-",
    "Akra-Bazzi",
    "Al",
    "Algorithm",
    "Algorithms",
    "Algorithms,",
    "Algorithms.",
    "Alice",
    "Alice's",
    "All",
    "Also",
    "Alternative",
    "Alternatively,",
    "Although",
    "Am",
    "Amer",
    "Americ",
    "American",
    "An",
    "Anal",
    "Analy",
    "Analys",
    "Analysis",
    "Analyze",
    "And",
    "Andre",
    "Andrew",
    "Annual",
    "Ano",
    "Another",
    "Any",
    "Ap",
    "Appen",
    "Appendix",
    "Application",
    "Applied",
    "Applying",
    "Appro",
    "Approx",
    "Approxi",
    "Approximation",
    "Ar",
    "Argue",
    "Aror",
    "As",
    "Assum",
    "Assume",
    "Assuming",
    "Asymptotic",
    "At",
    "Au",
    "Ax",
    "B",
    "B(T",
    "B(T)",
    "B(x)",
    "B)",
    "B,",
    "B-",
    "B-1",
    "B-TREE-",
    "B-TREE-INSERT",
    "B-TREE-SPLIT-",
    "B-TREE-SPLIT-CHILD",
    "B-tree",
    "B-tree.",
    "B-trees",
    "B.",
    "B.2",
    "B11",
    "B11,",
    "B21,",
    "BFS",
    "BIN",
    "BL",
    "BLACK",
    "BLE",
    "BLE-",
    "BOT",
    "BOTT",
    "BOTTOM",
    "BOTTOM-",
    "BOTTOM-UP-",
    "BST",
    "BU",
    "BUIL",
    "BUILD-",
    "BUILD-MAX-HEAP",
    "BW",
    "BWT",
    "B[",
    "Ba",
    "Bas",
    "Basic",
    "Baz",
    "Bazzi",
    "Be",
    "Because",
    "Before",
    "Begin",
    "Bell",
    "Bellman",
    "Bellman-",
    "Bellman-Ford",
    "Bent",
    "Ber",
    "Bern",
    "Bernou",
    "Bernoull",
    "Bernoulli",
    "Binary",
    "Bl",
    "Blue",
    "Bo",
    "Bob",
    "Boo",
    "Bor",
    "Both",
    "Bread",
    "Breadth-first",
    "Brent",
    "Bu",
    "Bur",
    "But",
    "By",
    "C",
    "C(x)",
    "C)",
    "C*",
    "C++",
    "C,",
    "C-",
    "C.",
    "C.1",
    "C1",
    "C11,",
    "C12,",
    "C2",
    "C21,",
    "C22",
    "CES",
    "CESSO",
    "CG",
    "CH",
    "CHA",
    "CHAIN",
    "CHIL",
    "CHILD",
    "CIR",
    "CIRCU",
    "CIRCUIT-",
    "CIRCUIT-SAT",
    "CLI",
    "CLIQUE",
    "CNF",
    "CO",
    "COM",
    "COMPA",
    "COMPACT-",
    "COMPACT-LIST-SEARCH",
    "COMPO",
    "COMPON",
    "COMPONENT",
    "COMPONENTS",
    "COMPOSI",
    "COMPU",
    "COMPUTE-",
    "CON",
    "CONNE",
    "CONNEC",
    "CONNECTED-",
    "CONNECTED-COMPONENTS",
    "COUN",
    "COUNT",
    "COUNTING-",
    "COUNTING-SORT",
    "COVER",
    "CPU",
    "CRE",
    "CS,",
    "CS,j",
    "CS,j+1",
    "CS,m",
    "CT",
    "CT-",
    "CU",
    "CUT-RO",
    "CUT-ROD",
    "CUT-ROD(p,",
    "CUT-ROD-",
    "CY",
    "CYC",
    "CYCLE",
    "Cal",
    "Cam",
    "Cambridge",
    "Can",
    "Car",
    "Carmi",
    "Carmich",
    "Carmichael",
    "Cart",
    "Cartes",
    "Cartesian",
    "Case",
    "Ch",
    "Chapter",
    "Chapters",
    "Char",
    "Charles",
    "Cher",
    "Chin",
    "Chinese",
    "Cho",
    "Chris",
    "Ci",
    "Cil",
    "Cilk",
    "Cl",
    "Co",
    "Com",
    "Combin",
    "Combinatorial",
    "Combining",
    "Comm",
    "Communications",
    "Comp",
    "Company,",
    "Compare",
    "Comple",
    "Complex",
    "Comput",
    "Computation,",
    "Computational",
    "Compute",
    "Computer",
    "Computing",
    "Computing,",
    "Con",
    "Conclude",
    "Consequently,",
    "Consider",
    "Construct",
    "Constructing",
    "Contin",
    "Conversely,",
    "Cor",
    "Corollary",
    "Correct",
    "Correctness",
    "Coun",
    "Counting",
    "Cre",
    "Cryp",
    "D",
    "D,",
    "D-",
    "D.",
    "DA",
    "DAG",
    "DAG-",
    "DE",
    "DECOMPOSI",
    "DECOMPOSITION",
    "DECRE",
    "DECREASE-KEY",
    "DELE",
    "DELETE",
    "DELETE,",
    "DELETE-",
    "DEQUEUE",
    "DESC",
    "DF",
    "DFS",
    "DFS-",
    "DFS-VISI",
    "DFS-VISIT",
    "DFT",
    "DFTs",
    "DI",
    "DISK",
    "DISK-",
    "DISK-READ",
    "DISK-W",
    "DISK-WRITE",
    "DNA",
    "Da",
    "Dan",
    "Daniel",
    "Data",
    "David",
    "Davis",
    "De",
    "Def",
    "Define",
    "Delet",
    "Deletion",
    "Den",
    "Denot",
    "Denote",
    "Dep",
    "Des",
    "Descri",
    "Describe",
    "Design",
    "Develop",
    "Di",
    "Dif",
    "Dijk",
    "Dijkstra",
    "Dijkstra's",
    "Dis",
    "Discrete",
    "Divi",
    "Divide",
    "Dj",
    "Do",
    "Does",
    "Donald",
    "Dor",
    "Draw",
    "Dynamic",
    "E",
    "E)",
    "E),",
    "E)-time",
    "E).",
    "E,",
    "E-",
    "E-S",
    "E.",
    "E2",
    "ED",
    "EE",
    "EI",
    "EIGH",
    "EM,",
    "EN",
    "ENQUEUE",
    "ENQUEUE(Q,",
    "ENT",
    "ENT-",
    "ER",
    "ES",
    "EUCLI",
    "EUCLID",
    "EX",
    "EXAC",
    "EXT",
    "EXTEN",
    "EXTEND-",
    "EXTENDE",
    "EXTENDED-",
    "EXTENDED-EUCLID",
    "EXTRA",
    "EXTRACT-",
    "EXTRACT-MAX",
    "EXTRACT-MIN",
    "EY",
    "E[",
    "E[X]",
    "Each",
    "Ed",
    "Edges",
    "Edmon",
    "Edmonds",
    "Edmonds-Karp",
    "Ef",
    "Efficient",
    "Ei",
    "Element",
    "Emma",
    "En",
    "Engl",
    "English",
    "Eq1",
    "Equ",
    "Equation",
    "Eucl",
    "Euclid",
    "Euclid's",
    "Eul",
    "Euler",
    "Even",
    "Every",
    "Ex",
    "Examp",
    "Examples",
    "Exercis",
    "Exercise",
    "Exercises",
    "Explain",
    "Expres",
    "Express",
    "F",
    "F,",
    "F.",
    "FAL",
    "FALSE",
    "FF",
    "FFT",
    "FI",
    "FIB",
    "FIN",
    "FIND-",
    "FIND-AUGMENTING-PATH",
    "FIND-SET",
    "FINI",
    "FINITE-",
    "FINITE-AUTOMATON-",
    "FINITE-AUTOMATON-MATCHER",
    "FIX",
    "FIX-",
    "FIXU",
    "FIXUP",
    "FIXUP,",
    "FIXUP.",
    "FL",
    "FO",
    "FOR",
    "FORD-",
    "FORD-FUL",
    "FORD-FULK",
    "FORD-FULKER",
    "FORD-FULKERSON",
    "FORE",
    "FORESE",
    "FORESEE",
    "FR",
    "FRON",
    "FS",
    "FT",
    "FUL",
    "FUN",
    "FUNC",
    "FUNCTION",
    "Fast",
    "Faster",
    "Fi",
    "Fib",
    "Fibonacci",
    "Figure",
    "Figures",
    "Fin",
    "Finally,",
    "Find",
    "Finding",
    "First",
    "First,",
    "Fk",
    "Flow",
    "Floy",
    "Floyd-",
    "Floyd-Warshall",
    "For",
    "Ford",
    "Ford-",
    "Ford-Fulkerson",
    "Form",
    "Formul",
    "Fort",
    "Fortunately,",
    "Found",
    "Foundations",
    "Fouri",
    "Fourier",
    "Fred",
    "Fredman",
    "From",
    "Ful",
    "Fulk",
    "Fulkerson",
    "Further",
    "Furthermore,",
    "G",
    "G,",
    "G.",
    "G.E",
    "G.V",
    "GA",
    "GAL",
    "GALE-",
    "GALE-SHAPLE",
    "GALE-SHAPLEY",
    "GF",
    "GH",
    "GM",
    "GM,",
    "GM,h",
    "GM,h.",
    "GRA",
    "GRADI",
    "GRADIENT-",
    "GRADIENT-DESC",
    "GRADIENT-DESCENT",
    "GRE",
    "GREED",
    "GREEDY-",
    "GREEDY-SET-",
    "GREEDY-SET-COVER",
    "GT",
    "Ga",
    "Gab",
    "Gabow",
    "Gal",
    "Galil",
    "Gaus",
    "Ge",
    "Gener",
    "General",
    "Gf",
    "Gf.",
    "Gh",
    "Give",
    "Given",
    "Go",
    "Gold",
    "Goldberg",
    "Gra",
    "Gradient",
    "Graha",
    "Graph",
    "Gray",
    "Gre",
    "Greedy",
    "Gri",
    "Gu",
    "H",
    "H,",
    "H.",
    "HA",
    "HAM-",
    "HAM-CYCLE",
    "HASH",
    "HASH-",
    "HE",
    "HEA",
    "HEAP",
    "HEAP-",
    "HEAPSORT",
    "HI",
    "HIR",
    "HIRE-",
    "HIRE-ASSIST",
    "HO",
    "HOAR",
    "HOARE-",
    "Ha",
    "Hall,",
    "Han",
    "Hand",
    "Hank",
    "Har",
    "Hard",
    "Having",
    "He",
    "Hence,",
    "Here",
    "Here's",
    "Here,",
    "Ho",
    "Hochbaum",
    "Hop",
    "Hopcr",
    "Hopcrof",
    "Hopcroft",
    "Hopcroft,",
    "Hopcroft-Karp",
    "Hor",
    "How",
    "Hu",
    "Huffman",
    "Hung",
    "Hungari",
    "Hungarian",
    "I",
    "I,",
    "I.",
    "IC",
    "IF",
    "IFY",
    "II",
    "IL",
    "IMU",
    "IMUM",
    "IMUM,",
    "IN",
    "INCRE",
    "INCREASE-KEY",
    "INCREMENT",
    "ING",
    "ING-",
    "INGL",
    "INGLE-",
    "INGLE-SOURC",
    "INGLE-SOURCE",
    "INGLE-SOURCE(G,",
    "INI",
    "INITIA",
    "INITIALI",
    "INITIALIZ",
    "INITIALIZE-S",
    "INITIALIZE-SINGLE-SOURCE(G,",
    "INORDE",
    "INORDER-",
    "INORDER-TREE-",
    "INSE",
    "INSERT",
    "INSERT,",
    "INSERTI",
    "INSERTION-",
    "INSERTION-SORT",
    "INTER",
    "INTERV",
    "INTERVAL",
    "INTERVAL-SEARCH",
    "IR",
    "IT",
    "IT-",
    "IZE",
    "IZED",
    "IZED-",
    "If",
    "If,",
    "Ill",
    "Im",
    "Ima",
    "Imm",
    "Immedi",
    "In",
    "Inde",
    "Indeed,",
    "Information",
    "Initi",
    "Initial",
    "Initialization",
    "Initialization:",
    "Initially,",
    "Inser",
    "Inserting",
    "Insertion",
    "Instead",
    "Instead,",
    "Int",
    "Inter",
    "Interval",
    "Introdu",
    "Introduction",
    "Intu",
    "Intuitively,",
    "Is",
    "It",
    "It's",
    "Its",
    "J",
    "J.",
    "JO",
    "James",
    "Jav",
    "Java",
    "Jef",
    "Jo",
    "Joe",
    "John",
    "Johnson",
    "Johnson's",
    "Jose",
    "Joseph",
    "Jour",
    "Journal",
    "Jr.",
    "Just",
    "Justify",
    "K",
    "K,",
    "K.",
    "KM",
    "KMP-",
    "KMP-MATCHER",
    "Kar",
    "Kare",
    "Karen",
    "Karen,",
    "Karp",
    "Ke",
    "Kle",
    "Knu",
    "Knuth",
    "Knuth,",
    "Knuth-",
    "Knuth-Morris-",
    "Knuth-Morris-Pratt",
    "Knuth.",
    "Kr",
    "Krus",
    "Krusk",
    "Kruskal",
    "Kruskal's",
    "L",
    "L(",
    "L(n)",
    "L(r",
    "L(r)",
    "L,",
    "L-",
    "L.",
    "L.head",
    "L.nil",
    "L.nil.",
    "L1",
    "L2",
    "L2.",
    "LA",
    "LC",
    "LCP",
    "LCP[",
    "LCS",
    "LCS-",
    "LCS-LENGTH",
    "LE",
    "LEF",
    "LEFT-ROTATE(T,",
    "LEN",
    "LENG",
    "LENGTH",
    "LER-",
    "LI",
    "LIFO",
    "LIN",
    "LINE",
    "LINEAR-",
    "LINK",
    "LIST",
    "LIST-",
    "LIST-DELETE",
    "LIST-INSERT",
    "LIST-SEARCH",
    "LO",
    "LOG",
    "LOO",
    "LOOK",
    "LOOKUP-",
    "LOOKUP-CHAIN",
    "LOW-",
    "LRU",
    "LU",
    "LU-",
    "LU-DECOMPOSITION",
    "LUP",
    "LUP-",
    "LY-",
    "La",
    "Lace",
    "Law",
    "Le",
    "Lecture",
    "Lee",
    "Leight",
    "Leis",
    "Leiserson",
    "Lemma",
    "Len",
    "Lenstra",
    "Lenstra,",
    "Let",
    "Let's",
    "Letting",
    "Li",
    "Like",
    "Likewise,",
    "Line",
    "Linear",
    "Lines",
    "Lloy",
    "Lloyd",
    "Lloyd's",
    "Lo",
    "Lucky",
    "M",
    "M(n)",
    "M*",
    "M,",
    "M-",
    "M-augmenting",
    "M.",
    "MA",
    "MAJO",
    "MAJORI",
    "MAK",
    "MAKE-",
    "MAKE-RANK",
    "MAKE-SET",
    "MAKE-SET,",
    "MAN",
    "MAR",
    "MARK",
    "MARKING",
    "MAT",
    "MAT-",
    "MAT-VE",
    "MATCH",
    "MATCHER",
    "MATRI",
    "MATRIX-",
    "MATRIX-CHAIN",
    "MATRIX-CHAIN-",
    "MATRIX-CHAIN-ORDE",
    "MATRIX-CHAIN-ORDER",
    "MATRIX-MULTIPL",
    "MATRIX-MULTIPLY",
    "MATRIX-MULTIPLY-",
    "MATRIX-MULTIPLY-RECURSIVE",
    "MAX",
    "MAX-",
    "MAX-HEAP",
    "MAX-HEAP-",
    "MAX-HEAP-INCREASE-KEY",
    "MAX-HEAPIFY",
    "MAX-HEAPIFY(A,",
    "MAXIMUM",
    "MAXIMUM,",
    "ME",
    "MEMO",
    "MEMOIZED-",
    "MENT",
    "MER",
    "MERG",
    "MERGE",
    "MERGE-",
    "MERGE-SORT",
    "MIL",
    "MILLER-",
    "MILLER-RABIN",
    "MIN",
    "MIN-",
    "MIN-HEAP",
    "MINIMUM",
    "MINIMUM,",
    "MIT",
    "MO",
    "MOD",
    "MODULAR-",
    "MODULAR-EX",
    "MODULAR-EXPONENTIATION",
    "MOVE-",
    "MOVE-TO",
    "MOVE-TO-FRON",
    "MOVE-TO-FRONT",
    "MP",
    "MST-",
    "MU",
    "MUL",
    "MULTI",
    "MULTIPL",
    "MULTIPOP",
    "Ma",
    "Mach",
    "Machine",
    "Main",
    "Maintain",
    "Maintenance",
    "Maintenance:",
    "Make",
    "Making",
    "Man",
    "Many",
    "Mar",
    "Mark",
    "Mart",
    "Mat",
    "Matching",
    "Mathemat",
    "Mathematic",
    "Mathematical",
    "Mathematics",
    "Mathematics,",
    "Matrix",
    "Max",
    "Mc",
    "Me",
    "Med",
    "Mehl",
    "Mehlhor",
    "Merge",
    "Mich",
    "Michael",
    "Mik",
    "Miller",
    "Miller-",
    "Miller-Rabin",
    "Min",
    "Minimum",
    "Mo",
    "Mod",
    "Modify",
    "Mon",
    "Monty",
    "Mor",
    "More",
    "Moreover,",
    "Morgan",
    "Morris",
    "Morris-",
    "Most",
    "Multi",
    "Multiplying",
    "N",
    "N.",
    "NA",
    "NAI",
    "NAIVE-",
    "NE",
    "NF",
    "NI",
    "NIL",
    "NIL,",
    "NIL.",
    "NO",
    "NON",
    "NONFUL",
    "NONFULL",
    "NP",
    "NP,",
    "NP-",
    "NP-complet",
    "NP-complete",
    "NP-complete,",
    "NP-complete.",
    "NP-completen",
    "NP-completeness",
    "NP-hard",
    "NP-hard.",
    "NP.",
    "NPcomplete",
    "Na",
    "Ne",
    "Never",
    "Nevertheless,",
    "New",
    "Next",
    "Next,",
    "No",
    "Node",
    "Nor",
    "Not",
    "Note",
    "Notes",
    "Now",
    "Now,",
    "Num",
    "Number",
    "O",
    "O(",
    "O(1)",
    "O(1),",
    "O(1).",
    "O(E",
    "O(E)",
    "O(M",
    "O(V",
    "O(V2",
    "O(VE",
    "O(VE)",
    "O(g(n))",
    "O(h)",
    "O(lg",
    "O(m",
    "O(m)",
    "O(n",
    "O(n)",
    "O(n),",
    "O(n).",
    "O(n2)",
    "O(n2),",
    "O(n2).",
    "O(n3)",
    "O(nk)",
    "O-notation",
    "OM",
    "ON",
    "ON-",
    "ONG",
    "OP",
    "OPTI",
    "OPTIMA",
    "OPTIMAL-",
    "OPTIMAL-BST",
    "OR",
    "ORDE",
    "OS-",
    "OS-RANK",
    "OS-SELECT",
    "OT",
    "Ob",
    "Observe",
    "Oce",
    "Ocean",
    "Oceanside,",
    "Of",
    "On",
    "Once",
    "One",
    "Online",
    "Only",
    "Op",
    "Optim",
    "Optimal",
    "Optimization",
    "Or",
    "Orlin",
    "Oscar",
    "Other",
    "Otherwise,",
    "Our",
    "Over",
    "P",
    "P,",
    "P-",
    "P-FIB",
    "P-MAT-VE",
    "P-MATRIX-MULTIPLY-RECURSIVE",
    "P-MERGE-",
    "P-MERGE-AUX",
    "P-MERGE-SORT",
    "P-SCAN",
    "P-SCAN-",
    "P.",
    "P1",
    "P1,",
    "P2",
    "P2,",
    "PA",
    "PARE",
    "PAREN",
    "PARENT(i)",
    "PART",
    "PARTI",
    "PARTITION",
    "PATH",
    "PER",
    "PERMU",
    "PERMUTE",
    "PL",
    "PLE",
    "PO",
    "PON",
    "PONEN",
    "PONENTIA",
    "PONENTIATION",
    "POP",
    "POP,",
    "PR",
    "PRE",
    "PREDE",
    "PREDECESSO",
    "PREDECESSOR",
    "PREFIX-",
    "PREFIX-FUNCTION",
    "PRI",
    "PRIM",
    "PRIN",
    "PRINT-",
    "PRO",
    "PSE",
    "PSEU",
    "PSEUD",
    "PSEUDOP",
    "PSEUDOPRI",
    "PSEUDOPRIME",
    "PU",
    "PUSH",
    "PUSH(S,",
    "PUSH,",
    "P[",
    "P[1:",
    "P[1:m]",
    "P[:",
    "P[:k]",
    "P[:q",
    "P[:q]",
    "P[:q].",
    "P[:q]a",
    "P[:r]",
    "P[q",
    "Pa",
    "Papa",
    "Papadi",
    "Papadimit",
    "Papadimitri",
    "Papadimitriou",
    "Par",
    "Parallel",
    "Part",
    "Pat",
    "Path",
    "Pe",
    "Per",
    "Perform",
    "Perhaps",
    "Petti",
    "Pi",
    "Pk",
    "Pk)",
    "Po",
    "Polyno",
    "Polynomial",
    "Pr",
    "Prat",
    "Pratt",
    "Pren",
    "Prentice",
    "Press,",
    "Pri",
    "Prim",
    "Prim's",
    "Prior",
    "Pro",
    "Prob",
    "Probabil",
    "Probabilistic",
    "Probability",
    "Problem",
    "Problems",
    "Proceedings",
    "Process",
    "Professor",
    "Progra",
    "Programming",
    "Programming.",
    "Proof",
    "Proper",
    "Prove",
    "Pr{",
    "Publ",
    "Publish",
    "Puck",
    "Put",
    "Py",
    "Pyth",
    "Q",
    "Q,",
    "Q.",
    "Q.head",
    "Q.tail",
    "QU",
    "QUE",
    "QUEU",
    "QUEUE",
    "QUIC",
    "QUICK",
    "QUICKSORT",
    "Qu",
    "R",
    "R,",
    "R-",
    "R.",
    "RA",
    "RABIN",
    "RADI",
    "RADIX-",
    "RADIX-SORT",
    "RAM",
    "RAN",
    "RAND",
    "RANDOM",
    "RANDOMIZED-",
    "RANDOMIZED-PARTITION",
    "RANDOMIZED-QUICKSORT",
    "RANDOMIZED-SELECT",
    "RANK",
    "RB-",
    "RB-DELETE",
    "RB-DELETE-",
    "RB-DELETE-FIXUP",
    "RB-INSERT",
    "RB-INSERT-",
    "RB-INSERT-FIXUP",
    "RC",
    "RC,",
    "RE",
    "RE-",
    "READ",
    "RECU",
    "RECUR",
    "RECURSI",
    "RECURSIVE",
    "RECURSIVE-",
    "RECURSIVE-ACTIVITY-SELECTOR",
    "RECURSIVE-MATRIX-CHAIN",
    "RED",
    "REDUC",
    "REDUCE",
    "RELA",
    "RELAX",
    "RI",
    "RIGH",
    "RITE",
    "RO",
    "RP",
    "RSA",
    "RT",
    "RTE",
    "RU",
    "Ra",
    "Rab",
    "Rabin",
    "Rabin-Karp",
    "Rad",
    "Ram",
    "Rand",
    "Random",
    "Randomi",
    "Randomized",
    "Rather",
    "Re",
    "Recall",
    "Recur",
    "Recursively",
    "Red",
    "Redu",
    "Ref",
    "Reg",
    "Regardless",
    "Rese",
    "Research",
    "Rewrite",
    "Rich",
    "Richard",
    "Riv",
    "Rivest",
    "Ro",
    "Robert",
    "Ronald",
    "Run",
    "S",
    "S)",
    "S,",
    "S-",
    "S-1",
    "S.",
    "S.top",
    "S1",
    "S1,",
    "S2",
    "S2,",
    "S3",
    "SA",
    "SAT",
    "SAT.",
    "SA[",
    "SA[i]",
    "SC",
    "SCAN",
    "SCC",
    "SE",
    "SEAR",
    "SEARCH",
    "SEARCH,",
    "SELE",
    "SELEC",
    "SELECT",
    "SELECT.",
    "SELECTOR",
    "SET",
    "SET,",
    "SET-",
    "SH",
    "SHAP",
    "SHAPLE",
    "SHO",
    "SHORTE",
    "SHORTEST-",
    "SHORTEST-PATH",
    "SHORTEST-PATHS",
    "SI",
    "SIAM",
    "SIG",
    "SK",
    "SO",
    "SOL",
    "SON",
    "SORT",
    "SOU",
    "SOURC",
    "SP",
    "SPLI",
    "SPLIT-",
    "SS",
    "ST",
    "ST-",
    "STR",
    "STRA",
    "SU",
    "SUB",
    "SUBSET-",
    "SUBSET-SU",
    "SUBSET-SUM",
    "SUCCESSO",
    "SUCCESSOR",
    "SUCCESSOR,",
    "SUF",
    "SUFFIX-",
    "SUFFIX-ARRAY",
    "SUM-",
    "SUM-ARRAY",
    "San",
    "Sch",
    "Schur",
    "Sci",
    "Science",
    "Science,",
    "Sciences",
    "Sciences,",
    "Se",
    "Search",
    "Searching",
    "Second",
    "Second,",
    "Section",
    "Sections",
    "Sedge",
    "Sedgewick",
    "See",
    "Sele",
    "Ser",
    "Set",
    "Several",
    "Sh",
    "Sha",
    "She",
    "Shmo",
    "Short",
    "Shortest",
    "Show",
    "Si",
    "Sij",
    "Sim",
    "Simil",
    "Similar",
    "Similarly,",
    "Since",
    "Sk",
    "Sle",
    "Sleator",
    "Sn",
    "So",
    "Soci",
    "Society",
    "Sol",
    "Solving",
    "Some",
    "Sometimes",
    "Sometimes,",
    "Sons,",
    "Sort",
    "Sorting",
    "Spec",
    "Specifically,",
    "Spr",
    "Springer,",
    "St",
    "Stack",
    "Star",
    "Start",
    "Starting",
    "State",
    "Ste",
    "Step",
    "Sti",
    "Str",
    "Strass",
    "Strassen",
    "Strassen's",
    "Stru",
    "Structures",
    "Su",
    "Sub",
    "Substit",
    "Substituting",
    "Suc",
    "Such",
    "Suggest",
    "Sum",
    "Sup",
    "Suppose",
    "Sur",
    "Sy",
    "Sym",
    "Symp",
    "Symposi",
    "Symposium",
    "System",
    "T",
    "T(i)",
    "T(n)",
    "T)",
    "T).",
    "T,",
    "T-",
    "T-RO",
    "T-ROTATE",
    "T-ROTATE(T,",
    "T.",
    "T.nil",
    "T.nil,",
    "T.nil.",
    "T.num",
    "T.root",
    "T.size",
    "T1",
    "T1(n)",
    "T1/",
    "TA",
    "TA)",
    "TABLE-",
    "TABLE-INSERT",
    "TATE",
    "TE",
    "TE-",
    "TED-",
    "TEN",
    "TER",
    "TH",
    "TI",
    "TIA",
    "TION",
    "TION-",
    "TO",
    "TOU",
    "TP",
    "TRAN",
    "TRANS",
    "TRANSPL",
    "TRANSPLANT",
    "TRANSPLANT(T,",
    "TRE",
    "TREE",
    "TREE-",
    "TREE-DELETE",
    "TREE-INSERT",
    "TREE-MINIMUM",
    "TREE-SEARCH",
    "TRU",
    "TRUE",
    "TRUE,",
    "TS",
    "TSP-",
    "TSP-TOU",
    "TY",
    "T[",
    "T[1:",
    "T[:",
    "T[:s",
    "T[SA[",
    "T[SA[rank[i",
    "T[i",
    "T[i:",
    "T[i:]",
    "T[i]",
    "T[j",
    "T[q]",
    "T[s",
    "Ta",
    "Taking",
    "Tar",
    "Tarjan",
    "Tarjan.",
    "Tech",
    "Ter",
    "Termin",
    "Termination",
    "Termination:",
    "Th",
    "That",
    "The",
    "Then",
    "Then,",
    "Theor",
    "Theore",
    "Theorem",
    "Theoretical",
    "Theory",
    "Theory,",
    "There",
    "Therefore,",
    "These",
    "They",
    "Think",
    "Thir",
    "This",
    "Thom",
    "Thor",
    "Thorup",
    "Thus",
    "Thus,",
    "Ti",
    "Tim",
    "Time",
    "To",
    "Tran",
    "Transa",
    "Transactions",
    "Tre",
    "Trees",
    "Tw",
    "Two",
    "Ty",
    "Typ",
    "Typically,",
    "T}",
    "U",
    "U,",
    "U.",
    "U.S.",
    "UC",
    "UCCESSO",
    "UCLI",
    "UL",
    "ULAR-",
    "UN",
    "UNI",
    "UNION",
    "UNION,",
    "UP-",
    "Ui",
    "Ullman",
    "Un",
    "Under",
    "Unfortunately,",
    "Uni",
    "Univers",
    "University",
    "Unlike",
    "Up",
    "Upon",
    "Use",
    "Using",
    "V",
    "V)",
    "V),",
    "V).",
    "V*",
    "V,",
    "V.",
    "V2",
    "VE",
    "VE-",
    "VER",
    "VERTE",
    "VERTEX-",
    "VERTEX-COVER",
    "VI",
    "VISI",
    "Van",
    "Var",
    "Vari",
    "Ver",
    "Vertex",
    "Vertices",
    "W",
    "W,",
    "W-",
    "W.",
    "WAL",
    "WALK",
    "WAR",
    "WEIGH",
    "WEIGHTED-",
    "WEIGHTED-MAJORI",
    "WHI",
    "WHITE",
    "WIT",
    "WITN",
    "WITNES",
    "WITNESS",
    "Wand",
    "Wanda,",
    "War",
    "Warshall",
    "We",
    "We'll",
    "Wh",
    "What",
    "When",
    "Whenever",
    "Where",
    "Which",
    "Why",
    "Why?",
    "Wi",
    "Wiley",
    "Will",
    "Willi",
    "William",
    "Williamson",
    "Win",
    "With",
    "Within",
    "Without",
    "Wor",
    "Wr",
    "Write",
    "X",
    "X,",
    "X-",
    "X.",
    "Xi",
    "Xm-1",
    "Y",
    "Y,",
    "Y-",
    "Y.",
    "You",
    "Youn",
    "Young",
    "Your",
    "Z",
    "ZE",
    "Zij",
    "[",
    "[0",
    "[0,",
    "[1",
    "[1,",
    "[10",
    "[11",
    "[13",
    "[14",
    "[15",
    "[16",
    "[17",
    "[18",
    "[19",
    "[1:",
    "[1]",
    "[2",
    "[20",
    "[23",
    "[24",
    "[25",
    "[259]",
    "[26",
    "[261]",
    "[27",
    "[28",
    "[29",
    "[2]",
    "[3",
    "[30",
    "[33",
    "[34",
    "[35",
    "[36",
    "[37",
    "[38",
    "[39",
    "[3]",
    "[4",
    "[40",
    "[43",
    "[44",
    "[45",
    "[46",
    "[5",
    "[5]",
    "[6",
    "[7",
    "[8",
    "[9",
    "[A[j]",
    "[A[j]]",
    "[X",
    "[X]",
    "[a",
    "[a]",
    "[a]n",
    "[b",
    "[i",
    "[i,",
    "[i]",
    "[i].",
    "[j]",
    "[k]",
    "[q",
    "[q]",
    "[u,",
    "[v,",
    "]",
    "],",
    "].",
    "]n",
    "_",
    "__",
    "`",
    "a",
    "a(u,",
    "a)",
    "a),",
    "a).",
    "a,",
    "a.",
    "a.freq",
    "a/",
    "a0",
    "a0,",
    "a1",
    "a1,",
    "a11",
    "a2",
    "a2,",
    "a:",
    "ab",
    "ab,",
    "abab",
    "ababa",
    "abe",
    "abil",
    "ability",
    "able",
    "able,",
    "ables",
    "ably",
    "abor",
    "about",
    "above",
    "above,",
    "above.",
    "abs",
    "absol",
    "absolute",
    "abstra",
    "abstract",
    "abuse",
    "ac",
    "accep",
    "accepted",
    "accepting",
    "accepts",
    "access",
    "accessed",
    "accesses",
    "acci",
    "accomp",
    "accompl",
    "according",
    "account",
    "accounting",
    "accumul",
    "accur",
    "ach",
    "achi",
    "achiev",
    "achieve",
    "achieved",
    "achieves",
    "ack",
    "acro",
    "across",
    "act",
    "acti",
    "action",
    "activi",
    "activities",
    "activities.",
    "activity",
    "activity-",
    "activity-selection",
    "actu",
    "actual",
    "actually",
    "acy",
    "acyclic",
    "acyclic,",
    "acyclic.",
    "ad",
    "adap",
    "add",
    "added",
    "addi",
    "adding",
    "addition",
    "addition,",
    "additional",
    "additive",
    "addres",
    "address",
    "addressing",
    "addressing,",
    "adds",
    "adjac",
    "adjacency",
    "adjacency-list",
    "adjacency-matrix",
    "adjacent",
    "adjust",
    "adop",
    "adopt",
    "adrat",
    "adv",
    "advan",
    "advance",
    "advance.",
    "advanced",
    "advanta",
    "advantage",
    "advantages",
    "advers",
    "adversary",
    "advert",
    "advertis",
    "advertising",
    "ael",
    "af",
    "affe",
    "affect",
    "after",
    "afterward",
    "afterward.",
    "ag",
    "aga",
    "aga$",
    "again",
    "again,",
    "against",
    "age",
    "agement",
    "agent",
    "ages",
    "aggregate",
    "ah",
    "ai",
    "aij",
    "aik",
    "ail",
    "ailable",
    "ain",
    "aj",
    "aj,",
    "ak",
    "ak,",
    "al",
    "al.",
    "ales",
    "alesperson",
    "algebra",
    "algebraic",
    "algorithm",
    "algorithm's",
    "algorithm,",
    "algorithm.",
    "algorithm?",
    "algorithmic",
    "algorithms",
    "algorithms,",
    "algorithms.",
    "algorithms:",
    "align",
    "ality",
    "all",
    "all,",
    "all-",
    "all-pairs",
    "all.",
    "alle",
    "allel",
    "alleli",
    "alloc",
    "allocate",
    "allow",
    "allowed",
    "allowing",
    "allows",
    "ally",
    "ally,",
    "ally.",
    "almost",
    "along",
    "alpha",
    "alphabe",
    "alphabet",
    "alphabetical",
    "already",
    "also",
    "altern",
    "alternate",
    "alternative",
    "although",
    "always",
    "am",
    "ambig",
    "ambigu",
    "ame",
    "ament",
    "amental",
    "ames",
    "ameter",
    "among",
    "amortized",
    "amoun",
    "amount",
    "amounts",
    "amp",
    "an",
    "an)",
    "an,",
    "an.",
    "an1",
    "anal",
    "analog",
    "analogous",
    "analy",
    "analys",
    "analyses",
    "analysis",
    "analysis,",
    "analysis.",
    "analyze",
    "analyzed",
    "analyzing",
    "ance",
    "anced",
    "ances",
    "ancest",
    "ancestor",
    "and",
    "and,",
    "and-",
    "ander",
    "andid",
    "ang",
    "ange",
    "angle",
    "anon",
    "anonymous",
    "another",
    "another,",
    "another.",
    "ans",
    "answ",
    "answer",
    "answer.",
    "answers",
    "ant",
    "ante",
    "anti",
    "antiparallel",
    "any",
    "any,",
    "anywhere",
    "ap",
    "app",
    "apparent",
    "appe",
    "appear",
    "appearing",
    "appears",
    "appen",
    "apping",
    "appl",
    "applic",
    "applicant",
    "application",
    "applications",
    "applications,",
    "applications.",
    "applied",
    "applies",
    "applies.",
    "apply",
    "applying",
    "appro",
    "approach",
    "approach,",
    "approach.",
    "approaches",
    "appropri",
    "appropriate",
    "approx",
    "approxi",
    "approximate",
    "approximately",
    "approximation",
    "aps",
    "apter",
    "ar",
    "arbit",
    "arbitr",
    "arbitrari",
    "arbitrarily",
    "arbitrary",
    "arch",
    "ard",
    "ardless",
    "are",
    "are.",
    "area",
    "aren",
    "arest",
    "arg",
    "argu",
    "argue",
    "argued",
    "argument",
    "argument.",
    "arguments",
    "ari",
    "aries",
    "arily",
    "aring",
    "ario",
    "aris",
    "arise",
    "arises",
    "arison",
    "arithm",
    "arithmetic",
    "ark",
    "aro",
    "around",
    "arp",
    "arra",
    "arran",
    "arrange",
    "array",
    "array,",
    "array.",
    "arrays",
    "arrays,",
    "arrays.",
    "arri",
    "arriage",
    "arrive",
    "arrives",
    "arrow",
    "arrows",
    "art",
    "artic",
    "article",
    "ary",
    "as",
    "as,",
    "as.",
    "ase",
    "ases",
    "ash",
    "asing",
    "ask",
    "asked",
    "asks",
    "ason",
    "aspe",
    "ass",
    "assi",
    "assign",
    "assigned",
    "assigning",
    "assignment",
    "assignment.",
    "assignments",
    "assigns",
    "assistant",
    "associ",
    "associated",
    "associative",
    "assu",
    "assume",
    "assumed",
    "assumes",
    "assuming",
    "assumption",
    "assumptions",
    "ast",
    "asymptotic",
    "asymptotically",
    "at",
    "ata",
    "atat",
    "ate",
    "ated",
    "ately",
    "ately,",
    "ater",
    "ates",
    "ates,",
    "ates.",
    "ath",
    "ating",
    "ation",
    "ation,",
    "ation.",
    "ational",
    "ations",
    "ations.",
    "atis",
    "atistic",
    "ativ",
    "ative",
    "ativity",
    "ator",
    "atorial",
    "attemp",
    "attempt",
    "atten",
    "attention",
    "attribut",
    "attribute",
    "attribute.",
    "attributes",
    "attributes.",
    "ature",
    "au",
    "augment",
    "augmented",
    "augmenting",
    "auth",
    "authen",
    "authentic",
    "authentication",
    "authors",
    "auto",
    "automat",
    "automatically",
    "automaton",
    "automobile",
    "aux",
    "auxili",
    "auxiliary",
    "av",
    "available",
    "average",
    "average,",
    "average-case",
    "avo",
    "avoid",
    "ax",
    "axi",
    "axiom",
    "ay",
    "b",
    "b(k",
    "b(k;",
    "b)",
    "b),",
    "b).",
    "b,",
    "b-bit",
    "b.",
    "b1,",
    "b2,",
    "b:",
    "b[i,",
    "ba",
    "back",
    "background",
    "backward",
    "bad",
    "bag",
    "bal",
    "balance",
    "balanced",
    "balanced.",
    "ball",
    "balls",
    "bas",
    "base",
    "based",
    "basic",
    "basis",
    "be",
    "bear",
    "beat",
    "because",
    "become",
    "becomes",
    "been",
    "before",
    "before,",
    "begin",
    "beginning",
    "begins",
    "beha",
    "behavi",
    "behavior",
    "behind",
    "being",
    "belong",
    "belongs",
    "below",
    "ben",
    "bene",
    "ber",
    "berg",
    "bert",
    "best",
    "best-case",
    "bet",
    "better",
    "between",
    "bey",
    "beyond",
    "bh",
    "bh(x)",
    "bi",
    "bi,",
    "bi,1",
    "bic",
    "biconne",
    "biconnected",
    "big",
    "bil",
    "bility",
    "bin",
    "binary",
    "binary-search",
    "binary-search-tree",
    "bine",
    "binomial",
    "bins",
    "bipartite",
    "birth",
    "birthday",
    "birthdays",
    "bit",
    "bitonic",
    "bits",
    "bits,",
    "bits.",
    "bj",
    "bl",
    "black",
    "black,",
    "black-",
    "black-height",
    "black.",
    "ble",
    "bles",
    "block",
    "block.",
    "blocking",
    "blocks",
    "blocks,",
    "blocks.",
    "blue",
    "blue,",
    "blue.",
    "bly",
    "bm",
    "bn",
    "bo",
    "bod",
    "body",
    "boo",
    "book",
    "book,",
    "book.",
    "books",
    "boolean",
    "bot",
    "both",
    "bottleneck",
    "bottom",
    "bottom-up",
    "bound",
    "bound,",
    "bound.",
    "boundary",
    "bounded",
    "bounding",
    "bounds",
    "bounds.",
    "box",
    "br",
    "bra",
    "brac",
    "bran",
    "branching",
    "brea",
    "bread",
    "breadth-first",
    "break",
    "breaking",
    "breaks",
    "bri",
    "brid",
    "bridge",
    "brief",
    "bro",
    "bu",
    "bucket",
    "buil",
    "build",
    "building",
    "built",
    "but",
    "bution",
    "butter",
    "butterf",
    "butterfly",
    "buy",
    "by",
    "byt",
    "bytes",
    "c",
    "c(",
    "c(u,",
    "c)",
    "c,",
    "c.",
    "c1",
    "c1,",
    "c1n",
    "c2",
    "c5",
    "cT",
    "c[i",
    "c[i,",
    "ca",
    "cach",
    "cache",
    "cache,",
    "cache.",
    "caching",
    "cal",
    "calcul",
    "calculate",
    "calculation",
    "call",
    "call,",
    "call.",
    "calle",
    "called",
    "calling",
    "calls",
    "calls,",
    "calls.",
    "came",
    "can",
    "can,",
    "candid",
    "candidate",
    "candidates",
    "cannot",
    "cap",
    "capa",
    "capaci",
    "capacities",
    "capacity",
    "capacity.",
    "capital",
    "capt",
    "capture",
    "car",
    "card",
    "cardin",
    "cardinality",
    "cards",
    "care",
    "careful",
    "carri",
    "carry",
    "cas",
    "case",
    "case,",
    "case.",
    "cases",
    "cases,",
    "cases.",
    "casion",
    "cast",
    "cat",
    "cate",
    "categor",
    "caten",
    "cause",
    "caused",
    "causes",
    "cc",
    "ce",
    "ced",
    "ceed",
    "ceedings",
    "ceil",
    "ceiling",
    "ceilings",
    "cell",
    "cend",
    "cent",
    "center",
    "centers",
    "centr",
    "centroid",
    "cep",
    "cept",
    "ception",
    "cer",
    "certain",
    "certainly",
    "certific",
    "certificate",
    "ces",
    "cess",
    "cf",
    "cg(n)",
    "ch",
    "chain",
    "chaining",
    "chains",
    "chan",
    "chance",
    "chang",
    "change",
    "change,",
    "change.",
    "changed",
    "changes",
    "changes.",
    "changing",
    "chapter",
    "chapter,",
    "chapter.",
    "chapters",
    "char",
    "charact",
    "character",
    "characteristic",
    "characterize",
    "characterizes",
    "characters",
    "characters,",
    "characters.",
    "charge",
    "charges",
    "che",
    "check",
    "checking",
    "checks",
    "ched",
    "ches",
    "child",
    "child,",
    "child.",
    "children",
    "children,",
    "children.",
    "ching",
    "chips",
    "cho",
    "choic",
    "choice",
    "choice,",
    "choice.",
    "choices",
    "choices.",
    "choo",
    "choose",
    "chooses",
    "choosing",
    "chop",
    "chose",
    "chosen",
    "chosen,",
    "chotom",
    "ci",
    "cial",
    "cij",
    "cil",
    "cing",
    "ciph",
    "cipher",
    "cir",
    "circle",
    "circles",
    "circu",
    "circuit",
    "circuit,",
    "circuit-",
    "circuit-satisfiability",
    "circular",
    "cis",
    "cise",
    "cision",
    "city",
    "cj",
    "ck",
    "cket",
    "cl",
    "cla",
    "claim",
    "claims",
    "class",
    "classes",
    "classi",
    "classify",
    "claus",
    "clause",
    "clause,",
    "clauses",
    "cle",
    "clean",
    "clear",
    "cles",
    "clever",
    "cli",
    "clic",
    "clique",
    "clo",
    "clos",
    "close",
    "closed",
    "closely",
    "closer",
    "closest",
    "closure",
    "clu",
    "clude",
    "clusion",
    "clust",
    "cluster",
    "clustering",
    "clusters",
    "cn",
    "cn2",
    "co",
    "co-",
    "code",
    "code,",
    "code.",
    "codes",
    "codeword",
    "coding",
    "coefficient",
    "coefficients",
    "coin",
    "coins",
    "col",
    "coll",
    "colle",
    "collection",
    "collide",
    "collision",
    "collisions",
    "colo",
    "color",
    "colored",
    "coloring",
    "colors",
    "colum",
    "column",
    "column-",
    "column-major",
    "column.",
    "columns",
    "columns.",
    "columnsort",
    "com",
    "combin",
    "combination",
    "combinational",
    "combinatorial",
    "combine",
    "combined",
    "combining",
    "come",
    "comes",
    "coming",
    "comm",
    "commod",
    "commodity",
    "common",
    "common-",
    "commonly",
    "commun",
    "commut",
    "comp",
    "compact",
    "company",
    "compare",
    "compare-",
    "compare-exchange",
    "compared",
    "compares",
    "comparing",
    "comparison",
    "comparison-based",
    "comparisons",
    "comparisons.",
    "compat",
    "compatible",
    "compe",
    "competitive",
    "compil",
    "complement",
    "complet",
    "complete",
    "completed",
    "completes",
    "completing",
    "completion",
    "complex",
    "complexity",
    "complic",
    "complicated",
    "complicated,",
    "compo",
    "component",
    "component.",
    "components",
    "components.",
    "compos",
    "compose",
    "composit",
    "composite",
    "composite,",
    "composite.",
    "compositeness",
    "composition",
    "compres",
    "compression",
    "compression.",
    "compris",
    "comprises",
    "comput",
    "computation",
    "computation,",
    "computation.",
    "computational",
    "computations",
    "compute",
    "computed",
    "computed.",
    "computer",
    "computer,",
    "computer.",
    "computers",
    "computers,",
    "computes",
    "computing",
    "con",
    "concaten",
    "concep",
    "concept",
    "concepts",
    "concer",
    "concern",
    "conclude",
    "concrete",
    "cond",
    "condition",
    "condition.",
    "conditional",
    "conditions",
    "conf",
    "config",
    "configur",
    "configuration",
    "configurations",
    "conje",
    "conjun",
    "conne",
    "connect",
    "connected",
    "connected,",
    "connecting",
    "connectivity",
    "connects",
    "conquer",
    "conse",
    "consecu",
    "consecutive",
    "conserv",
    "conservation",
    "conside",
    "consider",
    "considered",
    "considering",
    "considers",
    "consist",
    "consistent",
    "consisting",
    "consists",
    "const",
    "constant",
    "constant,",
    "constant.",
    "constants",
    "constants.",
    "constit",
    "constra",
    "constrain",
    "constrained",
    "constraint",
    "constraint,",
    "constraints",
    "constraints,",
    "constraints.",
    "constru",
    "construct",
    "constructed",
    "constructing",
    "construction",
    "constructs",
    "cont",
    "contain",
    "contained",
    "containing",
    "contains",
    "contents",
    "context",
    "conti",
    "contigu",
    "contiguous",
    "contin",
    "continu",
    "continue",
    "continues",
    "continuous",
    "contra",
    "contract",
    "contracting",
    "contraction",
    "contradi",
    "contradicting",
    "contradiction",
    "contradiction.",
    "contradicts",
    "contrapositive",
    "contrast",
    "contrast,",
    "contribut",
    "contributes",
    "control",
    "conve",
    "conven",
    "conveni",
    "convenience,",
    "convenient",
    "convention",
    "convention,",
    "conver",
    "converg",
    "converse",
    "convert",
    "converted",
    "converting",
    "convex",
    "coordin",
    "coordinate",
    "cop",
    "copied",
    "copies",
    "copy",
    "copying",
    "cor",
    "cording",
    "core",
    "corollary",
    "corpor",
    "correct",
    "correct,",
    "correct.",
    "correctly",
    "correctly.",
    "correctness",
    "correspon",
    "correspond",
    "correspondence",
    "corresponding",
    "corresponds",
    "cost",
    "cost,",
    "cost.",
    "costs",
    "costs.",
    "cou",
    "could",
    "coun",
    "count",
    "counte",
    "counter",
    "countere",
    "counterexa",
    "counterexample",
    "counting",
    "counts",
    "cour",
    "course",
    "course,",
    "cove",
    "cover",
    "cover,",
    "cover.",
    "covered",
    "covering",
    "covers",
    "cr",
    "crates",
    "cre",
    "create",
    "created",
    "creates",
    "creating",
    "cred",
    "credit",
    "crete",
    "cri",
    "crip",
    "critical",
    "cro",
    "cros",
    "cross",
    "crosses",
    "crossing",
    "cryp",
    "crypto",
    "cryptograph",
    "cryptographic",
    "cryptosystem",
    "ct",
    "cted",
    "cti",
    "cting",
    "ction",
    "ctions",
    "ctive",
    "ctivity",
    "ctly",
    "ctor",
    "ctors",
    "cts",
    "cture",
    "ctures",
    "cu",
    "cul",
    "cular",
    "cum",
    "cumul",
    "cur",
    "curren",
    "current",
    "currently",
    "curve",
    "cus",
    "cut",
    "cut.",
    "cuts",
    "cutting",
    "cy",
    "cycl",
    "cycle",
    "cycle,",
    "cycle.",
    "cycles",
    "cycles,",
    "cycles.",
    "cyclic",
    "d",
    "d)",
    "d,",
    "d-",
    "d-ary",
    "d-dimensional",
    "d.",
    "dT",
    "da",
    "dag",
    "dat",
    "data",
    "data,",
    "data.",
    "datab",
    "date",
    "dating",
    "day",
    "day,",
    "day.",
    "days",
    "de",
    "deal",
    "dec",
    "decess",
    "deci",
    "decide",
    "decides",
    "decimal",
    "decision",
    "decisions",
    "deck",
    "decompose",
    "decomposition",
    "decomposition.",
    "decre",
    "decreas",
    "decrease",
    "decreases",
    "decreases.",
    "decreasing",
    "decryp",
    "ded",
    "defin",
    "define",
    "defined",
    "defined,",
    "defined.",
    "defines",
    "defining",
    "definite",
    "definition",
    "definition,",
    "definitions",
    "degree",
    "degree-bound",
    "del",
    "delet",
    "delete",
    "deleted",
    "deletes",
    "deleting",
    "deletion",
    "deletions",
    "dem",
    "demand",
    "demon",
    "demonstr",
    "demonstrates",
    "demonstrating",
    "den",
    "dence",
    "deno",
    "denomin",
    "denot",
    "denote",
    "denoted",
    "denotes",
    "denoting",
    "dens",
    "dense",
    "dent",
    "dep",
    "depend",
    "dependent",
    "depending",
    "depends",
    "depth",
    "depth-first",
    "dequeu",
    "der",
    "dered",
    "deriv",
    "derivative",
    "derive",
    "derived",
    "dern",
    "ders",
    "des",
    "descend",
    "descendant",
    "descent",
    "descent.",
    "descri",
    "describ",
    "describe",
    "described",
    "describes",
    "describing",
    "description",
    "desi",
    "desig",
    "design",
    "designed",
    "designing",
    "desira",
    "desirable",
    "desired",
    "dest",
    "destro",
    "det",
    "detail",
    "details",
    "dete",
    "determin",
    "determinacy",
    "determinant",
    "determine",
    "determined",
    "determines",
    "determining",
    "deterministic",
    "dev",
    "develop",
    "developed",
    "developing",
    "di",
    "dia",
    "diag",
    "diagonal",
    "diagra",
    "diagram",
    "dic",
    "dice",
    "diction",
    "dictionary",
    "did",
    "dient",
    "dif",
    "diffe",
    "differ",
    "difference",
    "differences",
    "different",
    "differently",
    "differs",
    "diffic",
    "difficul",
    "difficult",
    "dig",
    "digit",
    "digital",
    "digits",
    "dimen",
    "dimension",
    "dimensional",
    "dimensions",
    "ding",
    "dire",
    "direct",
    "direct-address",
    "directed",
    "direction",
    "directions",
    "directly",
    "dis",
    "discover",
    "discovered",
    "discovered,",
    "discovered.",
    "discovers",
    "discovery",
    "discrete",
    "discus",
    "discuss",
    "discussed",
    "discusses",
    "discussion",
    "disjoint",
    "disjoint,",
    "disjoint-set",
    "disk",
    "dist",
    "distance",
    "distances",
    "distin",
    "distinct",
    "distinct,",
    "distinct.",
    "distingu",
    "distinguish",
    "distinguished",
    "distri",
    "distribut",
    "distributed",
    "distribution",
    "distribution.",
    "dition",
    "divi",
    "divide",
    "divide-",
    "divide-and-",
    "divide-and-conquer",
    "divided",
    "divides",
    "dividing",
    "divis",
    "divisible",
    "division",
    "divisor",
    "divisors",
    "dix",
    "dle",
    "do",
    "do,",
    "do.",
    "doc",
    "document",
    "does",
    "does,",
    "doesn't",
    "doing",
    "doll",
    "dollar",
    "dollars",
    "domain",
    "domin",
    "dominates",
    "don't",
    "done",
    "done.",
    "door",
    "dou",
    "double",
    "doubly",
    "dow",
    "down",
    "down,",
    "downto",
    "downward",
    "dra",
    "dramat",
    "draw",
    "drawn",
    "dri",
    "drive",
    "drives",
    "driving",
    "dro",
    "drop",
    "drops",
    "ds",
    "du",
    "dual",
    "duality",
    "due",
    "dum",
    "dummy",
    "during",
    "dynam",
    "dynamic",
    "dynamic-programming",
    "dynamic-set",
    "e",
    "e,",
    "e.",
    "e1",
    "e2",
    "e[i,",
    "each",
    "each.",
    "ear",
    "earli",
    "earlier",
    "earlier.",
    "earliest",
    "early",
    "eas",
    "ease",
    "easi",
    "easier",
    "easily",
    "easy",
    "ech",
    "ed",
    "ed,",
    "ed.",
    "edge",
    "edge,",
    "edge.",
    "edges",
    "edges,",
    "edges.",
    "edi",
    "edit",
    "edition",
    "edition,",
    "editor",
    "editors,",
    "editors.",
    "edy",
    "ef",
    "effe",
    "effect",
    "effective",
    "efficiency",
    "efficient",
    "efficiently",
    "efficiently.",
    "eight",
    "either",
    "el",
    "eld",
    "ele",
    "elect",
    "electronic",
    "element",
    "element,",
    "element.",
    "elementary",
    "elements",
    "elements,",
    "elements.",
    "elev",
    "elevator",
    "elic",
    "elim",
    "elimin",
    "ell",
    "else",
    "elseif",
    "em",
    "emp",
    "employ",
    "empty",
    "empty,",
    "empty.",
    "en",
    "en,",
    "ence",
    "ence,",
    "ences",
    "enci",
    "enco",
    "encoded",
    "encoding",
    "encoding,",
    "encodings",
    "encounte",
    "encounter",
    "encountered",
    "encryp",
    "encryption",
    "ency",
    "end",
    "end,",
    "ending",
    "endpoint",
    "endpoints",
    "ends",
    "ene",
    "ener",
    "eness",
    "enforce",
    "eng",
    "engag",
    "engaged",
    "engaged,",
    "engagement",
    "engine",
    "enough",
    "enqueu",
    "enqueued",
    "ens",
    "ensive",
    "ensu",
    "ensure",
    "ensures",
    "ent",
    "entail",
    "enter",
    "entering",
    "enters",
    "enti",
    "ential",
    "entially",
    "entire",
    "entirely",
    "entri",
    "entries",
    "entry",
    "ents",
    "enum",
    "enumer",
    "envir",
    "environ",
    "environment",
    "ep",
    "epoch",
    "epoch,",
    "equ",
    "equal",
    "equal.",
    "equality",
    "equally",
    "equals",
    "equation",
    "equations",
    "equations.",
    "equi",
    "equival",
    "equivalence",
    "equivalent",
    "equivalently,",
    "er",
    "er,",
    "er.",
    "ercis",
    "ered",
    "erge",
    "ering",
    "erman",
    "ero",
    "err",
    "error",
    "errors",
    "ers",
    "ers,",
    "erson",
    "es",
    "es,",
    "es.",
    "ese",
    "esley,",
    "espe",
    "especi",
    "especially",
    "ess",
    "ess,",
    "ess.",
    "essential",
    "est",
    "establ",
    "establish",
    "established",
    "esti",
    "estimat",
    "estimate",
    "estimates",
    "et",
    "etti",
    "ety",
    "euclidean",
    "ev",
    "evalu",
    "evaluate",
    "evaluates",
    "evaluating",
    "evaluation",
    "eve",
    "even",
    "even,",
    "event",
    "events",
    "events.",
    "eventually",
    "ever",
    "every",
    "everyone",
    "evi",
    "evict",
    "evicted",
    "evicted.",
    "evicts",
    "ew",
    "ex",
    "exa",
    "exact",
    "exactly",
    "examin",
    "examine",
    "examined",
    "examines",
    "examining",
    "examp",
    "example",
    "example,",
    "example.",
    "examples",
    "examples.",
    "exceed",
    "exceeds",
    "excell",
    "excellent",
    "except",
    "exception",
    "exchange",
    "exchanging",
    "exclu",
    "exclusive",
    "exe",
    "exec",
    "execut",
    "execute",
    "executed",
    "executed.",
    "executes",
    "executes,",
    "executing",
    "execution",
    "exercis",
    "exha",
    "exhi",
    "exhibits",
    "exist",
    "exist,",
    "exist.",
    "existence",
    "existing",
    "exists",
    "exists,",
    "exists.",
    "exit",
    "exp",
    "expan",
    "expand",
    "expands",
    "expansion",
    "expe",
    "expect",
    "expectation",
    "expectation,",
    "expected",
    "expensive",
    "exper",
    "experim",
    "experiment",
    "expert",
    "experts",
    "explain",
    "explic",
    "explicit",
    "explicitly",
    "explo",
    "explore",
    "explores",
    "expon",
    "exponential",
    "exponential-time",
    "expres",
    "express",
    "expressed",
    "expression",
    "expressions",
    "ext",
    "exten",
    "extend",
    "extended",
    "extends",
    "extension",
    "extensive",
    "extra",
    "extracted",
    "extre",
    "extreme",
    "extremely",
    "f",
    "f(",
    "f(C)",
    "f(S,",
    "f(x",
    "f(x)",
    "f(x*)",
    "f)",
    "f,",
    "f.",
    "fa",
    "fac",
    "face",
    "facing",
    "fact",
    "fact,",
    "factor",
    "factor,",
    "factor.",
    "factoring",
    "factorization",
    "factors",
    "fail",
    "fails",
    "failure",
    "fair",
    "fall",
    "falls",
    "fam",
    "fami",
    "famili",
    "familiar",
    "family",
    "far",
    "far.",
    "fash",
    "fashion",
    "fast",
    "faster",
    "faster.",
    "fastest",
    "fav",
    "favor",
    "fe",
    "feas",
    "feasible",
    "feature",
    "fect",
    "fee",
    "feed",
    "fer",
    "ference",
    "fers",
    "few",
    "fewer",
    "fewest",
    "ff",
    "fficient",
    "ffman",
    "fi",
    "fic",
    "fici",
    "ficiency",
    "ficient",
    "field",
    "fies",
    "figure",
    "figure,",
    "fil",
    "file",
    "fill",
    "filled",
    "fills",
    "fin",
    "final",
    "finally",
    "find",
    "finding",
    "finds",
    "fine",
    "finish",
    "finished,",
    "finishes",
    "finite",
    "first",
    "first,",
    "first-",
    "first-out",
    "fit",
    "fits",
    "fitting",
    "five",
    "fix",
    "fixed",
    "fl",
    "fli",
    "flip",
    "flipping",
    "flips",
    "flo",
    "floor",
    "floors",
    "flow",
    "flow,",
    "flow.",
    "flows",
    "fo",
    "foc",
    "focus",
    "focuses",
    "follow",
    "followed",
    "following",
    "following:",
    "follows",
    "follows.",
    "follows:",
    "for",
    "force",
    "fore",
    "fore,",
    "forest",
    "forest,",
    "forest.",
    "fork-join",
    "form",
    "form,",
    "form.",
    "formal",
    "formally",
    "formally,",
    "format",
    "formation",
    "formed",
    "forms",
    "formul",
    "formula",
    "formulas",
    "formulas.",
    "formulate",
    "formulation",
    "fort",
    "forth",
    "fortunately,",
    "forward",
    "found",
    "found.",
    "four",
    "fourth",
    "fp",
    "fra",
    "fraction",
    "fractional",
    "frame",
    "framework",
    "fre",
    "free",
    "free,",
    "free.",
    "freq",
    "frequ",
    "frequenci",
    "frequencies",
    "frequency",
    "frequent",
    "frequently",
    "fri",
    "from",
    "fron",
    "front",
    "fronti",
    "ft",
    "fter",
    "fu",
    "ful",
    "full",
    "full,",
    "fully",
    "fun",
    "function",
    "function,",
    "function.",
    "functions",
    "functions,",
    "functions.",
    "fund",
    "fundamental",
    "fur",
    "furthe",
    "further",
    "furthest",
    "furthest-in",
    "furthest-in-",
    "furthest-in-future",
    "future",
    "future.",
    "fy",
    "g",
    "g(n)",
    "g(n))",
    "g(n)).",
    "g(n),",
    "g,",
    "g.",
    "g],",
    "ga",
    "gad",
    "gadget",
    "gadgets",
    "gain",
    "gain,",
    "gal",
    "game",
    "gar",
    "gate",
    "gate.",
    "gates",
    "gave",
    "gc",
    "gcd",
    "gcd(",
    "gcd(a,",
    "gcd(b,",
    "ge",
    "ge.",
    "gebra",
    "ged",
    "gener",
    "general",
    "general,",
    "generality",
    "generality,",
    "generalization",
    "generalize",
    "generalizes",
    "generally",
    "generally,",
    "generate",
    "generated",
    "generates",
    "generating",
    "generation",
    "generator",
    "geometric",
    "ger",
    "ger,",
    "gers",
    "ges",
    "gest",
    "get",
    "gether",
    "gets",
    "getting",
    "ggest",
    "gh",
    "gin",
    "gine",
    "ging",
    "giv",
    "give",
    "given",
    "gives",
    "giving",
    "gl",
    "glo",
    "global",
    "gment",
    "gn",
    "gning",
    "go",
    "goal",
    "goes",
    "going",
    "gold",
    "good",
    "gor",
    "gorithm",
    "gr",
    "gra",
    "gradient",
    "grand",
    "grandparent",
    "graph",
    "graph,",
    "graph.",
    "graphical",
    "graphs",
    "graphs,",
    "graphs.",
    "gray",
    "gray,",
    "gre",
    "great",
    "greater",
    "greatest",
    "gree",
    "greedy",
    "greedy-choice",
    "gregate",
    "gri",
    "gro",
    "ground",
    "group",
    "groups",
    "grow",
    "growing",
    "grows",
    "growth",
    "gu",
    "guar",
    "guarante",
    "guarantee",
    "guaranteed",
    "guarantees",
    "gue",
    "guess",
    "gy",
    "h",
    "h(",
    "h(k",
    "h(k)",
    "h(k,",
    "h)",
    "h,",
    "h.",
    "h1",
    "h1(k)",
    "h2",
    "h2(k)",
    "ha",
    "had",
    "hal",
    "half",
    "half-",
    "halves",
    "hamil",
    "hamiltonian",
    "hamiltonian-",
    "hamiltonian-cycle",
    "hand",
    "hand,",
    "hand.",
    "handle",
    "happen",
    "happens",
    "haps",
    "har",
    "hard",
    "harder",
    "hardware",
    "harmonic",
    "has",
    "hash",
    "hash-",
    "hash-table",
    "hashing",
    "hashing,",
    "hashing.",
    "have",
    "have?",
    "having",
    "he",
    "head",
    "head,",
    "head.",
    "heads",
    "heads,",
    "heap",
    "heap,",
    "heap-size",
    "heap.",
    "heaps",
    "heapsort",
    "heart",
    "heel",
    "height",
    "height.",
    "heights",
    "hel",
    "help",
    "helpful",
    "helps",
    "hence",
    "her",
    "here",
    "here,",
    "here.",
    "heuristic",
    "heuristic,",
    "hi",
    "hidden",
    "hier",
    "hierarch",
    "high",
    "high-order",
    "higher",
    "highest",
    "highest-order",
    "highlight",
    "highlighted",
    "hill",
    "hind",
    "hire",
    "hiring",
    "his",
    "hist",
    "history",
    "hit",
    "hit,",
    "hl",
    "hn",
    "ho",
    "hold",
    "hold.",
    "holds",
    "holds,",
    "holds.",
    "hop",
    "hope",
    "hor",
    "horiz",
    "horizon",
    "hospital",
    "hou",
    "how",
    "however",
    "however,",
    "however.",
    "hu",
    "hy",
    "hypothe",
    "hypothes",
    "hypothesis",
    "hypothesis,",
    "i",
    "i)",
    "i),",
    "i).",
    "i+1",
    "i,",
    "i-1",
    "i.",
    "i.e.",
    "i.e.,",
    "i.high",
    "i.low",
    "i.low.",
    "i=",
    "i=i+1",
    "i]",
    "ia",
    "ial",
    "ian",
    "ib",
    "ibil",
    "ibility",
    "ible",
    "ic",
    "ica,",
    "ical",
    "ically",
    "ically,",
    "ication",
    "ications",
    "ice",
    "ich",
    "ick",
    "ick.",
    "ics",
    "iction",
    "id",
    "idden",
    "iddle",
    "ide",
    "idea",
    "ideal",
    "idean",
    "ideas",
    "iden",
    "identi",
    "identical",
    "identifies",
    "identify",
    "identity",
    "ie",
    "ied",
    "iel",
    "ield",
    "ient",
    "ies",
    "ies,",
    "ies.",
    "ieve",
    "if",
    "if,",
    "ific",
    "ifically,",
    "ification",
    "ified",
    "ifies",
    "ify",
    "ig",
    "igh",
    "ight",
    "ign",
    "igno",
    "ignore",
    "ignoring",
    "igure",
    "ij",
    "ij)",
    "ij),",
    "ijk",
    "ik",
    "il",
    "ild",
    "iled",
    "ili",
    "ill",
    "iller",
    "illu",
    "illustr",
    "illustrate",
    "illustrated",
    "illustrates",
    "illustration",
    "im",
    "ima",
    "image",
    "imagine",
    "imal",
    "imation",
    "immediate",
    "immediately",
    "imp",
    "implement",
    "implementation",
    "implementations",
    "implemented",
    "implementing",
    "implements",
    "implic",
    "implicit",
    "implicitly",
    "implies",
    "imply",
    "import",
    "important",
    "impossible",
    "improve",
    "improved",
    "imum",
    "in",
    "in,",
    "in-",
    "in.",
    "inary",
    "ince",
    "inci",
    "incident",
    "inclu",
    "include",
    "included",
    "includes",
    "including",
    "inclusive",
    "incomplete",
    "incorpor",
    "incorporating",
    "incorrect",
    "incre",
    "increas",
    "increase",
    "increased",
    "increases",
    "increases.",
    "increasing",
    "increment",
    "incrementing",
    "increments",
    "incur",
    "incurred",
    "incurs",
    "ind",
    "inde",
    "indeed",
    "independ",
    "independence",
    "independent",
    "independent,",
    "independent.",
    "independently",
    "index",
    "indexed",
    "indexes",
    "indexing",
    "indic",
    "indicate",
    "indicated",
    "indicates",
    "indicating",
    "indicator",
    "indices",
    "indices.",
    "indivi",
    "individual",
    "indu",
    "induced",
    "induction",
    "inductive",
    "ine",
    "ine,",
    "inefficient",
    "inel",
    "inequ",
    "inequal",
    "inequalities",
    "inequality",
    "inequality.",
    "ines",
    "infeasible",
    "infer",
    "infinite",
    "infinitely",
    "information",
    "information,",
    "information.",
    "ing",
    "ing,",
    "ing.",
    "inger",
    "inger,",
    "ings",
    "ingu",
    "ining",
    "initi",
    "initial",
    "initialization",
    "initialize",
    "initialized",
    "initializes",
    "initially",
    "ink",
    "inner",
    "inorder",
    "input",
    "input,",
    "input.",
    "inputs",
    "inputs,",
    "inputs.",
    "inser",
    "insert",
    "insert,",
    "inserted",
    "inserted.",
    "inserting",
    "insertion",
    "insertion.",
    "insertions",
    "insertions,",
    "inserts",
    "inside",
    "inspe",
    "inst",
    "instance",
    "instances",
    "instead",
    "instru",
    "instruction",
    "instructions",
    "int",
    "int:",
    "inte",
    "integer",
    "integer,",
    "integer-",
    "integer.",
    "integers",
    "integers,",
    "integers.",
    "integr",
    "integral",
    "inten",
    "intenance",
    "inter",
    "interest",
    "interesting",
    "intermediate",
    "internal",
    "interpol",
    "interpre",
    "interpret",
    "intersection",
    "interval",
    "intervals",
    "interview",
    "into",
    "introdu",
    "introduce",
    "introduced",
    "introduces",
    "introduction",
    "intu",
    "intuition",
    "intuitive",
    "inv",
    "invalid",
    "invariant",
    "invariant,",
    "invariant.",
    "invariant:",
    "invent",
    "invented",
    "inver",
    "inverse",
    "inversion",
    "inverti",
    "invertible",
    "inves",
    "invest",
    "investi",
    "investigate",
    "investigates",
    "investment",
    "invoc",
    "invocation",
    "invol",
    "involve",
    "involved",
    "involves",
    "io",
    "ion",
    "ior",
    "ious",
    "ip",
    "ips",
    "ipul",
    "ir",
    "iring",
    "irst",
    "irth",
    "is",
    "is,",
    "is.",
    "ise",
    "ish",
    "ished",
    "ision",
    "ism",
    "ism,",
    "isol",
    "isolated",
    "isom",
    "isomor",
    "isomorph",
    "isomorphic",
    "issu",
    "ist",
    "istant",
    "istic",
    "ists",
    "it",
    "it's",
    "it,",
    "it.",
    "ital",
    "itch",
    "ite",
    "ited",
    "item",
    "items",
    "iter",
    "iter(x)",
    "iterates",
    "iteration",
    "iteration,",
    "iteration.",
    "iterations",
    "iterations,",
    "iterations.",
    "iterative",
    "ith",
    "ither",
    "ithm",
    "ithmetic",
    "iti",
    "ities",
    "ities,",
    "ities.",
    "ition",
    "itive",
    "itively,",
    "itly",
    "its",
    "itsel",
    "itself",
    "itself,",
    "itself.",
    "itt",
    "itu",
    "itude",
    "ity",
    "ity,",
    "ity.",
    "itz",
    "iv",
    "ive",
    "iven",
    "iz",
    "ization",
    "ize",
    "ized",
    "izes",
    "izing",
    "i}",
    "j",
    "j)",
    "j),",
    "j,",
    "j.",
    "j=",
    "j]",
    "j],",
    "j].",
    "jac",
    "jan",
    "je",
    "ject",
    "jection",
    "jective",
    "jeev",
    "jo",
    "job",
    "jobs",
    "join",
    "joint",
    "jth",
    "ju",
    "jug",
    "jun",
    "just",
    "k",
    "k)",
    "k),",
    "k).",
    "k+1",
    "k,",
    "k-",
    "k-1,",
    "k-join",
    "k-means",
    "k-parallel",
    "k.",
    "k1",
    "k1,",
    "k2",
    "k2,",
    "k]",
    "ke",
    "ked",
    "kee",
    "keep",
    "keeping",
    "keeps",
    "kel",
    "ken",
    "kes",
    "ket",
    "kets",
    "key",
    "key,",
    "key.",
    "key[i]",
    "keys",
    "keys,",
    "keys.",
    "keyword",
    "keywords",
    "ki",
    "ki,",
    "kind",
    "kinds",
    "king",
    "kj",
    "kj,",
    "kn",
    "knaps",
    "knapsack",
    "know",
    "knowing",
    "knowledge",
    "known",
    "knows",
    "kr",
    "ks",
    "kth",
    "k}",
    "k}.",
    "l",
    "l)",
    "l,",
    "l.",
    "l.h",
    "l]",
    "la",
    "labe",
    "label",
    "labeled",
    "labeling",
    "labels",
    "lad",
    "lan",
    "langu",
    "language",
    "language,",
    "languages",
    "lar",
    "large",
    "large,",
    "large.",
    "larger",
    "largest",
    "last",
    "lat",
    "late",
    "later",
    "latter",
    "law",
    "laws:",
    "lay",
    "layer",
    "ld",
    "le",
    "lea",
    "lead",
    "leading",
    "leads",
    "leaf",
    "leaf,",
    "leaf.",
    "lean",
    "lear",
    "learn",
    "learning",
    "learning,",
    "least",
    "least-",
    "least-squares",
    "leav",
    "leave",
    "leaves",
    "leaves,",
    "leaves.",
    "leaving",
    "led",
    "ledge",
    "left",
    "left,",
    "left-",
    "left-hand",
    "left-rank",
    "left.",
    "leftmost",
    "legal",
    "lem",
    "lement",
    "lemma",
    "lemma,",
    "leng",
    "length",
    "length,",
    "length-",
    "length-n",
    "lengths",
    "ler",
    "les",
    "les,",
    "les.",
    "less",
    "less,",
    "let",
    "let's",
    "letion",
    "letter",
    "letters",
    "letting",
    "level",
    "level(x)",
    "level,",
    "levels",
    "lex",
    "lexi",
    "lexico",
    "lexicograph",
    "lexicographically",
    "ley",
    "ley,",
    "lg",
    "lg(n",
    "lg*",
    "lg2",
    "li",
    "lic",
    "lie",
    "lies",
    "light",
    "like",
    "likely",
    "likely.",
    "lim",
    "limit",
    "limited",
    "lin",
    "line",
    "line,",
    "line.",
    "linear",
    "linear-",
    "linear-programming",
    "linear-time",
    "linearity",
    "linearly",
    "lines",
    "ling",
    "link",
    "linked",
    "linked-list",
    "list",
    "list,",
    "list.",
    "listed",
    "lists",
    "lists,",
    "lists.",
    "liter",
    "literal",
    "literals",
    "literals,",
    "literals.",
    "literature",
    "litt",
    "little",
    "ll",
    "lling",
    "llman",
    "ln",
    "lo",
    "load",
    "loc",
    "local",
    "locally",
    "location",
    "locations",
    "lock",
    "log",
    "logarithm",
    "logarithmic",
    "logic",
    "logical",
    "logy",
    "long",
    "longer",
    "longest",
    "loo",
    "look",
    "looking",
    "looks",
    "loop",
    "loop,",
    "loop.",
    "loops",
    "loops,",
    "loops.",
    "lor",
    "loss",
    "lot",
    "low",
    "low-order",
    "lower",
    "lower-order",
    "lower-triangular",
    "lowest",
    "loy",
    "ly",
    "ly,",
    "ly.",
    "lying",
    "lyno",
    "ló",
    "m",
    "m)",
    "m),",
    "m).",
    "m,",
    "m-",
    "m-1",
    "m.",
    "m[",
    "m[i,",
    "m]",
    "m],",
    "ma",
    "mach",
    "machin",
    "machine",
    "machine-",
    "machine-learning",
    "machines",
    "made",
    "magn",
    "magnitude",
    "main",
    "maintain",
    "maintained",
    "maintaining",
    "maintains",
    "maj",
    "major",
    "mak",
    "make",
    "makes",
    "making",
    "man",
    "man,",
    "manipul",
    "manner",
    "manner,",
    "manner.",
    "manufact",
    "manufacture",
    "many",
    "map",
    "mapping",
    "maps",
    "mar",
    "mark",
    "marked",
    "marriage",
    "mas",
    "master",
    "mat",
    "match",
    "matched",
    "matched.",
    "matches",
    "matching",
    "matching,",
    "matching.",
    "matchings",
    "mate",
    "mater",
    "material",
    "math",
    "mathemat",
    "mathematic",
    "mathematical",
    "mathematically",
    "mathematics",
    "matric",
    "matrices",
    "matrices,",
    "matrices.",
    "matrix",
    "matrix,",
    "matrix-",
    "matrix-chain",
    "matrix-multiplication",
    "matrix-vector",
    "matrix.",
    "matter",
    "max",
    "max-",
    "max-heap",
    "max-heap.",
    "maxim",
    "maximal",
    "maximization",
    "maximize",
    "maximizes",
    "maximizing",
    "maximum",
    "maximum-",
    "maximum-flow",
    "maximum-size",
    "maximum-weight",
    "may",
    "me",
    "mean",
    "meaning",
    "means",
    "meas",
    "measure",
    "measured",
    "measures",
    "mechan",
    "mechanical",
    "med",
    "medi",
    "median",
    "medians",
    "mediate",
    "mem",
    "member",
    "members",
    "membership",
    "memo",
    "memoization",
    "memoized",
    "memor",
    "memory",
    "memory,",
    "memory.",
    "men",
    "ment",
    "ment.",
    "menting",
    "mention",
    "mentioned",
    "ments",
    "mer",
    "merge",
    "merged",
    "merges",
    "merging",
    "mes",
    "messa",
    "message",
    "messages",
    "met",
    "metach",
    "metachar",
    "metacharact",
    "meth",
    "method",
    "method,",
    "method.",
    "methodo",
    "methodology",
    "methods",
    "methods.",
    "metic",
    "metric",
    "metry",
    "mi",
    "mial",
    "mid",
    "middle",
    "might",
    "mil",
    "mill",
    "million",
    "min",
    "min-",
    "min-heap",
    "min-priority",
    "mind",
    "mine",
    "ming",
    "minim",
    "minimiz",
    "minimization",
    "minimize",
    "minimizer",
    "minimizes",
    "minimizing",
    "minimum",
    "minimum-",
    "minimum-cost",
    "minimum-cost-flow",
    "minimum-spanning-tree",
    "minimum-weight",
    "minimum.",
    "minus",
    "minut",
    "minutes",
    "mir",
    "mis",
    "miss",
    "miss,",
    "miss.",
    "misses",
    "misses.",
    "missing",
    "mistake",
    "mistake,",
    "mistake.",
    "mistakes",
    "mit",
    "mix",
    "mm",
    "mma",
    "mming",
    "mo",
    "mobi",
    "mobile",
    "mod",
    "model",
    "model,",
    "model.",
    "models",
    "modern",
    "modif",
    "modifications",
    "modified",
    "modifies",
    "modify",
    "modifying",
    "modu",
    "modul",
    "modular",
    "modulo",
    "moment",
    "mon",
    "mone",
    "money",
    "monic",
    "monot",
    "monotonically",
    "month",
    "more",
    "more,",
    "most",
    "move",
    "moved",
    "moves",
    "moving",
    "mp",
    "mple",
    "mption",
    "mpty",
    "much",
    "mul",
    "multi",
    "multicore",
    "multigraph",
    "multipl",
    "multiple",
    "multiple-",
    "multiples",
    "multiplication",
    "multiplication,",
    "multiplication.",
    "multiplications",
    "multiplications.",
    "multiplicative",
    "multiplied",
    "multiply",
    "multiply-",
    "multiply-shift",
    "multiplying",
    "must",
    "mut",
    "mutually",
    "my",
    "n",
    "n!",
    "n's",
    "n't",
    "n)",
    "n),",
    "n)-time",
    "n).",
    "n,",
    "n-",
    "n-1",
    "n-1,",
    "n-1.",
    "n-bit",
    "n-element",
    "n-node",
    "n-vector",
    "n.",
    "n/",
    "n/2",
    "n/2)",
    "n/2,",
    "n/2.",
    "n/3",
    "n/4",
    "n/lg",
    "n0",
    "n0,",
    "n0.",
    "n1",
    "n2",
    "n2,",
    "n2.",
    "n3",
    "nL",
    "nR",
    "n]",
    "n],",
    "n].",
    "na",
    "naive",
    "nal",
    "nam",
    "name",
    "namely",
    "nat",
    "natural",
    "ne",
    "near",
    "nearest",
    "nearly",
    "necess",
    "necessarily",
    "necessary",
    "necessary,",
    "need",
    "needed",
    "needs",
    "neg",
    "negative",
    "negative-",
    "negative-weight",
    "negative.",
    "neigh",
    "neighb",
    "neighbor",
    "neighbors",
    "neither",
    "ner",
    "ness",
    "ness,",
    "nest",
    "nested",
    "net",
    "networ",
    "network",
    "network,",
    "network.",
    "networks",
    "never",
    "new",
    "newly",
    "next",
    "next,",
    "ni",
    "ni,",
    "nical",
    "nice",
    "nie",
    "nil",
    "ning",
    "no",
    "node",
    "node's",
    "node,",
    "node.",
    "nodes",
    "nodes,",
    "nodes.",
    "non",
    "non-",
    "nondeterministic",
    "none",
    "nonempty",
    "nonempty,",
    "nonnegative",
    "nonnegative,",
    "nonnegative.",
    "nonrecursive",
    "nonsample",
    "nonsingular",
    "nonsingular,",
    "nontrivial",
    "nonwitness",
    "nonzero",
    "nor",
    "norm",
    "normal",
    "not",
    "not,",
    "not.",
    "notation",
    "notation,",
    "notation.",
    "notations",
    "note",
    "noted",
    "notes",
    "nothing",
    "notion",
    "notions",
    "now",
    "nth",
    "nu",
    "nual",
    "null",
    "num",
    "numbe",
    "number",
    "number,",
    "number.",
    "numbered",
    "numbers",
    "numbers,",
    "numbers.",
    "numer",
    "numerical",
    "numi",
    "n}",
    "n},",
    "n×n",
    "o",
    "o,",
    "ob",
    "obje",
    "object",
    "object.",
    "objective",
    "objects",
    "objects,",
    "obl",
    "obli",
    "oblivious",
    "obser",
    "observ",
    "observation",
    "observe",
    "obtain",
    "obtained",
    "obtaining",
    "obtains",
    "obvious",
    "oc",
    "occ",
    "occup",
    "occupied",
    "occupies",
    "occur",
    "occur,",
    "occur.",
    "occurrence",
    "occurrences",
    "occurring",
    "occurs",
    "occurs,",
    "occurs.",
    "och",
    "ochba",
    "ochbaum",
    "od",
    "odd",
    "odd,",
    "odo",
    "of",
    "ofess",
    "ofessor",
    "off",
    "offers",
    "offic",
    "office",
    "offline",
    "often",
    "og",
    "oil",
    "ok",
    "ol",
    "old",
    "oll",
    "ollary",
    "ollow",
    "om",
    "ometric",
    "omi",
    "omial",
    "omit",
    "on",
    "on't",
    "on,",
    "on.",
    "onacci",
    "onal",
    "onald",
    "once",
    "once,",
    "once.",
    "ond",
    "one",
    "one,",
    "one-",
    "one-to-",
    "one-to-one",
    "one.",
    "onent",
    "ones",
    "ong",
    "onic",
    "onically",
    "online",
    "only",
    "onne",
    "onor",
    "ons,",
    "onto",
    "op",
    "open",
    "open-address",
    "oper",
    "operate",
    "operates",
    "operating",
    "operation",
    "operation,",
    "operation.",
    "operations",
    "operations,",
    "operations.",
    "operations:",
    "operator",
    "ople",
    "opport",
    "opportunity",
    "oppos",
    "opposite",
    "opri",
    "optim",
    "optimal",
    "optimal-",
    "optimal-substructure",
    "optimal.",
    "optimally",
    "optimization",
    "option",
    "or",
    "or,",
    "orac",
    "oracle",
    "orange",
    "ord",
    "order",
    "order,",
    "order-",
    "order-statistic",
    "order.",
    "ordered",
    "ordering",
    "orders",
    "ordin",
    "ordinary",
    "ore",
    "orem",
    "org",
    "organ",
    "orient",
    "oriented",
    "orig",
    "origin",
    "original",
    "originally",
    "oring",
    "ors",
    "ort",
    "orti",
    "ortized",
    "ory",
    "os",
    "ose",
    "osi",
    "ossible",
    "ot",
    "other",
    "other,",
    "other.",
    "others",
    "otherwise",
    "otherwise,",
    "otherwise.",
    "ou",
    "ough",
    "ould",
    "oun",
    "ound",
    "our",
    "ouri",
    "ourselves",
    "ous",
    "ous.",
    "out",
    "outcome",
    "outcomes",
    "outer",
    "outline",
    "output",
    "output.",
    "outputs",
    "outside",
    "ove",
    "over",
    "over,",
    "overall",
    "overflow",
    "overhead",
    "overl",
    "overlap",
    "overlapping",
    "overlaps",
    "ow",
    "own",
    "p",
    "p(n)",
    "p(t)",
    "p)",
    "p,",
    "p.",
    "p1",
    "p1,",
    "p2",
    "p2,",
    "p3",
    "pa",
    "pack",
    "page",
    "page,",
    "page.",
    "pages",
    "paid",
    "paint",
    "pair",
    "pairs",
    "pairs,",
    "pairs.",
    "pairwise",
    "pal",
    "palind",
    "palindro",
    "palindrome",
    "paper",
    "par",
    "parad",
    "parallel",
    "parallel,",
    "parallel.",
    "paralleli",
    "parallelism",
    "parallelism.",
    "parameter",
    "parameters",
    "paren",
    "parent",
    "parent,",
    "parent.",
    "parenthe",
    "parenthes",
    "parenthesiz",
    "parenthesization",
    "parenthesize",
    "parenthesizing",
    "parse",
    "part",
    "part,",
    "parti",
    "partial",
    "partic",
    "particip",
    "participant",
    "particular",
    "particular,",
    "particularly",
    "partite",
    "partition",
    "partitioned",
    "partitioning",
    "partitioning.",
    "partitions",
    "partner",
    "parts",
    "parts,",
    "parts.",
    "party",
    "pas",
    "pass",
    "passed",
    "passes",
    "passing",
    "past",
    "paste",
    "pat",
    "path",
    "path,",
    "path-",
    "path.",
    "paths",
    "paths,",
    "paths.",
    "patient",
    "patter",
    "pattern",
    "pattern.",
    "patterns",
    "pay",
    "pays",
    "pe",
    "pec",
    "pen",
    "people",
    "per",
    "perfect",
    "perform",
    "performance",
    "performance.",
    "performed",
    "performed.",
    "performing",
    "performs",
    "perhaps",
    "peri",
    "period",
    "permut",
    "permutation",
    "permutation.",
    "permutations",
    "persistent",
    "person",
    "ph",
    "pha",
    "phas",
    "phase",
    "phases",
    "pho",
    "pi",
    "pi-1",
    "pic",
    "pick",
    "picked",
    "picking",
    "picks",
    "picture",
    "pie",
    "piece",
    "pieces",
    "pile",
    "pin",
    "pitch",
    "piv",
    "pivot",
    "pivot,",
    "pix",
    "pixel",
    "pk",
    "pl",
    "pla",
    "plac",
    "place",
    "place.",
    "placed",
    "places",
    "placing",
    "plain",
    "plan",
    "plat",
    "plate",
    "play",
    "player",
    "players",
    "ple",
    "ples",
    "plic",
    "plication",
    "plications",
    "plicative",
    "plied",
    "plus",
    "ply",
    "plying",
    "po",
    "poch",
    "point",
    "point,",
    "point-",
    "point-value",
    "point.",
    "pointer",
    "pointers",
    "pointers.",
    "points",
    "points,",
    "points.",
    "pol",
    "poli",
    "polic",
    "polog",
    "polyno",
    "polynomi",
    "polynomial",
    "polynomial-",
    "polynomial-growth",
    "polynomial-time",
    "polynomial.",
    "polynomially",
    "polynomials",
    "pon",
    "poor",
    "pop",
    "popular",
    "por",
    "port",
    "portion",
    "pos",
    "pose",
    "posi",
    "posing",
    "position",
    "position,",
    "position.",
    "positions",
    "positions,",
    "positions.",
    "positive",
    "positive,",
    "positive-",
    "positive-definite",
    "positive-definite.",
    "positive.",
    "possi",
    "possibil",
    "possibilities",
    "possibility",
    "possible",
    "possible,",
    "possible.",
    "possibly",
    "pot",
    "potential",
    "potentially",
    "pothe",
    "pound",
    "pounds",
    "pow",
    "power",
    "powerful",
    "powers",
    "pp",
    "pped",
    "ppen",
    "pping",
    "pr",
    "prac",
    "practical",
    "practice",
    "practice,",
    "practice.",
    "pre",
    "preced",
    "precede",
    "precedes",
    "preceding",
    "precise",
    "precisely",
    "precisely,",
    "pred",
    "predecess",
    "predecessor",
    "predecessors",
    "predi",
    "predict",
    "prediction",
    "predictions",
    "pree",
    "preemp",
    "preemptive",
    "prefer",
    "prefers",
    "prefix",
    "prefix-free",
    "prefixes",
    "preorder",
    "preprocessing",
    "pres",
    "present",
    "presented",
    "presenting",
    "presents",
    "preser",
    "preserves",
    "pret",
    "prev",
    "previous",
    "previously",
    "pri",
    "pric",
    "price",
    "pright",
    "prim",
    "primal",
    "primality",
    "primary",
    "prime",
    "prime,",
    "prime.",
    "primes",
    "primi",
    "primitive",
    "princi",
    "print",
    "prints",
    "prior",
    "priority",
    "pris",
    "pro",
    "prob",
    "probabil",
    "probabilistic",
    "probabilities",
    "probability",
    "probably",
    "probe",
    "probes",
    "probing",
    "problem",
    "problem,",
    "problem.",
    "problem:",
    "problem?",
    "problems",
    "problems,",
    "problems.",
    "proced",
    "procedure",
    "procedure,",
    "procedure.",
    "procedures",
    "proceed",
    "proceeds",
    "proces",
    "process",
    "process.",
    "processing",
    "processor",
    "processors",
    "processors,",
    "processors.",
    "produ",
    "produce",
    "produced",
    "produces",
    "producing",
    "product",
    "product,",
    "product.",
    "products",
    "prof",
    "professor",
    "professor's",
    "prog",
    "progra",
    "program",
    "program,",
    "program.",
    "programm",
    "programmer",
    "programming",
    "programming,",
    "programming.",
    "programs",
    "programs.",
    "progres",
    "progress",
    "projection",
    "proof",
    "proof,",
    "proof.",
    "proofs",
    "proper",
    "properties",
    "properties,",
    "properties.",
    "properties:",
    "property",
    "property)",
    "property,",
    "property.",
    "proportion",
    "proportional",
    "propos",
    "proposed",
    "proposes",
    "provably",
    "prove",
    "proved",
    "proven",
    "proves",
    "provi",
    "provide",
    "provided",
    "provides",
    "proving",
    "ps",
    "pse",
    "pseu",
    "pseud",
    "pseudo",
    "pseudocode",
    "pseudocode,",
    "pseudocode.",
    "pswitch",
    "ption",
    "publ",
    "public",
    "public-key",
    "published",
    "pur",
    "purpos",
    "purpose",
    "push",
    "put",
    "put:",
    "puts",
    "pwrong",
    "q",
    "q(x)",
    "q)",
    "q,",
    "q-1",
    "q.",
    "q1",
    "q2",
    "q]",
    "qi",
    "qth",
    "qu",
    "quadrat",
    "quadratic",
    "qual",
    "qualified",
    "quality",
    "quanti",
    "quantity",
    "que",
    "quer",
    "queries",
    "query",
    "ques",
    "question",
    "questions",
    "queu",
    "queue",
    "queue,",
    "queue.",
    "queues",
    "quick",
    "quickly",
    "quicksort",
    "quicksort,",
    "quicksort.",
    "quite",
    "r",
    "r)",
    "r),",
    "r,",
    "r.",
    "r.h",
    "r1",
    "r1,",
    "r1]",
    "r2",
    "r2.",
    "r2]",
    "r3),",
    "r[",
    "r]",
    "r],",
    "r].",
    "ra",
    "rac",
    "race",
    "races",
    "ractical",
    "radix",
    "ran",
    "rand",
    "random",
    "random-",
    "randomi",
    "randomization",
    "randomized",
    "randomly",
    "range",
    "rank",
    "rank)",
    "rank,",
    "rank.",
    "rank[",
    "rank[i",
    "rank[i]",
    "ranks",
    "ranks.",
    "rarely",
    "rat",
    "rate",
    "rather",
    "ratio",
    "ratio,",
    "ratio.",
    "raw",
    "re",
    "rea",
    "reach",
    "reachable",
    "reaches",
    "reaching",
    "read",
    "reading",
    "reads",
    "ready",
    "reak",
    "real",
    "real-",
    "real-valued",
    "real-world",
    "really",
    "reals",
    "reason",
    "reasonable",
    "reasonably",
    "rece",
    "receiv",
    "receive",
    "receives",
    "recent",
    "recently",
    "reco",
    "recogn",
    "recomm",
    "recommend",
    "reconstruct",
    "recor",
    "record",
    "records",
    "rect",
    "rectang",
    "rectangle",
    "recur",
    "recurrence",
    "recurrence,",
    "recurrence.",
    "recurrences",
    "recurrences,",
    "recurrences.",
    "recurses",
    "recursing",
    "recursion",
    "recursion,",
    "recursion.",
    "recursive",
    "recursively",
    "recursively,",
    "recursively.",
    "red",
    "red,",
    "red-",
    "red-black",
    "red.",
    "redu",
    "reduce",
    "reduced",
    "reduces",
    "reducing",
    "reduction",
    "reductions",
    "ree",
    "ref",
    "refe",
    "refer",
    "reference",
    "references",
    "refers",
    "refle",
    "reflected",
    "reflex",
    "reflexive",
    "reg",
    "regardless",
    "region",
    "regions",
    "regis",
    "register",
    "regular",
    "regularity",
    "reje",
    "rejected",
    "rel",
    "relate",
    "related",
    "relation",
    "relationship",
    "relationships",
    "relative",
    "relatively",
    "relax",
    "relaxation",
    "relaxed",
    "relaxes",
    "relaxing",
    "rele",
    "release",
    "relev",
    "relevant",
    "reli",
    "relies",
    "rely",
    "remain",
    "remainder",
    "remaining",
    "remains",
    "remark",
    "remarkable",
    "remember",
    "remo",
    "remove",
    "removed",
    "removed.",
    "removes",
    "removing",
    "ren",
    "rence",
    "rences",
    "rent",
    "repe",
    "repeat",
    "repeated",
    "repeatedly",
    "repeats",
    "replace",
    "replaced",
    "replaces",
    "replacing",
    "report",
    "reports",
    "represent",
    "representation",
    "representation,",
    "representation.",
    "representations",
    "representative",
    "represented",
    "representing",
    "represents",
    "requ",
    "request",
    "request,",
    "request.",
    "requested",
    "requested,",
    "requested.",
    "requests",
    "requests,",
    "requests.",
    "requi",
    "require",
    "required",
    "requirement",
    "requirements",
    "requires",
    "requiring",
    "res",
    "research",
    "researchers",
    "resi",
    "resides",
    "residual",
    "residue",
    "resolved",
    "resour",
    "resources",
    "respe",
    "respect",
    "respective",
    "respectively,",
    "respectively.",
    "respects",
    "respon",
    "ress,",
    "rest",
    "resto",
    "restr",
    "restri",
    "restrict",
    "restricted",
    "restriction",
    "resul",
    "result",
    "result,",
    "result.",
    "resulting",
    "results",
    "results.",
    "retri",
    "return",
    "returned",
    "returning",
    "returns",
    "returns.",
    "reve",
    "reveal",
    "revenue",
    "reverse",
    "review",
    "reviews",
    "revisit",
    "rewrite",
    "ri",
    "ric",
    "rical",
    "rich",
    "rig",
    "right",
    "right,",
    "right-",
    "right-hand",
    "right-rank",
    "right-sibling",
    "right.",
    "rightmost",
    "ring",
    "ris",
    "rix",
    "ro",
    "road",
    "rod",
    "rod-",
    "rod-cutting",
    "rodu",
    "roid",
    "rol",
    "roles",
    "rom",
    "ron",
    "ronic",
    "room",
    "root",
    "root,",
    "root.",
    "root[i,",
    "rooted",
    "roots",
    "rot",
    "rotation",
    "rotation,",
    "rotations",
    "rotations.",
    "rou",
    "rough",
    "roughly",
    "roun",
    "round",
    "rounds",
    "rout",
    "route",
    "routes",
    "row",
    "row-major",
    "rows",
    "ru",
    "rul",
    "rule",
    "run",
    "running",
    "runs",
    "rup",
    "rut",
    "rutab",
    "ry",
    "ryp",
    "s",
    "s\"",
    "s)",
    "s),",
    "s).",
    "s,",
    "s,\"",
    "s.",
    "s.)",
    "s.d",
    "s1",
    "s:",
    "s[i,",
    "sa",
    "safe",
    "same",
    "same,",
    "same.",
    "sample",
    "sate",
    "satell",
    "satellite",
    "satis",
    "satisfi",
    "satisfiability",
    "satisfiable",
    "satisfiable.",
    "satisfied",
    "satisfies",
    "satisfy",
    "satisfying",
    "save",
    "saves",
    "saw",
    "say",
    "say,",
    "saying",
    "says",
    "sc",
    "scal",
    "scalar",
    "scale",
    "scaling",
    "scan",
    "scar",
    "scen",
    "scenario",
    "sche",
    "sched",
    "schedul",
    "schedule",
    "scheduler",
    "scheduling",
    "scheme",
    "schemes",
    "sci",
    "science",
    "scient",
    "scientists",
    "sco",
    "scope",
    "score",
    "scrat",
    "scrip",
    "se",
    "se,",
    "search",
    "search,",
    "search.",
    "searched",
    "searches",
    "searching",
    "second",
    "secre",
    "secret",
    "section",
    "section,",
    "section.",
    "sections",
    "sed",
    "see",
    "see,",
    "seem",
    "seems",
    "seen",
    "segment",
    "sel",
    "sele",
    "select",
    "selected",
    "selecting",
    "selection",
    "selector",
    "selects",
    "self",
    "self-",
    "selves",
    "sem",
    "sen",
    "send",
    "sense",
    "sent",
    "sentinel",
    "sentinel,",
    "separ",
    "separate",
    "separately",
    "sequ",
    "sequence",
    "sequence,",
    "sequence.",
    "sequences",
    "sequences.",
    "sequent",
    "sequential",
    "sequently,",
    "ser",
    "serial",
    "series",
    "series,",
    "series.",
    "serv",
    "serve",
    "serves",
    "ses",
    "set",
    "set,",
    "set-",
    "set-covering",
    "set.",
    "sets",
    "sets,",
    "sets.",
    "sets:",
    "setting",
    "seven",
    "several",
    "sh",
    "shad",
    "shaded",
    "shall",
    "share",
    "she",
    "shed",
    "shif",
    "shift",
    "shifting",
    "shifts",
    "ship",
    "ships",
    "shor",
    "short",
    "shorter",
    "shortest",
    "shortest-",
    "shortest-path",
    "shortest-paths",
    "should",
    "show",
    "show,",
    "showed",
    "showing",
    "shown",
    "shown.",
    "shows",
    "shows,",
    "si",
    "si,",
    "sian",
    "sibl",
    "sible",
    "sibling",
    "side",
    "side,",
    "side.",
    "sider",
    "sides",
    "sign",
    "signal",
    "signature",
    "signed",
    "signific",
    "significant",
    "significantly",
    "simil",
    "similar",
    "similarity",
    "simp",
    "simpl",
    "simple",
    "simple,",
    "simple.",
    "simpler",
    "simplest",
    "simplex",
    "simplify",
    "simplifying",
    "simply",
    "simul",
    "simultaneous",
    "sin",
    "since",
    "sing",
    "single",
    "single-",
    "single-source",
    "singly",
    "singular",
    "sink",
    "sion",
    "sist",
    "sistent",
    "sition",
    "situ",
    "situation",
    "situations",
    "situations,",
    "sive",
    "sively",
    "six",
    "siz",
    "size",
    "size,",
    "size.",
    "sized",
    "sizei",
    "sizei-1",
    "sizes",
    "sizes,",
    "sj",
    "sj,",
    "sk",
    "ski",
    "sl",
    "slack",
    "slackness",
    "slight",
    "slightly",
    "slo",
    "slot",
    "slot,",
    "slots",
    "slots,",
    "slow",
    "slower",
    "slowly",
    "sm",
    "small",
    "small,",
    "small.",
    "smaller",
    "smallest",
    "so",
    "so,",
    "soci",
    "sof",
    "software",
    "soid",
    "sol",
    "solution",
    "solution,",
    "solution.",
    "solutions",
    "solutions,",
    "solutions.",
    "solv",
    "solvable",
    "solve",
    "solved",
    "solves",
    "solving",
    "some",
    "something",
    "sometimes",
    "somewhat",
    "somewhere",
    "son",
    "soph",
    "sort",
    "sort's",
    "sort,",
    "sort.",
    "sorted",
    "sorted,",
    "sorted.",
    "sorting",
    "sorting.",
    "sorts",
    "sour",
    "source",
    "source,",
    "source.",
    "sources",
    "sp",
    "spa",
    "space",
    "space,",
    "space.",
    "span",
    "span,",
    "span.",
    "spanning",
    "spanning-tree",
    "sparse",
    "spaw",
    "spawn",
    "spawned",
    "spawning",
    "spawns",
    "spe",
    "spec",
    "special",
    "specif",
    "specific",
    "specifically",
    "specified",
    "specifies",
    "specify",
    "speed",
    "speedup",
    "spend",
    "spent",
    "spital",
    "spl",
    "split",
    "split,",
    "splits",
    "splitting",
    "squ",
    "square",
    "squares",
    "squaring",
    "ss",
    "st",
    "sta",
    "stability",
    "stable",
    "stable-",
    "stable-marriage",
    "stable.",
    "stack",
    "stack,",
    "stacks",
    "stage",
    "stair",
    "stairs",
    "stand",
    "standard",
    "star",
    "start",
    "starting",
    "starts",
    "stat",
    "state",
    "state,",
    "stated",
    "statement",
    "statement,",
    "statements",
    "states",
    "static",
    "statistic",
    "stays",
    "ste",
    "stead",
    "stem",
    "sten",
    "step",
    "step,",
    "step.",
    "steps",
    "steps,",
    "steps.",
    "steps:",
    "ster",
    "sti",
    "stic",
    "still",
    "stit",
    "sto",
    "stock",
    "stop",
    "stops",
    "stor",
    "storage",
    "storage.",
    "store",
    "stored",
    "stores",
    "storing",
    "str",
    "stra",
    "straight",
    "straightforward",
    "straightforward,",
    "strand",
    "strands",
    "strate",
    "strateg",
    "strategies",
    "strategy",
    "strategy,",
    "strategy.",
    "strea",
    "streak",
    "stri",
    "strictly",
    "string",
    "string-matching",
    "string.",
    "strings",
    "strong",
    "stronger",
    "strongly",
    "stru",
    "struct",
    "structural",
    "structure",
    "structure,",
    "structure.",
    "structures",
    "structures.",
    "stu",
    "stud",
    "student",
    "studi",
    "studied",
    "studies",
    "study",
    "studying",
    "style",
    "su",
    "sub",
    "subarray",
    "subarrays",
    "subgraph",
    "subgroup",
    "subject",
    "submatrices",
    "submatrix",
    "subpath",
    "subproblem",
    "subproblem,",
    "subproblem.",
    "subproblems",
    "subproblems,",
    "subproblems.",
    "subrout",
    "subroutine",
    "subscrip",
    "subsequence",
    "subsequent",
    "subset",
    "subset-",
    "subset-sum",
    "subsets",
    "subst",
    "substanti",
    "substit",
    "substitute",
    "substitution",
    "substr",
    "substr-rank",
    "substr-rank[i].",
    "substring",
    "substrings",
    "substructure",
    "substructure.",
    "subtra",
    "subtract",
    "subtracting",
    "subtraction",
    "subtree",
    "subtree,",
    "subtree.",
    "subtrees",
    "suc",
    "succes",
    "success",
    "success,",
    "successes",
    "successful",
    "successive",
    "successor",
    "such",
    "suf",
    "suffic",
    "suffice",
    "suffices",
    "sufficient",
    "sufficiently",
    "suffix",
    "suffixes",
    "suffixes.",
    "suggest",
    "suggests",
    "suit",
    "suitable",
    "sul",
    "sum",
    "sum,",
    "sume",
    "summ",
    "summation",
    "summations",
    "sums",
    "sup",
    "super",
    "supp",
    "support",
    "supports",
    "suppose",
    "sur",
    "sure",
    "surface",
    "surpris",
    "surprised",
    "surprising",
    "surve",
    "survey",
    "surveys",
    "sus",
    "sw",
    "swap",
    "swapp",
    "swapping",
    "swaps",
    "switch",
    "sy",
    "sym",
    "symbo",
    "symbol",
    "symmetric",
    "symmetric.",
    "syn",
    "sync",
    "system",
    "system.",
    "systems",
    "t",
    "t)",
    "t,",
    "t.",
    "ta",
    "tab",
    "tabl",
    "table",
    "table,",
    "table.",
    "tableau",
    "tables",
    "tack",
    "tail",
    "tail.",
    "tain",
    "tains",
    "take",
    "taken",
    "takes",
    "taking",
    "tal",
    "tamp",
    "tan",
    "tane",
    "taneous",
    "tar",
    "target",
    "tas",
    "task",
    "task-parallel",
    "tasks",
    "te",
    "tech",
    "techni",
    "technical",
    "techniqu",
    "technique",
    "techniques",
    "techno",
    "technolog",
    "ted",
    "tell",
    "tells",
    "temp",
    "tempor",
    "temporary",
    "ten",
    "tend",
    "ter",
    "term",
    "term.",
    "termin",
    "terminat",
    "terminate",
    "terminates",
    "terminates,",
    "terminates.",
    "terminating",
    "termination,",
    "termine",
    "terms",
    "tern",
    "ternal",
    "ternative",
    "ters",
    "ters,",
    "test",
    "testing",
    "tests",
    "tex",
    "text",
    "text,",
    "text.",
    "textbook",
    "th",
    "th-",
    "th-first",
    "than",
    "that",
    "that,",
    "the",
    "their",
    "theless,",
    "them",
    "them,",
    "them.",
    "themat",
    "themselves",
    "then",
    "then,",
    "theor",
    "theore",
    "theorem",
    "theorem)",
    "theorem,",
    "theorem.",
    "theoretic",
    "theoretical",
    "theory",
    "theory,",
    "theory.",
    "ther",
    "there",
    "thereby",
    "therefore",
    "therefore,",
    "these",
    "they",
    "thi",
    "thief",
    "thing",
    "think",
    "thir",
    "third",
    "this",
    "those",
    "though",
    "thous",
    "thousand",
    "thousands",
    "thread",
    "three",
    "thres",
    "threshold",
    "through",
    "throughout",
    "thus",
    "thus,",
    "ti",
    "tian",
    "tic",
    "tical",
    "tice",
    "tices",
    "ties",
    "ties,",
    "ties.",
    "tific",
    "tigh",
    "tight",
    "tight.",
    "til",
    "tim",
    "time",
    "time,",
    "time.",
    "time:",
    "time?",
    "times",
    "times,",
    "times.",
    "timestamp",
    "tin",
    "ting",
    "tion",
    "tition",
    "titive",
    "tive",
    "tivity",
    "tl",
    "tle",
    "tlene",
    "tleneck",
    "to",
    "to.",
    "together",
    "together,",
    "together.",
    "tograph",
    "tom",
    "ton",
    "tonian",
    "too",
    "tool",
    "tools",
    "top",
    "top-",
    "top-down",
    "topolog",
    "topological",
    "topologically",
    "tos",
    "toss",
    "tosses",
    "total",
    "tour",
    "tour,",
    "tour.",
    "toward",
    "tr",
    "tra",
    "trace",
    "trace.",
    "traces",
    "track",
    "trade",
    "trail",
    "training",
    "tran",
    "trans",
    "transform",
    "transformation",
    "transforms",
    "transi",
    "transition",
    "transitive",
    "transm",
    "transpose",
    "travel",
    "traveling",
    "traveling-s",
    "traveling-salesperson",
    "traver",
    "traverse",
    "traverses",
    "tre",
    "treat",
    "treatment",
    "tree",
    "tree,",
    "tree.",
    "tree?",
    "trees",
    "trees,",
    "trees.",
    "tri",
    "trial",
    "trials",
    "trials,",
    "triang",
    "triangle",
    "triangular",
    "tribut",
    "tric",
    "trick",
    "trimming",
    "triple",
    "trivi",
    "trivial",
    "trivially",
    "tru",
    "truck",
    "true",
    "truth",
    "try",
    "trying",
    "ts",
    "tt",
    "tu",
    "tup",
    "tuple",
    "tuples",
    "tur",
    "turn",
    "turning",
    "turns",
    "tw",
    "tware",
    "twice",
    "twiddle",
    "two",
    "two-",
    "twor",
    "ty",
    "typ",
    "type",
    "types",
    "typical",
    "typically",
    "u",
    "u's",
    "u(1),",
    "u)",
    "u).",
    "u,",
    "u.",
    "u.d",
    "u.d,",
    "u.f",
    "u.f.",
    "u.p.",
    "ual",
    "ually",
    "ually,",
    "ubl",
    "uch",
    "uck",
    "ucky",
    "ucl",
    "uclidean",
    "ue",
    "uent",
    "ufact",
    "uk",
    "ul",
    "ular",
    "ulation",
    "ule",
    "ulti",
    "um",
    "uman",
    "ume",
    "ument",
    "un",
    "unately,",
    "unchang",
    "unchanged.",
    "uncle",
    "und",
    "under",
    "underlying",
    "understand",
    "understanding",
    "undirected",
    "ung",
    "uni",
    "unications",
    "uniform",
    "uniformly",
    "union",
    "unique",
    "unique,",
    "unique.",
    "uniquely",
    "unit",
    "units",
    "units,",
    "unity",
    "unity.",
    "universal",
    "universal.",
    "universe",
    "unknown",
    "unless",
    "unlike",
    "unlikely",
    "unmatched",
    "unsuccessful",
    "until",
    "unweighted",
    "up",
    "up,",
    "up.",
    "upd",
    "update",
    "updated",
    "updates",
    "updating",
    "upon",
    "upper",
    "upper-bound",
    "upper-triangular",
    "ur",
    "ural",
    "urb",
    "urban",
    "ure",
    "uri",
    "uring",
    "uristic",
    "urther",
    "us",
    "us,",
    "use",
    "use,",
    "used",
    "used.",
    "useful",
    "uses",
    "ush",
    "using",
    "usion",
    "ust",
    "usti",
    "ustify",
    "usu",
    "usual",
    "usually",
    "ut",
    "ute",
    "uting",
    "ution",
    "uture",
    "uv",
    "v",
    "v's",
    "v)",
    "v),",
    "v).",
    "v)E",
    "v,",
    "v.",
    "v.d",
    "v.d,",
    "v.f",
    "v.p",
    "v0",
    "v0,",
    "v1",
    "v1,",
    "v2),",
    "v2,",
    "vably",
    "val",
    "valid",
    "valu",
    "valuable",
    "value",
    "value,",
    "value.",
    "valued",
    "values",
    "values,",
    "values.",
    "van",
    "vari",
    "variab",
    "variable",
    "variable,",
    "variable-length",
    "variables",
    "variables,",
    "variables.",
    "variance",
    "variant",
    "variants",
    "variety",
    "various",
    "vary",
    "ve",
    "vector",
    "vector,",
    "vector.",
    "vectors",
    "ved",
    "ved,",
    "ved.",
    "vel",
    "velo",
    "velop",
    "ven",
    "venue",
    "ver",
    "verage",
    "veral",
    "verification",
    "verified",
    "verifies",
    "verify",
    "vers",
    "versa",
    "versa.",
    "versal",
    "verse",
    "versed",
    "versely,",
    "version",
    "versions",
    "versus",
    "vert",
    "vertex",
    "vertex,",
    "vertex-",
    "vertex-cover",
    "vertex-disjoint",
    "vertex.",
    "vertices",
    "vertices,",
    "vertices.",
    "very",
    "ves",
    "ves,",
    "ves.",
    "vi",
    "vi)",
    "vi,",
    "vi-1,",
    "vi.",
    "vi.d",
    "via",
    "vice",
    "vid",
    "view",
    "viewed",
    "ving",
    "viol",
    "violated",
    "violates",
    "violating",
    "violation",
    "violations",
    "vious",
    "vir",
    "vis",
    "vised",
    "visit",
    "visited",
    "visits",
    "vity",
    "vj",
    "vj)",
    "vk",
    "vk,",
    "vk.",
    "vo",
    "vol",
    "volume",
    "vot",
    "votes",
    "w",
    "w's",
    "w(",
    "w(l,",
    "w(p)",
    "w(u,",
    "w)",
    "w,",
    "w-bit",
    "w.",
    "w.color",
    "wT",
    "w[i,",
    "wa",
    "wait",
    "wal",
    "walk",
    "wan",
    "want",
    "wants",
    "ward",
    "ware",
    "was",
    "water",
    "watershed",
    "way",
    "way,",
    "way.",
    "ways",
    "we",
    "we'll",
    "we're",
    "weak",
    "wee",
    "ween",
    "weigh",
    "weight",
    "weight,",
    "weight.",
    "weighted",
    "weighted,",
    "weighted-",
    "weighted-union",
    "weights",
    "weights,",
    "weights.",
    "well",
    "well,",
    "well-",
    "well.",
    "wer",
    "were",
    "wh",
    "what",
    "whate",
    "whatever",
    "whe",
    "when",
    "whenever",
    "where",
    "whereas",
    "whether",
    "whi",
    "which",
    "which,",
    "whichever",
    "while",
    "white",
    "white,",
    "who",
    "whole",
    "whom",
    "whose",
    "why",
    "why,",
    "wi",
    "wick",
    "wick.",
    "wide",
    "widely",
    "will",
    "win",
    "wind",
    "window",
    "winning",
    "wire",
    "wires",
    "wise",
    "wise,",
    "wish",
    "wishes",
    "wit",
    "witch",
    "with",
    "within",
    "without",
    "witness",
    "wn",
    "wom",
    "woman",
    "women",
    "won",
    "won't",
    "wonder",
    "wor",
    "word",
    "word.",
    "words",
    "words,",
    "work",
    "work,",
    "work.",
    "working",
    "works",
    "works,",
    "works.",
    "world",
    "worry",
    "worst",
    "worst-case",
    "worth",
    "would",
    "wr",
    "writ",
    "write",
    "writing",
    "written",
    "wrong",
    "x",
    "x's",
    "x(",
    "x(0)",
    "x(0),",
    "x(t",
    "x(t)",
    "x(t+1)",
    "x(v)",
    "x)",
    "x),",
    "x*",
    "x*.",
    "x,",
    "x.",
    "x.ci",
    "x.f",
    "x.freq",
    "x.int",
    "x.int.",
    "x.key",
    "x.key,",
    "x.key.",
    "x.keyi",
    "x.left",
    "x.left.",
    "x.left.max",
    "x.left.size",
    "x.n",
    "x.next",
    "x.p",
    "x.p.",
    "x.p.rank",
    "x.prev",
    "x.rank",
    "x.right",
    "x.right.",
    "x0",
    "x0,",
    "x1",
    "x1,",
    "x2",
    "x2,",
    "x3",
    "x4",
    "x[i]",
    "xa",
    "xi",
    "xi.",
    "xj",
    "xk",
    "xm",
    "xn",
    "xn-1",
    "y",
    "y's",
    "y)",
    "y).",
    "y*",
    "y,",
    "y-",
    "y.",
    "y.freq",
    "y.key",
    "y.p",
    "y.p.",
    "y.right",
    "y1",
    "y1,",
    "y2",
    "y2,",
    "y3",
    "year",
    "year,",
    "years",
    "yell",
    "yellow",
    "yes",
    "yet",
    "yi",
    "yield",
    "yielding",
    "yields",
    "yle",
    "ym",
    "ymous",
    "ymp",
    "ympto",
    "ymptotic",
    "yn",
    "ynam",
    "ynamic",
    "you",
    "you'll",
    "you're",
    "you've",
    "your",
    "yourself",
    "ys",
    "z",
    "z's",
    "z)",
    "z*",
    "z,",
    "z.",
    "z.key",
    "z.left",
    "z.p",
    "z.p.",
    "z.p.p",
    "z.p.p.",
    "z.right",
    "zation",
    "ze",
    "zed",
    "zero",
    "zes",
    "zi",
    "zing",
    "zj",
    "zk",
    "{",
    "{(",
    "{(u,",
    "{0,",
    "{1,",
    "{A",
    "{A}",
    "{B",
    "{L",
    "{X",
    "{a",
    "{a,",
    "{a1,",
    "{e",
    "{k",
    "{s",
    "{s,",
    "{s}",
    "{s},",
    "{u,",
    "{v",
    "{x",
    "{x1,",
    "{x}",
    "{y",
    "{z",
    "|",
    "|,",
    "|.",
    "|A",
    "|A|",
    "|B",
    "|C",
    "|E",
    "|E|",
    "|E|.",
    "|M",
    "|M*|",
    "|M|",
    "|S",
    "|S|",
    "|U",
    "|V",
    "|V|",
    "|V|,",
    "|V|.",
    "|X",
    "|a",
    "|f",
    "|f*|",
    "|f|",
    "|x",
    "|x|",
    "||",
    "}",
    "})",
    "},",
    "}.",
    "~",
    "¬",
    "¬x",
    "¬x2",
    "±",
    "·",
    "Á",
    "É",
    "Õ",
    "×",
    "×n",
    "Ø",
    "Ø,",
    "á",
    "ás",
    "â",
    "ã",
    "ä",
    "å",
    "ç",
    "è",
    "é",
    "í",
    "î",
    "ó",
    "ö",
    "ø",
    "ü"
  ],
  "merges": [
    [
      "t",
      "h"
    ],
    [
      "i",
      "n"
    ],
    [
      "th",
      "e"
    ],
    [
      "r",
      "e"
    ],
    [
      "o",
      "n"
    ],
    [
      "a",
      "n"
    ],
    [
      "a",
      "t"
    ],
    [
      "e",
      "r"
    ],
    [
      "o",
      "r"
    ],
    [
      "a",
      "l"
    ],
    [
      "e",
      "s"
    ],
    [
      "i",
      "s"
    ],
    [
      "t",
      "i"
    ],
    [
      "o",
      "f"
    ],
    [
      "e",
      "n"
    ],
    [
      "l",
      "e"
    ],
    [
      "r",
      "o"
    ],
    [
      "in",
      "g"
    ],
    [
      "t",
      "o"
    ],
    [
      "e",
      "d"
    ],
    [
      "an",
      "d"
    ],
    [
      "c",
      "h"
    ],
    [
      "a",
      "r"
    ],
    [
      "s",
      "t"
    ],
    [
      "s",
      "e"
    ],
    [
      "i",
      "t"
    ],
    [
      "th",
      "at"
    ],
    [
      "a",
      "s"
    ],
    [
      "p",
      "ro"
    ],
    [
      "o",
      "u"
    ],
    [
      "i",
      "on"
    ],
    [
      "h",
      "e"
    ],
    [
      "f",
      "or"
    ],
    [
      "m",
      "e"
    ],
    [
      "i",
      "th"
    ],
    [
      "c",
      "o"
    ],
    [
      "m",
      "p"
    ],
    [
      "d",
      "e"
    ],
    [
      "l",
      "y"
    ],
    [
      "v",
      "e"
    ],
    [
      "ti",
      "on"
    ],
    [
      "o",
      "w"
    ],
    [
      "en",
      "t"
    ],
    [
      "at",
      "ion"
    ],
    [
      "s",
      "u"
    ],
    [
      "c",
      "t"
    ],
    [
      "e",
      "x"
    ],
    [
      "r",
      "a"
    ],
    [
      "v",
      "er"
    ],
    [
      "b",
      "e"
    ],
    [
      "u",
      "t"
    ],
    [
      "s",
      "i"
    ],
    [
      "i",
      "c"
    ],
    [
      "n",
      "o"
    ],
    [
      "T",
      "he"
    ],
    [
      "le",
      "m"
    ],
    [
      "c",
      "e"
    ],
    [
      "u",
      "n"
    ],
    [
      "c",
      "on"
    ],
    [
      "q",
      "u"
    ],
    [
      "i",
      "g"
    ],
    [
      "s",
      "o"
    ],
    [
      "w",
      "e"
    ],
    [
      "w",
      "h"
    ],
    [
      "t",
      "er"
    ],
    [
      "p",
      "o"
    ],
    [
      "a",
      "ch"
    ],
    [
      "a",
      "re"
    ],
    [
      "ith",
      "m"
    ],
    [
      "g",
      "or"
    ],
    [
      "gor",
      "ithm"
    ],
    [
      "r",
      "i"
    ],
    [
      "al",
      "l"
    ],
    [
      "m",
      "a"
    ],
    [
      "t",
      "a"
    ],
    [
      "p",
      "er"
    ],
    [
      "u",
      "m"
    ],
    [
      "g",
      "e"
    ],
    [
      "i",
      "f"
    ],
    [
      "al",
      "gorithm"
    ],
    [
      "u",
      "r"
    ],
    [
      "ti",
      "me"
    ],
    [
      "s",
      ","
    ],
    [
      "b",
      "y"
    ],
    [
      "pro",
      "b"
    ],
    [
      "co",
      "mp"
    ],
    [
      "l",
      "l"
    ],
    [
      "w",
      "ith"
    ],
    [
      "l",
      "o"
    ],
    [
      "in",
      "e"
    ],
    [
      "h",
      "ow"
    ],
    [
      "p",
      "a"
    ],
    [
      "(",
      "n"
    ],
    [
      "u",
      "re"
    ],
    [
      "m",
      "o"
    ],
    [
      "c",
      "tion"
    ],
    [
      "s",
      "."
    ],
    [
      "a",
      "p"
    ],
    [
      "c",
      "es"
    ],
    [
      "a",
      "d"
    ],
    [
      "a",
      "b"
    ],
    [
      "re",
      "e"
    ],
    [
      "m",
      "at"
    ],
    [
      "ig",
      "h"
    ],
    [
      "prob",
      "lem"
    ],
    [
      "i",
      "r"
    ],
    [
      "g",
      "ra"
    ],
    [
      "n",
      "e"
    ],
    [
      "1",
      ","
    ],
    [
      "y",
      "ou"
    ],
    [
      "i",
      "l"
    ],
    [
      "wh",
      "i"
    ],
    [
      "k",
      "e"
    ],
    [
      "d",
      "i"
    ],
    [
      "e",
      "ach"
    ],
    [
      "v",
      "al"
    ],
    [
      "igh",
      "t"
    ],
    [
      "su",
      "b"
    ],
    [
      "or",
      "t"
    ],
    [
      "in",
      "t"
    ],
    [
      "c",
      "an"
    ],
    [
      "ro",
      "m"
    ],
    [
      ".",
      "."
    ],
    [
      "es",
      "t"
    ],
    [
      "c",
      "a"
    ],
    [
      "f",
      "rom"
    ],
    [
      "the",
      "r"
    ],
    [
      "u",
      "l"
    ],
    [
      "re",
      "s"
    ],
    [
      "i",
      "m"
    ],
    [
      "lem",
      "ent"
    ],
    [
      "no",
      "t"
    ],
    [
      "a",
      "c"
    ],
    [
      ")",
      ","
    ],
    [
      "h",
      "a"
    ],
    [
      "whi",
      "ch"
    ],
    [
      "h",
      "as"
    ],
    [
      "u",
      "s"
    ],
    [
      "d",
      "er"
    ],
    [
      "o",
      "p"
    ],
    [
      "t",
      "ree"
    ],
    [
      "is",
      "t"
    ],
    [
      ")",
      "."
    ],
    [
      "b",
      "er"
    ],
    [
      "se",
      "t"
    ],
    [
      "it",
      "y"
    ],
    [
      "u",
      "e"
    ],
    [
      "f",
      "in"
    ],
    [
      "T",
      "h"
    ],
    [
      "st",
      "r"
    ],
    [
      "n",
      "um"
    ],
    [
      "an",
      "y"
    ],
    [
      "th",
      "is"
    ],
    [
      "c",
      "ur"
    ],
    [
      "o",
      "re"
    ],
    [
      "p",
      "ar"
    ],
    [
      "at",
      "e"
    ],
    [
      "u",
      "se"
    ],
    [
      "p",
      "l"
    ],
    [
      "p",
      "h"
    ],
    [
      "num",
      "ber"
    ],
    [
      "for",
      "m"
    ],
    [
      "o",
      "t"
    ],
    [
      "v",
      "i"
    ],
    [
      "l",
      "ine"
    ],
    [
      "u",
      "p"
    ],
    [
      "the",
      "n"
    ],
    [
      "so",
      "l"
    ],
    [
      "d",
      "u"
    ],
    [
      "t",
      "ex"
    ],
    [
      "e",
      "lement"
    ],
    [
      "m",
      "in"
    ],
    [
      "t",
      "w"
    ],
    [
      "ha",
      "ve"
    ],
    [
      "p",
      "e"
    ],
    [
      "1",
      "."
    ],
    [
      "gra",
      "ph"
    ],
    [
      "ou",
      "n"
    ],
    [
      "i",
      "v"
    ],
    [
      "al",
      "ly"
    ],
    [
      "I",
      "n"
    ],
    [
      "ta",
      "in"
    ],
    [
      "2",
      ","
    ],
    [
      "on",
      "e"
    ],
    [
      "pa",
      "th"
    ],
    [
      "c",
      "ed"
    ],
    [
      "a",
      "ct"
    ],
    [
      "'",
      "s"
    ],
    [
      "(n",
      ")"
    ],
    [
      "r",
      "un"
    ],
    [
      "e",
      "qu"
    ],
    [
      "n",
      "ing"
    ],
    [
      "an",
      "t"
    ],
    [
      "ti",
      "m"
    ],
    [
      "mp",
      "le"
    ],
    [
      "l",
      "d"
    ],
    [
      "y",
      "s"
    ],
    [
      "re",
      "n"
    ],
    [
      "d",
      "es"
    ],
    [
      "d",
      "o"
    ],
    [
      "s",
      "ort"
    ],
    [
      "ct",
      "ed"
    ],
    [
      "ver",
      "tex"
    ],
    [
      "ti",
      "c"
    ],
    [
      "comp",
      "ut"
    ],
    [
      "u",
      "tion"
    ],
    [
      "s",
      "how"
    ],
    [
      "z",
      "e"
    ],
    [
      "re",
      "d"
    ],
    [
      "W",
      "e"
    ],
    [
      "it",
      "s"
    ],
    [
      "s",
      "h"
    ],
    [
      "ir",
      "st"
    ],
    [
      "c",
      "l"
    ],
    [
      "ar",
      "y"
    ],
    [
      "F",
      "or"
    ],
    [
      "l",
      "ow"
    ],
    [
      "b",
      "le"
    ],
    [
      "f",
      "un"
    ],
    [
      "w",
      "he"
    ],
    [
      "b",
      "ut"
    ],
    [
      "u",
      "st"
    ],
    [
      "o",
      "per"
    ],
    [
      ".",
      "1"
    ],
    [
      "s",
      "a"
    ],
    [
      "fun",
      "ction"
    ],
    [
      "ation",
      "s"
    ],
    [
      "p",
      "ut"
    ],
    [
      "w",
      "or"
    ],
    [
      "m",
      "i"
    ],
    [
      "tw",
      "o"
    ],
    [
      "f",
      "irst"
    ],
    [
      "g",
      "es"
    ],
    [
      "r",
      "an"
    ],
    [
      "le",
      "t"
    ],
    [
      "re",
      "cur"
    ],
    [
      "i",
      "ve"
    ],
    [
      "pro",
      "ced"
    ],
    [
      "proced",
      "ure"
    ],
    [
      "0",
      ","
    ],
    [
      "L",
      "e"
    ],
    [
      "I",
      "f"
    ],
    [
      "..",
      "."
    ],
    [
      "ex",
      "a"
    ],
    [
      "ar",
      "ch"
    ],
    [
      "th",
      "an"
    ],
    [
      "ig",
      "ure"
    ],
    [
      "I",
      "N"
    ],
    [
      "2",
      "."
    ],
    [
      "ar",
      "ra"
    ],
    [
      "f",
      "e"
    ],
    [
      "val",
      "ue"
    ],
    [
      "in",
      "ce"
    ],
    [
      "ou",
      "t"
    ],
    [
      "oun",
      "d"
    ],
    [
      "o",
      "d"
    ],
    [
      "se",
      "arch"
    ],
    [
      "ca",
      "se"
    ],
    [
      "g",
      "iv"
    ],
    [
      "en",
      "d"
    ],
    [
      "p",
      "res"
    ],
    [
      "F",
      "igure"
    ],
    [
      "ar",
      "i"
    ],
    [
      "a",
      "m"
    ],
    [
      "im",
      "um"
    ],
    [
      "ke",
      "y"
    ],
    [
      "l",
      "g"
    ],
    [
      "S",
      "E"
    ],
    [
      "the",
      "re"
    ],
    [
      "o",
      "ther"
    ],
    [
      "t",
      "y"
    ],
    [
      "it",
      "e"
    ],
    [
      "o",
      "ll"
    ],
    [
      "ces",
      "s"
    ],
    [
      "sol",
      "ution"
    ],
    [
      "ti",
      "ve"
    ],
    [
      "whe",
      "re"
    ],
    [
      "arra",
      "y"
    ],
    [
      "b",
      "l"
    ],
    [
      "con",
      "tain"
    ],
    [
      "f",
      "i"
    ],
    [
      "no",
      "de"
    ],
    [
      "1",
      ")"
    ],
    [
      "in",
      "put"
    ],
    [
      "st",
      "e"
    ],
    [
      "su",
      "ch"
    ],
    [
      "ou",
      "r"
    ],
    [
      "run",
      "ning"
    ],
    [
      "4",
      "."
    ],
    [
      "ed",
      "ge"
    ],
    [
      "es",
      "."
    ],
    [
      "or",
      "der"
    ],
    [
      "s",
      "er"
    ],
    [
      "d",
      "ing"
    ],
    [
      "a",
      "st"
    ],
    [
      "on",
      "ly"
    ],
    [
      "P",
      "ro"
    ],
    [
      "A",
      "["
    ],
    [
      "wh",
      "en"
    ],
    [
      "O",
      "("
    ],
    [
      "ac",
      "k"
    ],
    [
      "en",
      "ce"
    ],
    [
      "(",
      "x"
    ],
    [
      "m",
      "ent"
    ],
    [
      "on",
      "g"
    ],
    [
      "u",
      ","
    ],
    [
      "m",
      "m"
    ],
    [
      "we",
      "ight"
    ],
    [
      "c",
      "re"
    ],
    [
      "ab",
      "le"
    ],
    [
      "ri",
      "x"
    ],
    [
      "l",
      "i"
    ],
    [
      "c",
      "i"
    ],
    [
      "co",
      "st"
    ],
    [
      "mat",
      "rix"
    ],
    [
      "exa",
      "mple"
    ],
    [
      "c",
      "k"
    ],
    [
      "f",
      "ore"
    ],
    [
      "c",
      "or"
    ],
    [
      "p",
      "re"
    ],
    [
      "c",
      "is"
    ],
    [
      "b",
      "ound"
    ],
    [
      "ti",
      "ces"
    ],
    [
      "re",
      "qu"
    ],
    [
      "op",
      "tim"
    ],
    [
      "1",
      "0"
    ],
    [
      "in",
      "to"
    ],
    [
      "i",
      "mp"
    ],
    [
      "ca",
      "use"
    ],
    [
      "ma",
      "x"
    ],
    [
      "c",
      "all"
    ],
    [
      "al",
      "le"
    ],
    [
      "con",
      "st"
    ],
    [
      "ver",
      "tices"
    ],
    [
      "b",
      "in"
    ],
    [
      "lo",
      "op"
    ],
    [
      "S",
      "e"
    ],
    [
      "si",
      "ze"
    ],
    [
      "o",
      "b"
    ],
    [
      "1",
      "9"
    ],
    [
      "ed",
      "ges"
    ],
    [
      "val",
      "u"
    ],
    [
      "so",
      "me"
    ],
    [
      "R",
      "T"
    ],
    [
      "in",
      "ter"
    ],
    [
      "pres",
      "ent"
    ],
    [
      "di",
      "re"
    ],
    [
      "g",
      "er"
    ],
    [
      "o",
      "m"
    ],
    [
      "x",
      "."
    ],
    [
      "es",
      ","
    ],
    [
      "b",
      "o"
    ],
    [
      "E",
      "-"
    ],
    [
      "de",
      "p"
    ],
    [
      "ro",
      "ot"
    ],
    [
      "w",
      "a"
    ],
    [
      "m",
      "ul"
    ],
    [
      "-",
      "1"
    ],
    [
      "oll",
      "ow"
    ],
    [
      "s",
      "ion"
    ],
    [
      "t",
      "ur"
    ],
    [
      "v",
      ")"
    ],
    [
      "e",
      "ver"
    ],
    [
      "g",
      "h"
    ],
    [
      "mo",
      "st"
    ],
    [
      "f",
      "ic"
    ],
    [
      "f",
      "ollow"
    ],
    [
      "mat",
      "ch"
    ],
    [
      "3",
      "."
    ],
    [
      "v",
      "ari"
    ],
    [
      "str",
      "u"
    ],
    [
      "mi",
      "al"
    ],
    [
      "n",
      "ow"
    ],
    [
      "k",
      "es"
    ],
    [
      "tur",
      "n"
    ],
    [
      "es",
      "s"
    ],
    [
      "t",
      "ri"
    ],
    [
      "ly",
      "no"
    ],
    [
      "n",
      ")"
    ],
    [
      "se",
      "qu"
    ],
    [
      "f",
      "low"
    ],
    [
      "d",
      "is"
    ],
    [
      "int",
      "e"
    ],
    [
      "t",
      "ing"
    ],
    [
      "po",
      "lyno"
    ],
    [
      "mul",
      "ti"
    ],
    [
      "pro",
      "gra"
    ],
    [
      "0",
      "."
    ],
    [
      "line",
      "ar"
    ],
    [
      "(",
      "u,"
    ],
    [
      "R",
      "E"
    ],
    [
      "optim",
      "al"
    ],
    [
      "giv",
      "en"
    ],
    [
      "s",
      "ing"
    ],
    [
      "Le",
      "t"
    ],
    [
      "oper",
      "ation"
    ],
    [
      "ch",
      "o"
    ],
    [
      "polyno",
      "mial"
    ],
    [
      "time",
      "."
    ],
    [
      "ab",
      "il"
    ],
    [
      "P",
      "-"
    ],
    [
      "it",
      "er"
    ],
    [
      "de",
      "fin"
    ],
    [
      "l",
      "ist"
    ],
    [
      "M",
      "A"
    ],
    [
      "e",
      "f"
    ],
    [
      "5",
      "."
    ],
    [
      "pl",
      "ic"
    ],
    [
      "ore",
      "m"
    ],
    [
      "mo",
      "re"
    ],
    [
      "m",
      "ust"
    ],
    [
      "re",
      "turn"
    ],
    [
      "l",
      "in"
    ],
    [
      "t",
      "e"
    ],
    [
      "ou",
      "ld"
    ],
    [
      "t",
      "s"
    ],
    [
      "po",
      "int"
    ],
    [
      "o",
      "se"
    ],
    [
      "2",
      ")"
    ],
    [
      "at",
      "ive"
    ],
    [
      "r",
      "and"
    ],
    [
      "c",
      "y"
    ],
    [
      "ma",
      "in"
    ],
    [
      "si",
      "ve"
    ],
    [
      "ar",
      "d"
    ],
    [
      "E",
      "x"
    ],
    [
      "sh",
      "ort"
    ],
    [
      "d",
      "if"
    ],
    [
      "element",
      "s"
    ],
    [
      "(",
      "a"
    ],
    [
      "o",
      "ver"
    ],
    [
      "i",
      ","
    ],
    [
      "i",
      "ll"
    ],
    [
      "po",
      "si"
    ],
    [
      "en",
      "g"
    ],
    [
      "at",
      "es"
    ],
    [
      "inte",
      "ger"
    ],
    [
      "d",
      "ist"
    ],
    [
      "as",
      "su"
    ],
    [
      "a",
      "f"
    ],
    [
      "en",
      "ti"
    ],
    [
      "e",
      "v"
    ],
    [
      "pro",
      "per"
    ],
    [
      "dire",
      "cted"
    ],
    [
      "r",
      "ic"
    ],
    [
      "1",
      "]"
    ],
    [
      "t",
      "ra"
    ],
    [
      "g",
      "o"
    ],
    [
      "W",
      "h"
    ],
    [
      "re",
      "present"
    ],
    [
      "se",
      "e"
    ],
    [
      "sa",
      "me"
    ],
    [
      "al",
      "so"
    ],
    [
      "example",
      ","
    ],
    [
      "at",
      "ed"
    ],
    [
      "short",
      "est"
    ],
    [
      "contain",
      "s"
    ],
    [
      "i",
      "z"
    ],
    [
      "p",
      "ri"
    ],
    [
      "ran",
      "k"
    ],
    [
      "i",
      "ent"
    ],
    [
      "s",
      "ince"
    ],
    [
      "me",
      "th"
    ],
    [
      "f",
      "t"
    ],
    [
      "us",
      "ing"
    ],
    [
      "stru",
      "ct"
    ],
    [
      "il",
      "d"
    ],
    [
      "alle",
      "l"
    ],
    [
      "equ",
      "ation"
    ],
    [
      "ap",
      "pro"
    ],
    [
      "Se",
      "ction"
    ],
    [
      "const",
      "ant"
    ],
    [
      "le",
      "ft"
    ],
    [
      "r",
      "ight"
    ],
    [
      "n",
      ","
    ],
    [
      "j",
      "e"
    ],
    [
      "T",
      "-"
    ],
    [
      "abil",
      "ity"
    ],
    [
      "ter",
      "m"
    ],
    [
      "meth",
      "od"
    ],
    [
      "fin",
      "d"
    ],
    [
      "S",
      "how"
    ],
    [
      "an",
      "al"
    ],
    [
      "do",
      "es"
    ],
    [
      "o",
      "c"
    ],
    [
      "a",
      "u"
    ],
    [
      "A",
      "s"
    ],
    [
      "O",
      "N"
    ],
    [
      "v",
      "es"
    ],
    [
      "has",
      "h"
    ],
    [
      "Th",
      "is"
    ],
    [
      "l",
      "ong"
    ],
    [
      "ta",
      "ble"
    ],
    [
      "po",
      "s"
    ],
    [
      "si",
      "der"
    ],
    [
      "match",
      "ing"
    ],
    [
      "sequ",
      "ence"
    ],
    [
      "pro",
      "du"
    ],
    [
      "v",
      "ing"
    ],
    [
      "er",
      "s"
    ],
    [
      "er",
      "cis"
    ],
    [
      "ch",
      "ild"
    ],
    [
      "ren",
      "ce"
    ],
    [
      "par",
      "allel"
    ],
    [
      "wor",
      "k"
    ],
    [
      "qu",
      "e"
    ],
    [
      "is",
      ","
    ],
    [
      "A",
      "l"
    ],
    [
      "l",
      "eng"
    ],
    [
      "leng",
      "th"
    ],
    [
      "Ex",
      "ercis"
    ],
    [
      "3",
      ","
    ],
    [
      "A",
      "n"
    ],
    [
      "R",
      "A"
    ],
    [
      "ap",
      "ter"
    ],
    [
      "bin",
      "ary"
    ],
    [
      "B",
      "e"
    ],
    [
      "2",
      "0"
    ],
    [
      "po",
      "se"
    ],
    [
      "c",
      "ut"
    ],
    [
      "i",
      "d"
    ],
    [
      "ta",
      "kes"
    ],
    [
      "algorithm",
      "s"
    ],
    [
      "co",
      "l"
    ],
    [
      "fic",
      "ient"
    ],
    [
      "valu",
      "es"
    ],
    [
      "at",
      "is"
    ],
    [
      "re",
      "l"
    ],
    [
      "ter",
      "min"
    ],
    [
      "re",
      "ad"
    ],
    [
      "k",
      "now"
    ],
    [
      "n",
      "."
    ],
    [
      "lo",
      "ck"
    ],
    [
      "s",
      "p"
    ],
    [
      "V",
      ","
    ],
    [
      "in",
      "ser"
    ],
    [
      "min",
      "imum"
    ],
    [
      "u",
      "s,"
    ],
    [
      "d",
      "at"
    ],
    [
      "L",
      "E"
    ],
    [
      "max",
      "imum"
    ],
    [
      "ly",
      ","
    ],
    [
      "-",
      "-"
    ],
    [
      "]",
      ","
    ],
    [
      "t",
      "re"
    ],
    [
      "T",
      "I"
    ],
    [
      "1",
      "/"
    ],
    [
      "b",
      "lock"
    ],
    [
      "recur",
      "sive"
    ],
    [
      "dep",
      "end"
    ],
    [
      "g",
      "re"
    ],
    [
      "ch",
      "an"
    ],
    [
      "ch",
      "ar"
    ],
    [
      "ne",
      "ed"
    ],
    [
      "al",
      "ity"
    ],
    [
      "sub",
      "problem"
    ],
    [
      "follow",
      "ing"
    ],
    [
      "a",
      "ge"
    ],
    [
      "ne",
      "w"
    ],
    [
      "be",
      "t"
    ],
    [
      "l",
      "ar"
    ],
    [
      "S",
      "ince"
    ],
    [
      "Th",
      "us,"
    ],
    [
      "le",
      "ast"
    ],
    [
      "mo",
      "d"
    ],
    [
      "'",
      "ll"
    ],
    [
      "n",
      "/"
    ],
    [
      "co",
      "m"
    ],
    [
      "en",
      "er"
    ],
    [
      "ste",
      "p"
    ],
    [
      "p",
      "on"
    ],
    [
      "oper",
      "ations"
    ],
    [
      "pa",
      "ge"
    ],
    [
      "2",
      "-"
    ],
    [
      "bl",
      "ack"
    ],
    [
      "ed",
      ","
    ],
    [
      "an",
      "ce"
    ],
    [
      "lin",
      "es"
    ],
    [
      "/",
      "/"
    ],
    [
      "ex",
      "t"
    ],
    [
      "g",
      "ro"
    ],
    [
      "X",
      "-"
    ],
    [
      "su",
      "l"
    ],
    [
      "d",
      "en"
    ],
    [
      "g",
      "n"
    ],
    [
      "3",
      "-"
    ],
    [
      "i",
      "ti"
    ],
    [
      "comp",
      "let"
    ],
    [
      "rand",
      "om"
    ],
    [
      "D",
      "-"
    ],
    [
      "prob",
      "ability"
    ],
    [
      "t",
      "al"
    ],
    [
      "b",
      "it"
    ],
    [
      "cl",
      "u"
    ],
    [
      "re",
      "sul"
    ],
    [
      "mm",
      "ing"
    ],
    [
      "s",
      "m"
    ],
    [
      "char",
      "act"
    ],
    [
      "ed",
      "."
    ],
    [
      "z",
      "ed"
    ],
    [
      "dat",
      "a"
    ],
    [
      "Y",
      "ou"
    ],
    [
      "f",
      "act"
    ],
    [
      "comput",
      "e"
    ],
    [
      "imp",
      "lement"
    ],
    [
      "n",
      "on"
    ],
    [
      "g",
      "ener"
    ],
    [
      "the",
      "se"
    ],
    [
      "4",
      ","
    ],
    [
      "ou",
      "gh"
    ],
    [
      "a",
      "in"
    ],
    [
      "C",
      "h"
    ],
    [
      "fi",
      "x"
    ],
    [
      "D",
      "E"
    ],
    [
      "si",
      "mple"
    ],
    [
      "a",
      "g"
    ],
    [
      "y",
      "."
    ],
    [
      "str",
      "ing"
    ],
    [
      "T",
      "o"
    ],
    [
      "y",
      ","
    ],
    [
      "k",
      ","
    ],
    [
      "ul",
      "ar"
    ],
    [
      "in",
      "d"
    ],
    [
      "C",
      "on"
    ],
    [
      "T",
      "."
    ],
    [
      "is",
      "h"
    ],
    [
      "c",
      "ach"
    ],
    [
      "to",
      "tal"
    ],
    [
      "i",
      "e"
    ],
    [
      "time",
      ","
    ],
    [
      "sm",
      "all"
    ],
    [
      "]",
      "."
    ],
    [
      "per",
      "form"
    ],
    [
      "s",
      "atis"
    ],
    [
      "j",
      "ust"
    ],
    [
      "y",
      "mp"
    ],
    [
      "par",
      "ti"
    ],
    [
      "struct",
      "ure"
    ],
    [
      "-",
      "time"
    ],
    [
      "plic",
      "ation"
    ],
    [
      "ef",
      "ficient"
    ],
    [
      "bo",
      "th"
    ],
    [
      "C",
      "o"
    ],
    [
      "g",
      "u"
    ],
    [
      "st",
      "ar"
    ],
    [
      "af",
      "ter"
    ],
    [
      "si",
      "gn"
    ],
    [
      "pro",
      "ve"
    ],
    [
      "ex",
      "pe"
    ],
    [
      "(",
      "b"
    ],
    [
      "ma",
      "y"
    ],
    [
      "pos",
      "si"
    ],
    [
      "1",
      "1"
    ],
    [
      "di",
      "tion"
    ],
    [
      "ic",
      "ally"
    ],
    [
      "a",
      "se"
    ],
    [
      "ever",
      "y"
    ],
    [
      "be",
      "cause"
    ],
    [
      "(",
      "2"
    ],
    [
      "show",
      "s"
    ],
    [
      "c",
      "le"
    ],
    [
      "...",
      ","
    ],
    [
      "(",
      "3"
    ],
    [
      "ob",
      "je"
    ],
    [
      "m",
      "any"
    ],
    [
      "requ",
      "i"
    ],
    [
      "T",
      "E"
    ],
    [
      "B",
      "-"
    ],
    [
      "(x",
      ")"
    ],
    [
      "c",
      "ri"
    ],
    [
      "s",
      "y"
    ],
    [
      "in",
      "cre"
    ],
    [
      "E",
      ")"
    ],
    [
      "6",
      "."
    ],
    [
      "k",
      ")"
    ],
    [
      "o",
      "ld"
    ],
    [
      "The",
      "orem"
    ],
    [
      "co",
      "de"
    ],
    [
      "i",
      "ther"
    ],
    [
      "Be",
      "cause"
    ],
    [
      "dif",
      "fe"
    ],
    [
      "tim",
      "es"
    ],
    [
      "(",
      "V,"
    ],
    [
      "v",
      "."
    ],
    [
      "you",
      "r"
    ],
    [
      "iter",
      "ation"
    ],
    [
      "m",
      "ight"
    ],
    [
      "sp",
      "an"
    ],
    [
      "progra",
      "mming"
    ],
    [
      "pa",
      "ir"
    ],
    [
      "ren",
      "t"
    ],
    [
      "wa",
      "ys"
    ],
    [
      "e",
      "l"
    ],
    [
      "o",
      "l"
    ],
    [
      "or",
      "s"
    ],
    [
      "7",
      "."
    ],
    [
      "i",
      "]"
    ],
    [
      "ymp",
      "to"
    ],
    [
      "ympto",
      "tic"
    ],
    [
      "th",
      "-"
    ],
    [
      "w",
      "ill"
    ],
    [
      "res",
      "pon"
    ],
    [
      "appro",
      "x"
    ],
    [
      "den",
      "ot"
    ],
    [
      "S",
      "O"
    ],
    [
      "m",
      "an"
    ],
    [
      "i",
      "tion"
    ],
    [
      "cach",
      "e"
    ],
    [
      "5",
      ","
    ],
    [
      "[",
      "1"
    ],
    [
      "ou",
      "s"
    ],
    [
      "tri",
      "but"
    ],
    [
      "oc",
      "cur"
    ],
    [
      "he",
      "ap"
    ],
    [
      "ic",
      "e"
    ],
    [
      "k",
      "s"
    ],
    [
      "A",
      ","
    ],
    [
      "di",
      "vi"
    ],
    [
      "proper",
      "ty"
    ],
    [
      "path",
      "s"
    ],
    [
      "cor",
      "respon"
    ],
    [
      "wor",
      "st"
    ],
    [
      "as",
      "ymptotic"
    ],
    [
      "Th",
      "en"
    ],
    [
      "re",
      "ct"
    ],
    [
      "O",
      "(n"
    ],
    [
      "ex",
      "e"
    ],
    [
      "su",
      "m"
    ],
    [
      "no",
      "des"
    ],
    [
      "c",
      "tive"
    ],
    [
      "recur",
      "rence"
    ],
    [
      "c",
      "oun"
    ],
    [
      "pro",
      "cess"
    ],
    [
      "mat",
      "ric"
    ],
    [
      "k",
      "."
    ],
    [
      "requ",
      "est"
    ],
    [
      "posi",
      "tion"
    ],
    [
      "complet",
      "e"
    ],
    [
      "an",
      "s"
    ],
    [
      "su",
      "f"
    ],
    [
      "ne",
      "g"
    ],
    [
      "co",
      "ver"
    ],
    [
      "enti",
      "al"
    ],
    [
      "C",
      "H"
    ],
    [
      "s",
      "pe"
    ],
    [
      "Co",
      "mp"
    ],
    [
      "a",
      "."
    ],
    [
      "th",
      "ough"
    ],
    [
      "ex",
      "ist"
    ],
    [
      "i",
      "es"
    ],
    [
      "IN",
      "SE"
    ],
    [
      "INSE",
      "RT"
    ],
    [
      "equ",
      "al"
    ],
    [
      "us",
      "es"
    ],
    [
      "are",
      "n"
    ],
    [
      "P",
      "A"
    ],
    [
      "I",
      "t"
    ],
    [
      "Exercis",
      "e"
    ],
    [
      "as",
      "s"
    ],
    [
      "O",
      "M"
    ],
    [
      "y",
      "n"
    ],
    [
      "possi",
      "ble"
    ],
    [
      "t",
      "ran"
    ],
    [
      "P",
      "r"
    ],
    [
      "b",
      "as"
    ],
    [
      "The",
      "re"
    ],
    [
      "anal",
      "ys"
    ],
    [
      "sol",
      "ve"
    ],
    [
      "th-",
      "first"
    ],
    [
      "ad",
      "d"
    ],
    [
      "con",
      "sider"
    ],
    [
      "whi",
      "le"
    ],
    [
      "we",
      "en"
    ],
    [
      "m",
      "ut"
    ],
    [
      "E",
      "R"
    ],
    [
      "E",
      "ach"
    ],
    [
      "p",
      "ly"
    ],
    [
      "bet",
      "ween"
    ],
    [
      "[",
      "2"
    ],
    [
      "g",
      "ment"
    ],
    [
      "at",
      "tribut"
    ],
    [
      "9",
      "."
    ],
    [
      "ke",
      "ys"
    ],
    [
      ".",
      ")"
    ],
    [
      "progra",
      "m"
    ],
    [
      "me",
      "m"
    ],
    [
      "the",
      "y"
    ],
    [
      "pl",
      "a"
    ],
    [
      "S",
      "up"
    ],
    [
      "Sup",
      "pose"
    ],
    [
      "m",
      "ma"
    ],
    [
      "ex",
      "act"
    ],
    [
      "-",
      "case"
    ],
    [
      "neg",
      "ative"
    ],
    [
      "S",
      ","
    ],
    [
      "[",
      "3"
    ],
    [
      "n",
      "ext"
    ],
    [
      "e",
      "ither"
    ],
    [
      "l",
      "es"
    ],
    [
      "un",
      "i"
    ],
    [
      "8",
      "."
    ],
    [
      "tw",
      "or"
    ],
    [
      "ti",
      "es"
    ],
    [
      "pro",
      "of"
    ],
    [
      "ap",
      "pe"
    ],
    [
      "fore",
      ","
    ],
    [
      "p",
      "aren"
    ],
    [
      "con",
      "ne"
    ],
    [
      "ct",
      "s"
    ],
    [
      "N",
      "I"
    ],
    [
      "Ch",
      "apter"
    ],
    [
      "r",
      "y"
    ],
    [
      "1",
      "2"
    ],
    [
      "ne",
      "twor"
    ],
    [
      ".1",
      "-"
    ],
    [
      "t",
      ","
    ],
    [
      "is",
      "e"
    ],
    [
      "cy",
      "cle"
    ],
    [
      "con",
      "d"
    ],
    [
      "satis",
      "fi"
    ],
    [
      "bo",
      "o"
    ],
    [
      "yn",
      "am"
    ],
    [
      "whe",
      "ther"
    ],
    [
      "not",
      "ation"
    ],
    [
      "at",
      "ing"
    ],
    [
      "cor",
      "rect"
    ],
    [
      "sub",
      "tree"
    ],
    [
      "s",
      "to"
    ],
    [
      "th",
      "ree"
    ],
    [
      "wa",
      "y"
    ],
    [
      "p",
      "r"
    ],
    [
      "b",
      "."
    ],
    [
      "au",
      "gment"
    ],
    [
      "l",
      "ess"
    ],
    [
      "charact",
      "er"
    ],
    [
      "s",
      "our"
    ],
    [
      "f",
      "ine"
    ],
    [
      "s",
      "pa"
    ],
    [
      "C",
      "."
    ],
    [
      "assu",
      "me"
    ],
    [
      "appe",
      "ar"
    ],
    [
      "li",
      "ke"
    ],
    [
      "m",
      "ed"
    ],
    [
      "in",
      "clu"
    ],
    [
      "S",
      "I"
    ],
    [
      "in",
      "de"
    ],
    [
      "ter",
      "n"
    ],
    [
      "Le",
      "mma"
    ],
    [
      "k",
      "ing"
    ],
    [
      "ve",
      "l"
    ],
    [
      "}",
      "."
    ],
    [
      "A",
      "R"
    ],
    [
      "expe",
      "cted"
    ],
    [
      "T",
      "["
    ],
    [
      "3",
      "1."
    ],
    [
      "ynam",
      "ic"
    ],
    [
      "re",
      "main"
    ],
    [
      "3",
      ")"
    ],
    [
      "N",
      "P-"
    ],
    [
      "de",
      "termin"
    ],
    [
      "wh",
      "ose"
    ],
    [
      "in",
      "iti"
    ],
    [
      "v",
      "is"
    ],
    [
      "de",
      "fine"
    ],
    [
      "ta",
      "ke"
    ],
    [
      "tre",
      "es"
    ],
    [
      "m",
      "il"
    ],
    [
      "a",
      ","
    ],
    [
      "x",
      ","
    ],
    [
      "the",
      "orem"
    ],
    [
      "posi",
      "tive"
    ],
    [
      "par",
      "t"
    ],
    [
      "h",
      "old"
    ],
    [
      "Comp",
      "ut"
    ],
    [
      "algorithm",
      "."
    ],
    [
      "as",
      "es"
    ],
    [
      "low",
      "er"
    ],
    [
      "re",
      "du"
    ],
    [
      "l",
      "a"
    ],
    [
      "sour",
      "ce"
    ],
    [
      "or",
      "y"
    ],
    [
      "Wh",
      "en"
    ],
    [
      "al",
      "ways"
    ],
    [
      "be",
      "fore"
    ],
    [
      "Pro",
      "ve"
    ],
    [
      "at",
      "er"
    ],
    [
      "le",
      "a"
    ],
    [
      "su",
      "c"
    ],
    [
      "ev",
      "en"
    ],
    [
      "(",
      "s,"
    ],
    [
      "A",
      "."
    ],
    [
      "c",
      "u"
    ],
    [
      "b",
      "i"
    ],
    [
      "w",
      "as"
    ],
    [
      "problem",
      ","
    ],
    [
      "(a",
      ")"
    ],
    [
      "n",
      "al"
    ],
    [
      "i",
      "ble"
    ],
    [
      "G",
      "."
    ],
    [
      "se",
      "cond"
    ],
    [
      "lo",
      "g"
    ],
    [
      "R",
      "I"
    ],
    [
      "the",
      "ir"
    ],
    [
      "0",
      "0"
    ],
    [
      "parti",
      "tion"
    ],
    [
      "MA",
      "T"
    ],
    [
      "st",
      "ate"
    ],
    [
      "m",
      "er"
    ],
    [
      "Pro",
      "of"
    ],
    [
      "giv",
      "es"
    ],
    [
      "a",
      "x"
    ],
    [
      "he",
      "ad"
    ],
    [
      "sort",
      "ed"
    ],
    [
      "RA",
      "N"
    ],
    [
      "f",
      "ul"
    ],
    [
      "SO",
      "RT"
    ],
    [
      "P",
      "["
    ],
    [
      "ing",
      ","
    ],
    [
      "pro",
      "vi"
    ],
    [
      "n",
      "i"
    ],
    [
      "G",
      "ive"
    ],
    [
      "ic",
      "al"
    ],
    [
      "ic",
      "k"
    ],
    [
      "j",
      "]"
    ],
    [
      "ind",
      "ic"
    ],
    [
      "mp",
      "ty"
    ],
    [
      "inser",
      "tion"
    ],
    [
      "n",
      "-"
    ],
    [
      "d",
      "ynamic"
    ],
    [
      "how",
      "ever"
    ],
    [
      "T",
      ","
    ],
    [
      "im",
      "ation"
    ],
    [
      "form",
      "ul"
    ],
    [
      "po",
      "t"
    ],
    [
      "per",
      "mut"
    ],
    [
      "problem",
      "."
    ],
    [
      "i",
      "an"
    ],
    [
      "ro",
      "u"
    ],
    [
      "ro",
      "w"
    ],
    [
      "p",
      "p"
    ],
    [
      "un",
      "der"
    ],
    [
      "M",
      "U"
    ],
    [
      "ct",
      "or"
    ],
    [
      "is",
      "tic"
    ],
    [
      "f",
      "a"
    ],
    [
      "sing",
      "le"
    ],
    [
      "se",
      "ction"
    ],
    [
      "analys",
      "is"
    ],
    [
      "c",
      "ir"
    ],
    [
      "v",
      "en"
    ],
    [
      "i",
      ")"
    ],
    [
      "rou",
      "gh"
    ],
    [
      "run",
      "s"
    ],
    [
      "i",
      "de"
    ],
    [
      "d",
      "."
    ],
    [
      "B",
      "y"
    ],
    [
      "Th",
      "at"
    ],
    [
      "defin",
      "ition"
    ],
    [
      "ab",
      "out"
    ],
    [
      "iz",
      "ation"
    ],
    [
      "the",
      "m"
    ],
    [
      "li",
      "es"
    ],
    [
      "tree",
      "."
    ],
    [
      "dist",
      "in"
    ],
    [
      "m",
      "is"
    ],
    [
      "return",
      "s"
    ],
    [
      "w",
      "ould"
    ],
    [
      "defin",
      "ed"
    ],
    [
      "|",
      "V"
    ],
    [
      "number",
      "s"
    ],
    [
      "(",
      "1"
    ],
    [
      "form",
      "ation"
    ],
    [
      "lar",
      "ge"
    ],
    [
      "multi",
      "plication"
    ],
    [
      "const",
      "ra"
    ],
    [
      "matric",
      "es"
    ],
    [
      "co",
      "mm"
    ],
    [
      "set",
      "s"
    ],
    [
      "s",
      "ti"
    ],
    [
      "A",
      "P"
    ],
    [
      "distin",
      "ct"
    ],
    [
      "ie",
      "ld"
    ],
    [
      "r",
      "at"
    ],
    [
      "ch",
      "e"
    ],
    [
      "we",
      "'ll"
    ],
    [
      "us",
      "ed"
    ],
    [
      "R",
      "e"
    ],
    [
      "chan",
      "ge"
    ],
    [
      "term",
      "ine"
    ],
    [
      "pot",
      "ential"
    ],
    [
      "c",
      "ent"
    ],
    [
      "L",
      "I"
    ],
    [
      "w",
      "r"
    ],
    [
      "4",
      ")"
    ],
    [
      "vari",
      "able"
    ],
    [
      "approx",
      "imation"
    ],
    [
      "gro",
      "up"
    ],
    [
      "u",
      "ch"
    ],
    [
      "y",
      "ield"
    ],
    [
      "tex",
      "t"
    ],
    [
      "f",
      "ast"
    ],
    [
      "fact",
      "or"
    ],
    [
      "or",
      "ti"
    ],
    [
      "(b",
      ")"
    ],
    [
      "s",
      "ist"
    ],
    [
      "exe",
      "cut"
    ],
    [
      "up",
      "per"
    ],
    [
      "exact",
      "ly"
    ],
    [
      "in",
      "st"
    ],
    [
      "ed",
      "y"
    ],
    [
      "act",
      "u"
    ],
    [
      "de",
      "termine"
    ],
    [
      "inde",
      "x"
    ],
    [
      "M",
      ","
    ],
    [
      "k",
      "-"
    ],
    [
      "in",
      "depend"
    ],
    [
      "4",
      "-"
    ],
    [
      "orti",
      "zed"
    ],
    [
      "augment",
      "ing"
    ],
    [
      "A[",
      "p"
    ],
    [
      "or",
      "ig"
    ],
    [
      "ar",
      "is"
    ],
    [
      "ad",
      "dition"
    ],
    [
      "en",
      "cy"
    ],
    [
      "+",
      "1"
    ],
    [
      "u",
      "."
    ],
    [
      "worst",
      "-case"
    ],
    [
      "Wh",
      "at"
    ],
    [
      "wor",
      "d"
    ],
    [
      "i",
      "."
    ],
    [
      "B",
      "."
    ],
    [
      "c",
      "."
    ],
    [
      "[",
      "4"
    ],
    [
      "gener",
      "al"
    ],
    [
      "initi",
      "al"
    ],
    [
      "cl",
      "a"
    ],
    [
      "show",
      "n"
    ],
    [
      "v",
      "ed"
    ],
    [
      "i",
      "j"
    ],
    [
      "4",
      ".1"
    ],
    [
      "un",
      "directed"
    ],
    [
      "constra",
      "int"
    ],
    [
      "(n",
      "/"
    ],
    [
      "col",
      "um"
    ],
    [
      "6",
      ","
    ],
    [
      "me",
      "t"
    ],
    [
      "E",
      "."
    ],
    [
      "j",
      "o"
    ],
    [
      "diffe",
      "rent"
    ],
    [
      "ly",
      "."
    ],
    [
      "p",
      ","
    ],
    [
      "p",
      "."
    ],
    [
      "sh",
      "ould"
    ],
    [
      "problem",
      "s"
    ],
    [
      "polynomial",
      "-time"
    ],
    [
      "Con",
      "sider"
    ],
    [
      "ste",
      "ad"
    ],
    [
      "ma",
      "ke"
    ],
    [
      "re",
      "al"
    ],
    [
      "am",
      "ortized"
    ],
    [
      "gre",
      "edy"
    ],
    [
      "be",
      "en"
    ],
    [
      "v",
      ","
    ],
    [
      "th",
      "rough"
    ],
    [
      "de",
      "l"
    ],
    [
      "des",
      "cri"
    ],
    [
      "correspon",
      "ding"
    ],
    [
      "denot",
      "e"
    ],
    [
      "w",
      "ise"
    ],
    [
      "orig",
      "in"
    ],
    [
      "ver",
      "se"
    ],
    [
      "with",
      "in"
    ],
    [
      "s",
      "es"
    ],
    [
      "ev",
      "ent"
    ],
    [
      "ch",
      "apter"
    ],
    [
      "i",
      "ze"
    ],
    [
      "shortest",
      "-"
    ],
    [
      "|V",
      "|"
    ],
    [
      "si",
      "mp"
    ],
    [
      "we",
      "ll"
    ],
    [
      "ste",
      "m"
    ],
    [
      "st",
      "ra"
    ],
    [
      "h",
      "igh"
    ],
    [
      "divi",
      "de"
    ],
    [
      "ex",
      "p"
    ],
    [
      "ac",
      "ti"
    ],
    [
      "7",
      ","
    ],
    [
      "ine",
      "qu"
    ],
    [
      "go",
      "od"
    ],
    [
      "ob",
      "tain"
    ],
    [
      "red",
      "-"
    ],
    [
      "par",
      "tic"
    ],
    [
      "con",
      "sist"
    ],
    [
      "however",
      ","
    ],
    [
      "2",
      "2"
    ],
    [
      "anal",
      "y"
    ],
    [
      "ally",
      ","
    ],
    [
      "que",
      "ue"
    ],
    [
      "c",
      "al"
    ],
    [
      "ve",
      "ctor"
    ],
    [
      "independ",
      "ent"
    ],
    [
      "com",
      "es"
    ],
    [
      "networ",
      "k"
    ],
    [
      "N",
      "P"
    ],
    [
      "po",
      "inter"
    ],
    [
      "c",
      "alle"
    ],
    [
      "main",
      "tain"
    ],
    [
      "1",
      "3"
    ],
    [
      "le",
      "vel"
    ],
    [
      "ce",
      "p"
    ],
    [
      "t",
      "en"
    ],
    [
      "E",
      "N"
    ],
    [
      "out",
      "put"
    ],
    [
      "at",
      "or"
    ],
    [
      "he",
      "ight"
    ],
    [
      "suf",
      "fix"
    ],
    [
      "l",
      "an"
    ],
    [
      "ver",
      "sion"
    ],
    [
      "si",
      "de"
    ],
    [
      "n/",
      "2"
    ],
    [
      "ma",
      "kes"
    ],
    [
      "on",
      "ce"
    ],
    [
      "algorithm",
      ","
    ],
    [
      "an",
      "other"
    ],
    [
      "tic",
      "al"
    ],
    [
      "equ",
      "i"
    ],
    [
      "T",
      "RE"
    ],
    [
      "TI",
      "ON"
    ],
    [
      "conne",
      "cted"
    ],
    [
      "wh",
      "at"
    ],
    [
      "A",
      "C"
    ],
    [
      "h",
      "and"
    ],
    [
      "sort",
      "ing"
    ],
    [
      "str",
      "ate"
    ],
    [
      "F",
      "I"
    ],
    [
      "qu",
      "er"
    ],
    [
      "p",
      "s"
    ],
    [
      "ite",
      "m"
    ],
    [
      "s",
      "lo"
    ],
    [
      "z",
      "."
    ],
    [
      "ow",
      "n"
    ],
    [
      "e",
      "mpty"
    ],
    [
      "as",
      "sign"
    ],
    [
      "star",
      "t"
    ],
    [
      "vari",
      "ant"
    ],
    [
      "du",
      "al"
    ],
    [
      "C",
      "U"
    ],
    [
      "if",
      "y"
    ],
    [
      "comput",
      "er"
    ],
    [
      "calle",
      "d"
    ],
    [
      "w",
      "ard"
    ],
    [
      "ig",
      "n"
    ],
    [
      "fin",
      "ite"
    ],
    [
      "w",
      "er"
    ],
    [
      "comp",
      "o"
    ],
    [
      "iv",
      "en"
    ],
    [
      "NI",
      "L"
    ],
    [
      "in",
      "du"
    ],
    [
      "span",
      "ning"
    ],
    [
      "mo",
      "del"
    ],
    [
      "ren",
      "ces"
    ],
    [
      "(",
      "c"
    ],
    [
      "m",
      "on"
    ],
    [
      "p",
      "at"
    ],
    [
      "equi",
      "val"
    ],
    [
      "red-",
      "black"
    ],
    [
      "G",
      ","
    ],
    [
      "lan",
      "gu"
    ],
    [
      "partic",
      "ular"
    ],
    [
      "i",
      "ed"
    ],
    [
      "le",
      "x"
    ],
    [
      "t",
      "r"
    ],
    [
      "n",
      ")."
    ],
    [
      "inter",
      "val"
    ],
    [
      "G",
      "iven"
    ],
    [
      "suc",
      "cess"
    ],
    [
      "j",
      "ac"
    ],
    [
      "Al",
      "gorithm"
    ],
    [
      "point",
      "s"
    ],
    [
      "Exercis",
      "es"
    ],
    [
      "produ",
      "ct"
    ],
    [
      "There",
      "fore,"
    ],
    [
      "ad",
      "jac"
    ],
    [
      "resul",
      "t"
    ],
    [
      "aris",
      "on"
    ],
    [
      "integer",
      "s"
    ],
    [
      "tran",
      "s"
    ],
    [
      "sa",
      "y"
    ],
    [
      "th",
      "us"
    ],
    [
      "q",
      "]"
    ],
    [
      "d",
      ","
    ],
    [
      "e",
      "w"
    ],
    [
      "col",
      "or"
    ],
    [
      "s",
      ":"
    ],
    [
      "re",
      "g"
    ],
    [
      "a",
      "k"
    ],
    [
      "cir",
      "cu"
    ],
    [
      "m",
      "es"
    ],
    [
      "s",
      "en"
    ],
    [
      "comp",
      "arison"
    ],
    [
      "}",
      ","
    ],
    [
      "b",
      ","
    ],
    [
      "i",
      "o"
    ],
    [
      "cis",
      "ion"
    ],
    [
      "fe",
      "as"
    ],
    [
      "o",
      "mi"
    ],
    [
      "be",
      "long"
    ],
    [
      "We",
      "'ll"
    ],
    [
      "A",
      "r"
    ],
    [
      "read",
      "y"
    ],
    [
      "p",
      "se"
    ],
    [
      "con",
      "tra"
    ],
    [
      "c",
      "er"
    ],
    [
      "obje",
      "ct"
    ],
    [
      "e",
      "."
    ],
    [
      "se",
      "le"
    ],
    [
      "weight",
      "s"
    ],
    [
      "t",
      "est"
    ],
    [
      "with",
      "out"
    ],
    [
      "in",
      "formation"
    ],
    [
      "ge",
      "t"
    ],
    [
      "(",
      "mod"
    ],
    [
      "case",
      ","
    ],
    [
      "b",
      "est"
    ],
    [
      "Pro",
      "b"
    ],
    [
      "cho",
      "ice"
    ],
    [
      "ic",
      "tion"
    ],
    [
      "sub",
      "set"
    ],
    [
      "c",
      "lo"
    ],
    [
      "pse",
      "u"
    ],
    [
      "TRE",
      "E-"
    ],
    [
      "circu",
      "it"
    ],
    [
      "colum",
      "n"
    ],
    [
      "met",
      "ric"
    ],
    [
      "ver",
      "al"
    ],
    [
      "k",
      "ed"
    ],
    [
      "(",
      "1)"
    ],
    [
      "permut",
      "ation"
    ],
    [
      "feas",
      "ible"
    ],
    [
      "bl",
      "ue"
    ],
    [
      "DE",
      "LE"
    ],
    [
      "as",
      "ks"
    ],
    [
      "de",
      "cre"
    ],
    [
      "child",
      "ren"
    ],
    [
      "m",
      "uch"
    ],
    [
      "comput",
      "ing"
    ],
    [
      "vari",
      "ab"
    ],
    [
      "P[",
      ":"
    ],
    [
      "bas",
      "ed"
    ],
    [
      "o",
      "ve"
    ],
    [
      "m",
      "en"
    ],
    [
      "[",
      "i,"
    ],
    [
      "m",
      ","
    ],
    [
      "8",
      ","
    ],
    [
      "ra",
      "c"
    ],
    [
      "R",
      "O"
    ],
    [
      "f",
      "y"
    ],
    [
      "recur",
      "sion"
    ],
    [
      "NP-",
      "complete"
    ],
    [
      "de",
      "cision"
    ],
    [
      "1",
      "7"
    ],
    [
      "Al",
      "though"
    ],
    [
      "ver",
      "s"
    ],
    [
      "H",
      "E"
    ],
    [
      "be",
      "ing"
    ],
    [
      "ca",
      "pa"
    ],
    [
      "imp",
      "lies"
    ],
    [
      "se",
      "l"
    ],
    [
      "call",
      "s"
    ],
    [
      "dist",
      "ri"
    ],
    [
      "gro",
      "w"
    ],
    [
      "F",
      "T"
    ],
    [
      "'",
      "t"
    ],
    [
      "RAN",
      "D"
    ],
    [
      "f",
      "er"
    ],
    [
      "pri",
      "me"
    ],
    [
      "fin",
      "ding"
    ],
    [
      "g",
      "ree"
    ],
    [
      "ab",
      "ove"
    ],
    [
      "S",
      "."
    ],
    [
      "tree",
      ","
    ],
    [
      "rand",
      "omi"
    ],
    [
      "know",
      "n"
    ],
    [
      "de",
      "gree"
    ],
    [
      "on",
      "ent"
    ],
    [
      "2",
      "0."
    ],
    [
      "(",
      "A,"
    ],
    [
      "long",
      "est"
    ],
    [
      "pla",
      "ce"
    ],
    [
      "RAND",
      "OM"
    ],
    [
      "(",
      "see"
    ],
    [
      "rat",
      "io"
    ],
    [
      "comp",
      "onent"
    ],
    [
      "sub",
      "array"
    ],
    [
      "3",
      "4."
    ],
    [
      "Let",
      "'s"
    ],
    [
      "2",
      "5"
    ],
    [
      "paren",
      "t"
    ],
    [
      "the",
      "mat"
    ],
    [
      "sy",
      "stem"
    ],
    [
      "contain",
      "ing"
    ],
    [
      "te",
      "ch"
    ],
    [
      "min",
      "im"
    ],
    [
      "la",
      "be"
    ],
    [
      "b",
      "ack"
    ],
    [
      "comm",
      "on"
    ],
    [
      "d",
      "own"
    ],
    [
      "qu",
      "ick"
    ],
    [
      "can",
      "not"
    ],
    [
      "oll",
      "ary"
    ],
    [
      "vi",
      "ew"
    ],
    [
      "al",
      "ready"
    ],
    [
      "H",
      "ow"
    ],
    [
      "pri",
      "or"
    ],
    [
      "cho",
      "ose"
    ],
    [
      "st",
      "and"
    ],
    [
      "pseu",
      "do"
    ],
    [
      "i",
      "al"
    ],
    [
      "an",
      "ces"
    ],
    [
      "s",
      "on"
    ],
    [
      "dep",
      "th-first"
    ],
    [
      "L",
      "C"
    ],
    [
      "st",
      "ack"
    ],
    [
      "represent",
      "ation"
    ],
    [
      "j",
      ","
    ],
    [
      "le",
      "d"
    ],
    [
      "19",
      "9"
    ],
    [
      "su",
      "p"
    ],
    [
      "inequ",
      "ality"
    ],
    [
      "appro",
      "ach"
    ],
    [
      "c",
      "ould"
    ],
    [
      "mo",
      "du"
    ],
    [
      "modu",
      "lo"
    ],
    [
      "O(",
      "lg"
    ],
    [
      "1",
      "5"
    ],
    [
      "f",
      "u"
    ],
    [
      "ing",
      "."
    ],
    [
      "re",
      "ach"
    ],
    [
      "1",
      "1."
    ],
    [
      "ce",
      "ed"
    ],
    [
      "N",
      "ow"
    ],
    [
      "ch",
      "ain"
    ],
    [
      "ver",
      "age"
    ],
    [
      "pat",
      "tern"
    ],
    [
      "A",
      "N"
    ],
    [
      "subproblem",
      "s"
    ],
    [
      "g",
      "(n)"
    ],
    [
      "d",
      "s"
    ],
    [
      "a",
      "me"
    ],
    [
      "1",
      "4"
    ],
    [
      "in",
      "v"
    ],
    [
      "term",
      "s"
    ],
    [
      "p",
      "iv"
    ],
    [
      "piv",
      "ot"
    ],
    [
      "si",
      "tion"
    ],
    [
      "E",
      "X"
    ],
    [
      "d",
      "ig"
    ],
    [
      "(",
      "k"
    ],
    [
      "n",
      "er"
    ],
    [
      "d",
      "-"
    ],
    [
      "(a",
      ","
    ],
    [
      "exist",
      "s"
    ],
    [
      "MAT",
      "RI"
    ],
    [
      "g",
      "c"
    ],
    [
      "gc",
      "d"
    ],
    [
      "med",
      "i"
    ],
    [
      "jo",
      "int"
    ],
    [
      "a",
      "verage"
    ],
    [
      "(",
      "l"
    ],
    [
      "el",
      "se"
    ],
    [
      "analy",
      "ze"
    ],
    [
      "(",
      "H"
    ],
    [
      "j",
      ")"
    ],
    [
      "con",
      "t"
    ],
    [
      "comput",
      "ation"
    ],
    [
      "requi",
      "re"
    ],
    [
      "strate",
      "g"
    ],
    [
      "1",
      "6"
    ],
    [
      "Prob",
      "lem"
    ],
    [
      "yield",
      "s"
    ],
    [
      "ex",
      "per"
    ],
    [
      "multi",
      "ply"
    ],
    [
      "C",
      "or"
    ],
    [
      "pseudo",
      "code"
    ],
    [
      "F",
      "IN"
    ],
    [
      "-",
      "weight"
    ],
    [
      "t",
      "ed"
    ],
    [
      "se",
      "veral"
    ],
    [
      "of",
      "ten"
    ],
    [
      "Q",
      "U"
    ],
    [
      "b",
      ")"
    ],
    [
      "an",
      "g"
    ],
    [
      "inst",
      "ance"
    ],
    [
      "le",
      "tion"
    ],
    [
      "p",
      "rac"
    ],
    [
      "P",
      "L"
    ],
    [
      "l",
      "ight"
    ],
    [
      "ch",
      "ed"
    ],
    [
      "Z",
      "E"
    ],
    [
      "si",
      "mil"
    ],
    [
      "b",
      "u"
    ],
    [
      "h",
      "al"
    ],
    [
      "small",
      "est"
    ],
    [
      "let",
      "'s"
    ],
    [
      "M",
      "a"
    ],
    [
      "MATRI",
      "X-"
    ],
    [
      "sub",
      "graph"
    ],
    [
      "ap",
      "p"
    ],
    [
      "m",
      "ach"
    ],
    [
      "attribut",
      "e"
    ],
    [
      "spa",
      "ce"
    ],
    [
      "a",
      "v"
    ],
    [
      "ran",
      "ge"
    ],
    [
      "origin",
      "al"
    ],
    [
      "ex",
      "pres"
    ],
    [
      "x",
      "2"
    ],
    [
      "A",
      "k"
    ],
    [
      "v",
      "ity"
    ],
    [
      "fin",
      "ish"
    ],
    [
      "u",
      ")"
    ],
    [
      "V",
      "E"
    ],
    [
      "MA",
      "X-"
    ],
    [
      "f",
      "."
    ],
    [
      "c",
      "us"
    ],
    [
      "fu",
      "ll"
    ],
    [
      "in",
      "k"
    ],
    [
      "SE",
      "AR"
    ],
    [
      "SEAR",
      "CH"
    ],
    [
      "(",
      "k)"
    ],
    [
      "dis",
      "joint"
    ],
    [
      "spe",
      "c"
    ],
    [
      "mer",
      "ge"
    ],
    [
      "and",
      "-"
    ],
    [
      "con",
      "quer"
    ],
    [
      "b",
      "ution"
    ],
    [
      "function",
      "s"
    ],
    [
      "t",
      "on"
    ],
    [
      "simil",
      "ar"
    ],
    [
      "ro",
      "du"
    ],
    [
      "me",
      "ans"
    ],
    [
      "lea",
      "ves"
    ],
    [
      "I",
      "ZE"
    ],
    [
      "S",
      "H"
    ],
    [
      "=",
      "="
    ],
    [
      "S",
      "T-"
    ],
    [
      "M",
      "ore"
    ],
    [
      "g",
      "est"
    ],
    [
      "ti",
      "l"
    ],
    [
      "in",
      "variant"
    ],
    [
      "S",
      "A"
    ],
    [
      "M",
      "-"
    ],
    [
      "(",
      "t"
    ],
    [
      "re",
      "mo"
    ],
    [
      "DELE",
      "TE"
    ],
    [
      "ap",
      "plication"
    ],
    [
      "(",
      "A"
    ],
    [
      "langu",
      "age"
    ],
    [
      "e",
      "t"
    ],
    [
      "pair",
      "s"
    ],
    [
      "n",
      "2"
    ],
    [
      "C",
      ","
    ],
    [
      "formul",
      "a"
    ],
    [
      "max",
      "im"
    ],
    [
      "MU",
      "L"
    ],
    [
      "MUL",
      "TI"
    ],
    [
      "mem",
      "ory"
    ],
    [
      "un",
      "d"
    ],
    [
      "wr",
      "ite"
    ],
    [
      "con",
      "dition"
    ],
    [
      "int",
      ":"
    ],
    [
      "distri",
      "bution"
    ],
    [
      "variab",
      "les"
    ],
    [
      "non",
      "negative"
    ],
    [
      "g",
      "in"
    ],
    [
      "equival",
      "ent"
    ],
    [
      "ing",
      "s"
    ],
    [
      "s",
      "pl"
    ],
    [
      "b",
      "ase"
    ],
    [
      "T",
      "H"
    ],
    [
      "b",
      "read"
    ],
    [
      "v.",
      "d"
    ],
    [
      "J",
      "our"
    ],
    [
      "Jour",
      "nal"
    ],
    [
      "descri",
      "b"
    ],
    [
      "sy",
      "m"
    ],
    [
      "mo",
      "dif"
    ],
    [
      "medi",
      "ate"
    ],
    [
      "ill",
      "u"
    ],
    [
      "ad",
      "v"
    ],
    [
      "g",
      "ue"
    ],
    [
      "(H",
      "int:"
    ],
    [
      "produ",
      "ces"
    ],
    [
      "sup",
      "pose"
    ],
    [
      "0",
      ")"
    ],
    [
      "B",
      ","
    ],
    [
      "R",
      "B-"
    ],
    [
      "appear",
      "s"
    ],
    [
      "j",
      "."
    ],
    [
      "if",
      "ic"
    ],
    [
      "root",
      "ed"
    ],
    [
      "mat",
      "e"
    ],
    [
      "su",
      "mm"
    ],
    [
      "sti",
      "t"
    ],
    [
      "rel",
      "ax"
    ],
    [
      "ap",
      "s"
    ],
    [
      "L",
      "U"
    ],
    [
      "cost",
      "s"
    ],
    [
      "C",
      "T"
    ],
    [
      "pre",
      "fix"
    ],
    [
      "ct",
      "ing"
    ],
    [
      "SE",
      "LE"
    ],
    [
      "P",
      "O"
    ],
    [
      "/",
      "2"
    ],
    [
      "ne",
      "cess"
    ],
    [
      "re",
      "si"
    ],
    [
      "re",
      "pe"
    ],
    [
      "proper",
      "ties"
    ],
    [
      "f",
      "ree"
    ],
    [
      "un",
      "til"
    ],
    [
      "co",
      "ve"
    ],
    [
      "cove",
      "red"
    ],
    [
      "p",
      "i"
    ],
    [
      "s",
      "qu"
    ],
    [
      "c",
      "ity"
    ],
    [
      "l",
      "ast"
    ],
    [
      "comp",
      "are"
    ],
    [
      "rel",
      "ation"
    ],
    [
      "lo",
      "o"
    ],
    [
      "M",
      "IN"
    ],
    [
      "e",
      "ar"
    ],
    [
      "w",
      "n"
    ],
    [
      ")",
      ":"
    ],
    [
      "5",
      "-"
    ],
    [
      "Y",
      "-"
    ],
    [
      "s",
      "ched"
    ],
    [
      "A",
      "L"
    ],
    [
      "ta",
      "il"
    ],
    [
      "requi",
      "res"
    ],
    [
      "ur",
      "ing"
    ],
    [
      "des",
      "ign"
    ],
    [
      "D",
      "es"
    ],
    [
      "2",
      "6"
    ],
    [
      "IZE",
      "D-"
    ],
    [
      "1",
      "8"
    ],
    [
      "2",
      "2."
    ],
    [
      "adjac",
      "ency"
    ],
    [
      "to",
      "p"
    ],
    [
      "O(",
      "1)"
    ],
    [
      "w",
      "ant"
    ],
    [
      "mp",
      "tion"
    ],
    [
      "A",
      "i"
    ],
    [
      "pri",
      "m"
    ],
    [
      "cl",
      "ust"
    ],
    [
      "A[",
      "i]"
    ],
    [
      "(n",
      ")."
    ],
    [
      "be",
      "comes"
    ],
    [
      "provi",
      "des"
    ],
    [
      "O",
      "R"
    ],
    [
      "randomi",
      "zed"
    ],
    [
      "h",
      "i"
    ],
    [
      "L",
      "ine"
    ],
    [
      "am",
      "oun"
    ],
    [
      "ty",
      "p"
    ],
    [
      "l",
      "ic"
    ],
    [
      "L",
      "."
    ],
    [
      "i",
      "p"
    ],
    [
      "re",
      "st"
    ],
    [
      "co",
      "me"
    ],
    [
      "ans",
      "wer"
    ],
    [
      "comput",
      "es"
    ],
    [
      "charact",
      "ers"
    ],
    [
      "occur",
      "s"
    ],
    [
      "e",
      "valu"
    ],
    [
      "d",
      "ed"
    ],
    [
      "implement",
      "ation"
    ],
    [
      "dis",
      "cus"
    ],
    [
      "-",
      "and-"
    ],
    [
      "au",
      "to"
    ],
    [
      "up",
      "d"
    ],
    [
      "lem",
      "ma"
    ],
    [
      "con",
      "struct"
    ],
    [
      "lin",
      "ked"
    ],
    [
      "HE",
      "AP"
    ],
    [
      "assu",
      "mption"
    ],
    [
      "dig",
      "it"
    ],
    [
      "t",
      "."
    ],
    [
      "O",
      "n"
    ],
    [
      "of",
      "ess"
    ],
    [
      "2",
      "4"
    ],
    [
      "is",
      "m"
    ],
    [
      "bread",
      "th-first"
    ],
    [
      "(c",
      ")"
    ],
    [
      "che",
      "ck"
    ],
    [
      "of",
      "f"
    ],
    [
      "C",
      "OM"
    ],
    [
      "n",
      "u"
    ],
    [
      "sh",
      "if"
    ],
    [
      "2",
      "3"
    ],
    [
      "Cor",
      "ollary"
    ],
    [
      "as",
      "ing"
    ],
    [
      "com",
      "bin"
    ],
    [
      "sto",
      "red"
    ],
    [
      "2",
      "),"
    ],
    [
      "P",
      "ar"
    ],
    [
      "all",
      "ow"
    ],
    [
      "f",
      "our"
    ],
    [
      "asymptotic",
      "ally"
    ],
    [
      "x",
      "i"
    ],
    [
      "b",
      "al"
    ],
    [
      "T",
      "A"
    ],
    [
      "M",
      "ER"
    ],
    [
      "MER",
      "G"
    ],
    [
      "SE",
      "T"
    ],
    [
      "|",
      "E"
    ],
    [
      "1",
      "),"
    ],
    [
      "de",
      "let"
    ],
    [
      "y",
      ")"
    ],
    [
      "in",
      "stead"
    ],
    [
      "U",
      "C"
    ],
    [
      "algorithm",
      "s."
    ],
    [
      "ction",
      "s"
    ],
    [
      "n",
      "ess"
    ],
    [
      "ac",
      "cess"
    ],
    [
      "attribut",
      "es"
    ],
    [
      "(",
      "lg"
    ],
    [
      "U",
      "sing"
    ],
    [
      "tech",
      "ni"
    ],
    [
      "{",
      "0,"
    ],
    [
      "ra",
      "ther"
    ],
    [
      "actu",
      "al"
    ],
    [
      "gre",
      "ater"
    ],
    [
      "m",
      ")"
    ],
    [
      "be",
      "gin"
    ],
    [
      "ry",
      "p"
    ],
    [
      "st",
      "u"
    ],
    [
      "19",
      "."
    ],
    [
      "u",
      "su"
    ],
    [
      "p",
      "le"
    ],
    [
      "9",
      ","
    ],
    [
      "p",
      "ow"
    ],
    [
      "it",
      "u"
    ],
    [
      "th",
      "ose"
    ],
    [
      "fe",
      "ct"
    ],
    [
      "r",
      ")"
    ],
    [
      "capa",
      "city"
    ],
    [
      "si",
      "z"
    ],
    [
      "H",
      "e"
    ],
    [
      "es",
      "e"
    ],
    [
      "fast",
      "er"
    ],
    [
      "ar",
      "bit"
    ],
    [
      "arbit",
      "r"
    ],
    [
      "cl",
      "ass"
    ],
    [
      "cho",
      "sen"
    ],
    [
      "Ar",
      "gue"
    ],
    [
      "ct",
      "ly"
    ],
    [
      "equal",
      "s"
    ],
    [
      "satisfi",
      "es"
    ],
    [
      "SELE",
      "CT"
    ],
    [
      "FIN",
      "D-"
    ],
    [
      "consist",
      "s"
    ],
    [
      "al",
      "ong"
    ],
    [
      "c",
      "ard"
    ],
    [
      "ofess",
      "or"
    ],
    [
      "d",
      "a"
    ],
    [
      "le",
      "af"
    ],
    [
      "f",
      ","
    ],
    [
      "di",
      "ent"
    ],
    [
      "co",
      "efficient"
    ],
    [
      "P",
      "."
    ],
    [
      "n",
      "]"
    ],
    [
      "de",
      "cess"
    ],
    [
      "sol",
      "ving"
    ],
    [
      "D",
      "."
    ],
    [
      "auto",
      "mat"
    ],
    [
      "1",
      "4."
    ],
    [
      "V",
      "."
    ],
    [
      "20",
      "0"
    ],
    [
      "di",
      "men"
    ],
    [
      "dimen",
      "sion"
    ],
    [
      "b",
      "ot"
    ],
    [
      "he",
      "re"
    ],
    [
      "diffe",
      "rence"
    ],
    [
      "assign",
      "ment"
    ],
    [
      "solution",
      "s"
    ],
    [
      "compo",
      "sition"
    ],
    [
      "s",
      "s"
    ],
    [
      "shortest-",
      "path"
    ],
    [
      "-",
      "notation"
    ],
    [
      "PA",
      "RT"
    ],
    [
      "PART",
      "I"
    ],
    [
      "um",
      "ent"
    ],
    [
      "pre",
      "decess"
    ],
    [
      "enti",
      "re"
    ],
    [
      "iz",
      "es"
    ],
    [
      "W",
      "ith"
    ],
    [
      "divide",
      "-and-"
    ],
    [
      "3",
      "2."
    ],
    [
      "er",
      ","
    ],
    [
      "u",
      "bl"
    ],
    [
      "f",
      "ter"
    ],
    [
      "ro",
      "t"
    ],
    [
      "2",
      "4."
    ],
    [
      "acti",
      "vity"
    ],
    [
      "parti",
      "te"
    ],
    [
      "st",
      "able"
    ],
    [
      "ton",
      "ian"
    ],
    [
      "(x",
      ","
    ],
    [
      "-",
      "heap"
    ],
    [
      "ti",
      "ce"
    ],
    [
      "go",
      "al"
    ],
    [
      "mach",
      "ine"
    ],
    [
      "c",
      "ases"
    ],
    [
      "2",
      ")."
    ],
    [
      "squ",
      "are"
    ],
    [
      "lo",
      "y"
    ],
    [
      "ha",
      "mil"
    ],
    [
      "hamil",
      "tonian"
    ],
    [
      "arra",
      "ys"
    ],
    [
      "to",
      "m"
    ],
    [
      "(",
      "S,"
    ],
    [
      "b",
      "its"
    ],
    [
      "work",
      "s"
    ],
    [
      "addition",
      "al"
    ],
    [
      "ve",
      "lo"
    ],
    [
      "res",
      "pe"
    ],
    [
      "up",
      "on"
    ],
    [
      "wise",
      ","
    ],
    [
      "input",
      "s"
    ],
    [
      "c",
      "ryp"
    ],
    [
      "A",
      "fter"
    ],
    [
      "1",
      "5."
    ],
    [
      "-",
      "programming"
    ],
    [
      "|E",
      "|"
    ],
    [
      "bi",
      "partite"
    ],
    [
      "T",
      "O"
    ],
    [
      "amoun",
      "t"
    ],
    [
      "g",
      "ive"
    ],
    [
      "we",
      "re"
    ],
    [
      "D",
      "e"
    ],
    [
      "M",
      "."
    ],
    [
      "slo",
      "t"
    ],
    [
      "ur",
      "ther"
    ],
    [
      "uni",
      "que"
    ],
    [
      "S",
      "o"
    ],
    [
      "ap",
      "ply"
    ],
    [
      "bound",
      "s"
    ],
    [
      "s",
      "w"
    ],
    [
      "prior",
      "ity"
    ],
    [
      "T",
      "E-"
    ],
    [
      "sym",
      "metric"
    ],
    [
      "le",
      "an"
    ],
    [
      "int",
      "rodu"
    ],
    [
      "divide-and-",
      "conquer"
    ],
    [
      "quick",
      "sort"
    ],
    [
      "comp",
      "lex"
    ],
    [
      "clust",
      "er"
    ],
    [
      "r",
      "."
    ],
    [
      "2",
      "]"
    ],
    [
      "dep",
      "th"
    ],
    [
      "recur",
      "rences"
    ],
    [
      "S",
      "C"
    ],
    [
      "PARTI",
      "TION"
    ],
    [
      "simp",
      "l"
    ],
    [
      "ar",
      "g"
    ],
    [
      "E",
      ","
    ],
    [
      "An",
      "al"
    ],
    [
      "vi",
      "ous"
    ],
    [
      "depend",
      "s"
    ],
    [
      "ag",
      "ain"
    ],
    [
      "small",
      "er"
    ],
    [
      "approx",
      "i"
    ],
    [
      "di",
      "vis"
    ],
    [
      "resul",
      "ts"
    ],
    [
      "(",
      "i)"
    ],
    [
      "str",
      "and"
    ],
    [
      "it",
      "sel"
    ],
    [
      "de",
      "letion"
    ],
    [
      "2",
      "5."
    ],
    [
      "2",
      "8"
    ],
    [
      "d",
      "uring"
    ],
    [
      "he",
      "l"
    ],
    [
      "hold",
      "s"
    ],
    [
      "uni",
      "form"
    ],
    [
      "exa",
      "min"
    ],
    [
      "con",
      "ven"
    ],
    [
      "comput",
      "ed"
    ],
    [
      "V",
      "E-"
    ],
    [
      "RANDOM",
      "IZED-"
    ],
    [
      "T",
      ")"
    ],
    [
      "3",
      "0"
    ],
    [
      "ap",
      "pl"
    ],
    [
      "reach",
      "able"
    ],
    [
      "comp",
      "e"
    ],
    [
      "M",
      "O"
    ],
    [
      "graph",
      ","
    ],
    [
      "h",
      "ard"
    ],
    [
      "fore",
      "st"
    ],
    [
      "ar",
      "ri"
    ],
    [
      "wh",
      "o"
    ],
    [
      "ari",
      "ly"
    ],
    [
      "b",
      "ly"
    ],
    [
      "there",
      "fore"
    ],
    [
      "lar",
      "ger"
    ],
    [
      "f",
      "li"
    ],
    [
      "expe",
      "ct"
    ],
    [
      "s",
      "ed"
    ],
    [
      "Then",
      ","
    ],
    [
      "A",
      "d"
    ],
    [
      "ma",
      "de"
    ],
    [
      "R",
      "."
    ],
    [
      "spl",
      "it"
    ],
    [
      "(n",
      "2)"
    ],
    [
      "6",
      "]"
    ],
    [
      "ge",
      "ther"
    ],
    [
      "exe",
      "c"
    ],
    [
      "exec",
      "ution"
    ],
    [
      "h",
      "y"
    ],
    [
      "in",
      "verse"
    ],
    [
      "cep",
      "t"
    ],
    [
      "satis",
      "fy"
    ],
    [
      "equ",
      "ality"
    ],
    [
      "inter",
      "nal"
    ],
    [
      "x",
      "1"
    ],
    [
      "over",
      "l"
    ],
    [
      "RE",
      "CU"
    ],
    [
      "RECU",
      "R"
    ],
    [
      "RECUR",
      "SI"
    ],
    [
      "st",
      "er"
    ],
    [
      "on",
      "line"
    ],
    [
      "O(",
      "V"
    ],
    [
      "parallel",
      "ism"
    ],
    [
      "predecess",
      "or"
    ],
    [
      "f",
      "ound"
    ],
    [
      "illu",
      "str"
    ],
    [
      "A",
      "t"
    ],
    [
      "qu",
      "es"
    ],
    [
      "in",
      "stru"
    ],
    [
      "2",
      "9"
    ],
    [
      "en",
      "co"
    ],
    [
      "e",
      "vi"
    ],
    [
      "dis",
      "covered"
    ],
    [
      "ti",
      "tive"
    ],
    [
      "graph",
      "."
    ],
    [
      "un",
      "it"
    ],
    [
      "(",
      "2)"
    ],
    [
      "incre",
      "ases"
    ],
    [
      "PA",
      "TH"
    ],
    [
      "19",
      "8"
    ],
    [
      "-",
      "rank"
    ],
    [
      "(",
      "v"
    ],
    [
      "r",
      "]"
    ],
    [
      "P",
      "U"
    ],
    [
      "S",
      "T"
    ],
    [
      "U",
      "se"
    ],
    [
      "velo",
      "p"
    ],
    [
      "ation",
      ","
    ],
    [
      "block",
      "s"
    ],
    [
      "su",
      "r"
    ],
    [
      "d",
      "ue"
    ],
    [
      "10",
      "0"
    ],
    [
      "de",
      "composition"
    ],
    [
      "paren",
      "the"
    ],
    [
      "arg",
      "ument"
    ],
    [
      "1",
      ")."
    ],
    [
      "pr",
      "int"
    ],
    [
      "or",
      "d"
    ],
    [
      "dist",
      "ance"
    ],
    [
      "id",
      "enti"
    ],
    [
      "for",
      "ward"
    ],
    [
      "resul",
      "ting"
    ],
    [
      "p",
      "ass"
    ],
    [
      "MULTI",
      "PL"
    ],
    [
      "gra",
      "dient"
    ],
    [
      "L",
      "i"
    ],
    [
      "to",
      "gether"
    ],
    [
      "bas",
      "ic"
    ],
    [
      "Des",
      "cri"
    ],
    [
      "cho",
      "o"
    ],
    [
      "bet",
      "ter"
    ],
    [
      "inclu",
      "ding"
    ],
    [
      "equ",
      "ations"
    ],
    [
      "ation",
      "."
    ],
    [
      "cont",
      "in"
    ],
    [
      "f",
      "re"
    ],
    [
      "so",
      "ci"
    ],
    [
      "lar",
      "gest"
    ],
    [
      "J",
      "o"
    ],
    [
      "compe",
      "titive"
    ],
    [
      "and",
      "id"
    ],
    [
      "sub",
      "string"
    ],
    [
      "t",
      "as"
    ],
    [
      "N",
      "F"
    ],
    [
      "redu",
      "ction"
    ],
    [
      "po",
      "ch"
    ],
    [
      "add",
      "res"
    ],
    [
      "d",
      ")"
    ],
    [
      "in",
      "es"
    ],
    [
      "lo",
      "ad"
    ],
    [
      "er",
      "r"
    ],
    [
      "su",
      "re"
    ],
    [
      "boo",
      "lean"
    ],
    [
      "x",
      "'s"
    ],
    [
      "clu",
      "de"
    ],
    [
      "Descri",
      "be"
    ],
    [
      "approxi",
      "mate"
    ],
    [
      "hal",
      "f"
    ],
    [
      "(",
      "r"
    ],
    [
      "con",
      "ver"
    ],
    [
      "in",
      "ci"
    ],
    [
      "1",
      "3."
    ],
    [
      "d",
      "ri"
    ],
    [
      "EN",
      "T"
    ],
    [
      "le",
      "ar"
    ],
    [
      "ma",
      "ster"
    ],
    [
      "that",
      ","
    ],
    [
      "on",
      "'t"
    ],
    [
      "imp",
      "ort"
    ],
    [
      "mem",
      "ber"
    ],
    [
      "sub",
      "stit"
    ],
    [
      "c",
      "andid"
    ],
    [
      "obje",
      "ctive"
    ],
    [
      "L",
      ","
    ],
    [
      "find",
      "s"
    ],
    [
      "ne",
      "ver"
    ],
    [
      "O",
      "(n)"
    ],
    [
      "[",
      "i]"
    ],
    [
      "D",
      "I"
    ],
    [
      "cis",
      "e"
    ],
    [
      "en",
      "ces"
    ],
    [
      "IN",
      "G"
    ],
    [
      "c",
      ","
    ],
    [
      "coun",
      "ter"
    ],
    [
      "strateg",
      "y"
    ],
    [
      "u",
      "le"
    ],
    [
      "I",
      "C"
    ],
    [
      "trans",
      "form"
    ],
    [
      "optim",
      "ization"
    ],
    [
      "2",
      "n"
    ],
    [
      "labe",
      "l"
    ],
    [
      "ur",
      "al"
    ],
    [
      "edges",
      "."
    ],
    [
      "cla",
      "use"
    ],
    [
      "C",
      "RE"
    ],
    [
      "-",
      "K"
    ],
    [
      "str",
      "ong"
    ],
    [
      "state",
      "ment"
    ],
    [
      "M-",
      "augmenting"
    ],
    [
      "C",
      "NF"
    ],
    [
      "e",
      "poch"
    ],
    [
      "bot",
      "tom"
    ],
    [
      "adv",
      "an"
    ],
    [
      "ll",
      "man"
    ],
    [
      "5",
      ")"
    ],
    [
      "pow",
      "er"
    ],
    [
      "19",
      "7"
    ],
    [
      "d",
      "ent"
    ],
    [
      "5",
      "]"
    ],
    [
      "F",
      "FT"
    ],
    [
      "process",
      "or"
    ],
    [
      "match",
      "ed"
    ],
    [
      "1",
      "-"
    ],
    [
      "boo",
      "k"
    ],
    [
      "actu",
      "ally"
    ],
    [
      "multi",
      "ple"
    ],
    [
      "st",
      "or"
    ],
    [
      "ent",
      "ri"
    ],
    [
      "A[",
      "1"
    ],
    [
      "n",
      "il"
    ],
    [
      "plic",
      "ations"
    ],
    [
      "co",
      "p"
    ],
    [
      "T-",
      "RO"
    ],
    [
      "ence",
      ","
    ],
    [
      "weight",
      "ed"
    ],
    [
      "p",
      "ha"
    ],
    [
      "b",
      "all"
    ],
    [
      "order",
      "."
    ],
    [
      "sti",
      "ll"
    ],
    [
      "P",
      ","
    ],
    [
      "x.",
      "key"
    ],
    [
      "remain",
      "der"
    ],
    [
      "su",
      "me"
    ],
    [
      "de",
      "velop"
    ],
    [
      "perform",
      "s"
    ],
    [
      "S",
      "-"
    ],
    [
      "s",
      "itu"
    ],
    [
      "p",
      "ubl"
    ],
    [
      "re",
      "ak"
    ],
    [
      "vi",
      "ol"
    ],
    [
      "i",
      "b"
    ],
    [
      "tri",
      "ang"
    ],
    [
      "acti",
      "vi"
    ],
    [
      "dis",
      "k"
    ],
    [
      "resi",
      "dual"
    ],
    [
      "B",
      "ut"
    ],
    [
      "3",
      "),"
    ],
    [
      "represent",
      "ed"
    ],
    [
      "R",
      "o"
    ],
    [
      "O",
      "ther"
    ],
    [
      "ro",
      "ut"
    ],
    [
      "as",
      "on"
    ],
    [
      "import",
      "ant"
    ],
    [
      "w",
      "ish"
    ],
    [
      "p",
      ")"
    ],
    [
      "ct",
      "ure"
    ],
    [
      "solution",
      "."
    ],
    [
      "Comput",
      "er"
    ],
    [
      "pa",
      "ges"
    ],
    [
      "E",
      "),"
    ],
    [
      "n",
      "0"
    ],
    [
      "1]",
      ","
    ],
    [
      "m",
      "."
    ],
    [
      "belong",
      "s"
    ],
    [
      "f",
      "ra"
    ],
    [
      "it",
      "."
    ],
    [
      "as",
      "soci"
    ],
    [
      "z",
      "'s"
    ],
    [
      "chan",
      "g"
    ],
    [
      "B",
      "L"
    ],
    [
      "g",
      "ate"
    ],
    [
      "A",
      "U"
    ],
    [
      "ac",
      "y"
    ],
    [
      "(",
      "f"
    ],
    [
      "C",
      "S,"
    ],
    [
      "1",
      "1,"
    ],
    [
      "a",
      "ro"
    ],
    [
      "follow",
      "s"
    ],
    [
      "U",
      "NI"
    ],
    [
      "UNI",
      "ON"
    ],
    [
      "over",
      ","
    ],
    [
      "ha",
      "ving"
    ],
    [
      "c",
      "r"
    ],
    [
      "prac",
      "tice"
    ],
    [
      "3",
      "4"
    ],
    [
      "f",
      "requ"
    ],
    [
      "item",
      "s"
    ],
    [
      "MATRIX-",
      "MULTIPL"
    ],
    [
      "co",
      "in"
    ],
    [
      "shortest-",
      "paths"
    ],
    [
      "partition",
      "ing"
    ],
    [
      "star",
      "ting"
    ],
    [
      "lo",
      "c"
    ],
    [
      "usu",
      "ally"
    ],
    [
      "n",
      "or"
    ],
    [
      "{",
      "1,"
    ],
    [
      "ta",
      "king"
    ],
    [
      "pl",
      "ac"
    ],
    [
      "v",
      ")."
    ],
    [
      "arbitr",
      "ary"
    ],
    [
      "re",
      "ason"
    ],
    [
      "simp",
      "ly"
    ],
    [
      "produ",
      "ce"
    ],
    [
      "er",
      "o"
    ],
    [
      "l",
      "iter"
    ],
    [
      "a",
      "i"
    ],
    [
      "under",
      "stand"
    ],
    [
      "T",
      "ar"
    ],
    [
      "j",
      "an"
    ],
    [
      "per",
      "son"
    ],
    [
      "(n",
      "),"
    ],
    [
      "tri",
      "al"
    ],
    [
      "automat",
      "on"
    ],
    [
      "MAX-",
      "HEAP"
    ],
    [
      "10",
      "."
    ],
    [
      "obje",
      "cts"
    ],
    [
      "Th",
      "ese"
    ],
    [
      "d",
      "ou"
    ],
    [
      "inser",
      "t"
    ],
    [
      "i",
      "ch"
    ],
    [
      "C",
      "T-"
    ],
    [
      "position",
      "s"
    ],
    [
      "ma",
      "themat"
    ],
    [
      "hash",
      "ing"
    ],
    [
      "d",
      "ra"
    ],
    [
      "ci",
      "al"
    ],
    [
      "O",
      "ne"
    ],
    [
      "q",
      ","
    ],
    [
      "pre",
      "cise"
    ],
    [
      "po",
      "the"
    ],
    [
      "7",
      "]"
    ],
    [
      "or",
      ","
    ],
    [
      "indu",
      "ctive"
    ],
    [
      "step",
      "s"
    ],
    [
      "to",
      "ur"
    ],
    [
      "3",
      "5."
    ],
    [
      "(",
      "V"
    ],
    [
      "negative",
      "-weight"
    ],
    [
      "T[",
      ":"
    ],
    [
      "entri",
      "es"
    ],
    [
      "s",
      "che"
    ],
    [
      "-",
      "bit"
    ],
    [
      "3",
      "6"
    ],
    [
      "rel",
      "ative"
    ],
    [
      "cur",
      "rent"
    ],
    [
      "As",
      "sume"
    ],
    [
      "random",
      "ly"
    ],
    [
      "hy",
      "pothe"
    ],
    [
      "at",
      "ure"
    ],
    [
      "incre",
      "asing"
    ],
    [
      "s",
      "cal"
    ],
    [
      "e",
      ","
    ],
    [
      "S",
      "U"
    ],
    [
      "med",
      "ian"
    ],
    [
      "(",
      "v,"
    ],
    [
      "u.",
      "d"
    ],
    [
      "FI",
      "B"
    ],
    [
      "element",
      "s."
    ],
    [
      "7",
      ")"
    ],
    [
      "s",
      "ent"
    ],
    [
      "iter",
      "ations"
    ],
    [
      "d",
      "iction"
    ],
    [
      "word",
      "s,"
    ],
    [
      "m",
      "ing"
    ],
    [
      "z",
      "ero"
    ],
    [
      "pp",
      "ing"
    ],
    [
      "So",
      "me"
    ],
    [
      "cl",
      "ic"
    ],
    [
      "e",
      "le"
    ],
    [
      "incre",
      "ase"
    ],
    [
      "-",
      "bound"
    ],
    [
      "spa",
      "wn"
    ],
    [
      "1",
      "0,"
    ],
    [
      "1",
      "2,"
    ],
    [
      "there",
      "fore,"
    ],
    [
      "More",
      "over,"
    ],
    [
      "-",
      "2"
    ],
    [
      "hel",
      "p"
    ],
    [
      "9",
      "]"
    ],
    [
      "p",
      "or"
    ],
    [
      "(",
      "T,"
    ],
    [
      "1",
      "}"
    ],
    [
      "requi",
      "red"
    ],
    [
      "e",
      "p"
    ],
    [
      "3",
      "2"
    ],
    [
      "chan",
      "ges"
    ],
    [
      "exp",
      "lo"
    ],
    [
      "(",
      "the"
    ],
    [
      "cer",
      "tain"
    ],
    [
      "defin",
      "ite"
    ],
    [
      "MERG",
      "E-"
    ],
    [
      "maximum",
      "-"
    ],
    [
      "w",
      "i"
    ],
    [
      "request",
      "s"
    ],
    [
      "B-",
      "tree"
    ],
    [
      "(t",
      ")"
    ],
    [
      "star",
      "ts"
    ],
    [
      "(",
      "i"
    ],
    [
      "He",
      "re"
    ],
    [
      "end",
      "s"
    ],
    [
      "list",
      "s"
    ],
    [
      "-",
      "set"
    ],
    [
      "In",
      "stead"
    ],
    [
      "3",
      "]"
    ],
    [
      "vis",
      "it"
    ],
    [
      "Tar",
      "jan"
    ],
    [
      "c",
      "ul"
    ],
    [
      "F",
      "R"
    ],
    [
      "c",
      "as"
    ],
    [
      "typ",
      "ically"
    ],
    [
      "row",
      "s"
    ],
    [
      "[",
      "i"
    ],
    [
      "some",
      "times"
    ],
    [
      "im",
      "mediate"
    ],
    [
      "on",
      "al"
    ],
    [
      "wh",
      "y"
    ],
    [
      "repe",
      "ated"
    ],
    [
      "prob",
      "abil"
    ],
    [
      "iti",
      "es"
    ],
    [
      "ar",
      "k"
    ],
    [
      "coun",
      "ting"
    ],
    [
      "F",
      "in"
    ],
    [
      "QU",
      "IC"
    ],
    [
      "QUIC",
      "K"
    ],
    [
      "QUICK",
      "SORT"
    ],
    [
      "ser",
      "ies"
    ],
    [
      "n",
      "),"
    ],
    [
      "problem",
      "s."
    ],
    [
      "enco",
      "ding"
    ],
    [
      "fre",
      "q"
    ],
    [
      "I",
      "L"
    ],
    [
      "mat",
      "ter"
    ],
    [
      "array",
      "."
    ],
    [
      "I",
      "MU"
    ],
    [
      "spe",
      "cial"
    ],
    [
      "like",
      "ly"
    ],
    [
      "l",
      "im"
    ],
    [
      "l",
      "ater"
    ],
    [
      "x",
      "1,"
    ],
    [
      "h",
      "n"
    ],
    [
      "graph",
      "s"
    ],
    [
      "multiply",
      "ing"
    ],
    [
      "process",
      "ing"
    ],
    [
      "S",
      "h"
    ],
    [
      "sched",
      "ul"
    ],
    [
      "S",
      "tr"
    ],
    [
      "Ma",
      "themat"
    ],
    [
      "3",
      "3."
    ],
    [
      "necess",
      "arily"
    ],
    [
      "sa",
      "mple"
    ],
    [
      "loo",
      "k"
    ],
    [
      "k",
      "]"
    ],
    [
      "situ",
      "ation"
    ],
    [
      "m",
      "ine"
    ],
    [
      "follow",
      "s."
    ],
    [
      "3",
      "5"
    ],
    [
      "iz",
      "ed"
    ],
    [
      "di",
      "x"
    ],
    [
      "substit",
      "ution"
    ],
    [
      "cla",
      "im"
    ],
    [
      "comparison",
      "s"
    ],
    [
      "h",
      ","
    ],
    [
      "sub",
      "structure"
    ],
    [
      "sort",
      ","
    ],
    [
      "lear",
      "ning"
    ],
    [
      "operation",
      "s."
    ],
    [
      "provi",
      "de"
    ],
    [
      "sequ",
      "ent"
    ],
    [
      "E",
      "S"
    ],
    [
      "se",
      ","
    ],
    [
      "S",
      "t"
    ],
    [
      "e",
      "as"
    ],
    [
      "en",
      "ough"
    ],
    [
      "an",
      "ced"
    ],
    [
      "A",
      "2"
    ],
    [
      "4",
      "]"
    ],
    [
      "indu",
      "ction"
    ],
    [
      "de",
      "red"
    ],
    [
      "f",
      "ers"
    ],
    [
      "FIND-",
      "SET"
    ],
    [
      "reg",
      "ion"
    ],
    [
      "satisfi",
      "ability"
    ],
    [
      "R",
      "U"
    ],
    [
      "correspon",
      "ds"
    ],
    [
      "remain",
      "ing"
    ],
    [
      "in",
      "ary"
    ],
    [
      "advan",
      "ta"
    ],
    [
      "MA",
      "K"
    ],
    [
      "K",
      "nu"
    ],
    [
      "iz",
      "ing"
    ],
    [
      "ta",
      "bl"
    ],
    [
      "ide",
      "a"
    ],
    [
      "mes",
      "sa"
    ],
    [
      "r",
      ","
    ],
    [
      "or",
      "dered"
    ],
    [
      "ob",
      "ser"
    ],
    [
      "tim",
      "es,"
    ],
    [
      "pla",
      "y"
    ],
    [
      "mon",
      "ot"
    ],
    [
      "Algorithm",
      "s"
    ],
    [
      "MAT",
      "CH"
    ],
    [
      "g",
      "ad"
    ],
    [
      "order",
      ","
    ],
    [
      "pl",
      "ain"
    ],
    [
      "ame",
      "ter"
    ],
    [
      "ant",
      "e"
    ],
    [
      "max",
      "-heap"
    ],
    [
      "an",
      "ti"
    ],
    [
      "ver",
      "ify"
    ],
    [
      "inclu",
      "des"
    ],
    [
      "1",
      "2."
    ],
    [
      "ac",
      "ci"
    ],
    [
      "de",
      "ci"
    ],
    [
      "2",
      "3."
    ],
    [
      "on",
      "ically"
    ],
    [
      "comp",
      "res"
    ],
    [
      "ij",
      "k"
    ],
    [
      "RT",
      "E"
    ],
    [
      "gcd",
      "(a,"
    ],
    [
      "UC",
      "LI"
    ],
    [
      "S",
      "ci"
    ],
    [
      "fa",
      "il"
    ],
    [
      "sto",
      "re"
    ],
    [
      "su",
      "pp"
    ],
    [
      "supp",
      "ort"
    ],
    [
      "th",
      "ink"
    ],
    [
      "represent",
      "s"
    ],
    [
      "gu",
      "ar"
    ],
    [
      "guar",
      "ante"
    ],
    [
      "cor",
      "ding"
    ],
    [
      "root",
      ","
    ],
    [
      "MAK",
      "E-"
    ],
    [
      "rel",
      "ated"
    ],
    [
      "no",
      "tion"
    ],
    [
      "tre",
      "es."
    ],
    [
      "be",
      "ha"
    ],
    [
      "assu",
      "ming"
    ],
    [
      "shif",
      "t"
    ],
    [
      "u",
      "ally"
    ],
    [
      "A",
      "p"
    ],
    [
      "f",
      "igure"
    ],
    [
      "c",
      "end"
    ],
    [
      "hypothe",
      "s"
    ],
    [
      "on",
      "acci"
    ],
    [
      "summ",
      "ation"
    ],
    [
      "LC",
      "S"
    ],
    [
      "-",
      "s"
    ],
    [
      "mis",
      "s"
    ],
    [
      "activi",
      "ties"
    ],
    [
      "head",
      "s"
    ],
    [
      "vertices",
      "."
    ],
    [
      "Jo",
      "hn"
    ],
    [
      "E",
      "UCLI"
    ],
    [
      "S",
      "im"
    ],
    [
      "modif",
      "y"
    ],
    [
      "S",
      "u"
    ],
    [
      "determin",
      "istic"
    ],
    [
      "(3",
      "1."
    ],
    [
      "mo",
      "ves"
    ],
    [
      "0",
      "]"
    ],
    [
      "w",
      "al"
    ],
    [
      "recursive",
      "ly"
    ],
    [
      "show",
      "ing"
    ],
    [
      "FI",
      "X"
    ],
    [
      "Th",
      "us"
    ],
    [
      "ro",
      "d"
    ],
    [
      "monot",
      "onically"
    ],
    [
      "operation",
      "s,"
    ],
    [
      "ut",
      "ure"
    ],
    [
      "D",
      "ijk"
    ],
    [
      "Dijk",
      "stra"
    ],
    [
      "ation",
      "al"
    ],
    [
      "publ",
      "ic"
    ],
    [
      "que",
      "u"
    ],
    [
      "1",
      "7."
    ],
    [
      "x",
      ")"
    ],
    [
      "h",
      "."
    ],
    [
      "L",
      "ines"
    ],
    [
      "ach",
      "i"
    ],
    [
      "CH",
      "A"
    ],
    [
      "CHA",
      "IN"
    ],
    [
      "f",
      "urther"
    ],
    [
      "coun",
      "t"
    ],
    [
      "app",
      "en"
    ],
    [
      "Pr",
      "ofessor"
    ],
    [
      "lim",
      "it"
    ],
    [
      "F",
      "irst"
    ],
    [
      "contin",
      "u"
    ],
    [
      "ment",
      "s"
    ],
    [
      "8",
      "]"
    ],
    [
      "FIX",
      "U"
    ],
    [
      "appl",
      "ies"
    ],
    [
      "C",
      "O"
    ],
    [
      "F",
      "ib"
    ],
    [
      "Fib",
      "onacci"
    ],
    [
      "expres",
      "sion"
    ],
    [
      "n",
      "at"
    ],
    [
      "co",
      "re"
    ],
    [
      "f",
      "uture"
    ],
    [
      "2",
      "1."
    ],
    [
      "strong",
      "ly"
    ],
    [
      "3",
      "0."
    ],
    [
      "w",
      "om"
    ],
    [
      "des",
      "cent"
    ],
    [
      "EUCLI",
      "D"
    ],
    [
      "s",
      ")"
    ],
    [
      "U",
      "n"
    ],
    [
      "list",
      "."
    ],
    [
      "pre",
      "vious"
    ],
    [
      "ine",
      "l"
    ],
    [
      "N",
      "o"
    ],
    [
      "2-",
      "3"
    ],
    [
      "(",
      "C."
    ],
    [
      "present",
      "s"
    ],
    [
      "it",
      "ch"
    ],
    [
      "assu",
      "mes"
    ],
    [
      "exa",
      "mine"
    ],
    [
      "1",
      ":"
    ],
    [
      "k",
      "en"
    ],
    [
      "R",
      ","
    ],
    [
      "termin",
      "at"
    ],
    [
      "ex",
      "pon"
    ],
    [
      "con",
      "ve"
    ],
    [
      "p",
      "red"
    ],
    [
      "3-",
      "CNF"
    ],
    [
      "(n/",
      "2)"
    ],
    [
      "(2",
      "9."
    ],
    [
      "1",
      "g"
    ],
    [
      "MATCH",
      "ER"
    ],
    [
      "[",
      "q]"
    ],
    [
      "3",
      "4.1"
    ],
    [
      "a",
      "ges"
    ],
    [
      "go",
      "es"
    ],
    [
      "inclu",
      "de"
    ],
    [
      "c",
      "our"
    ],
    [
      "al",
      "though"
    ],
    [
      "od",
      "d"
    ],
    [
      "Se",
      "e"
    ],
    [
      "sequ",
      "ences"
    ],
    [
      "N",
      "ot"
    ],
    [
      "ers",
      "on"
    ],
    [
      "des",
      "cend"
    ],
    [
      "inci",
      "dent"
    ],
    [
      "cal",
      "cul"
    ],
    [
      "atis",
      "tic"
    ],
    [
      "problem",
      "s,"
    ],
    [
      "Dijkstra",
      "'s"
    ],
    [
      "w",
      "(u,"
    ],
    [
      "ti",
      "fic"
    ],
    [
      "|",
      "M"
    ],
    [
      "vertex",
      "-"
    ],
    [
      "comp",
      "lement"
    ],
    [
      "pred",
      "iction"
    ],
    [
      "RECURSI",
      "VE"
    ],
    [
      "positive",
      "-"
    ],
    [
      "M",
      "o"
    ],
    [
      "Sim",
      "il"
    ],
    [
      "Simil",
      "ar"
    ],
    [
      "return",
      "ed"
    ],
    [
      "err",
      "or"
    ],
    [
      "aro",
      "und"
    ],
    [
      "par",
      "ameter"
    ],
    [
      "2",
      "-1"
    ],
    [
      "sent",
      "inel"
    ],
    [
      "sign",
      "ific"
    ],
    [
      "need",
      "ed"
    ],
    [
      "sche",
      "me"
    ],
    [
      "s",
      "k"
    ],
    [
      "z",
      "ing"
    ],
    [
      "A",
      "ll"
    ],
    [
      "choo",
      "sing"
    ],
    [
      "fa",
      "mi"
    ],
    [
      "(",
      "by"
    ],
    [
      "ir",
      "ing"
    ],
    [
      "c",
      "ing"
    ],
    [
      "y",
      "'s"
    ],
    [
      "h",
      "ad"
    ],
    [
      "con",
      "clude"
    ],
    [
      "bal",
      "anced"
    ],
    [
      "T.",
      "nil"
    ],
    [
      "root",
      "s"
    ],
    [
      "acy",
      "clic"
    ],
    [
      "tra",
      "vel"
    ],
    [
      "I",
      "T"
    ],
    [
      "ad",
      "ding"
    ],
    [
      "constraint",
      "s"
    ],
    [
      "A",
      "x"
    ],
    [
      "ON",
      "-"
    ],
    [
      "exper",
      "t"
    ],
    [
      "A[",
      "q"
    ],
    [
      "M",
      "at"
    ],
    [
      "immediate",
      "ly"
    ],
    [
      "signific",
      "ant"
    ],
    [
      "advanta",
[...]
