{
  "token_to_id": {
    "<PAD>": 0,
    "<UNK>": 1,
    "<BOS>": 2,
    "<EOS>": 3,
    "\n": 4,
    " ": 5,
    "!": 6,
    "\"": 7,
    "\"\"": 8,
    "\")": 9,
    "\").": 10,
    "\"no": 11,
    "\"s": 12,
    "\"the": 13,
    "$": 14,
    "$1": 15,
    "%": 16,
    "&": 17,
    "'": 18,
    "'d": 19,
    "'ll": 20,
    "'re": 21,
    "'s": 22,
    "'t": 23,
    "'ve": 24,
    "(": 25,
    "(\"": 26,
    "((n)": 27,
    "()": 28,
    "(),": 29,
    "(-": 30,
    "(0)": 31,
    "(1": 32,
    "(1)": 33,
    "(1),": 34,
    "(1).": 35,
    "(1):": 36,
    "(1,": 37,
    "(1/": 38,
    "(1/2)": 39,
    "(14.": 40,
    "(14.1": 41,
    "(16.": 42,
    "(19.": 43,
    "(2": 44,
    "(2)": 45,
    "(2),": 46,
    "(2):": 47,
    "(2,": 48,
    "(2.": 49,
    "(2/": 50,
    "(2/3)": 51,
    "(23.": 52,
    "(24.": 53,
    "(25.": 54,
    "(26.": 55,
    "(28.": 56,
    "(28.1": 57,
    "(29.": 58,
    "(29.1": 59,
    "(29.3": 60,
    "(3": 61,
    "(3)": 62,
    "(3):": 63,
    "(3,": 64,
    "(3.": 65,
    "(3.1": 66,
    "(3.3": 67,
    "(30.": 68,
    "(31.": 69,
    "(31.3": 70,
    "(32.": 71,
    "(33.": 72,
    "(33.1": 73,
    "(33.3": 74,
    "(35.": 75,
    "(35.1": 76,
    "(4": 77,
    "(4)": 78,
    "(4):": 79,
    "(4.": 80,
    "(4.1": 81,
    "(5):": 82,
    "(5,": 83,
    "(6": 84,
    "(6):": 85,
    "(7": 86,
    "(9": 87,
    "(A": 88,
    "(A)": 89,
    "(A,": 90,
    "(A.": 91,
    "(A.1": 92,
    "(A1": 93,
    "(ATA)": 94,
    "(B": 95,
    "(C": 96,
    "(C)": 97,
    "(C).": 98,
    "(C,": 99,
    "(C.": 100,
    "(C.1": 101,
    "(C.4": 102,
    "(Chapter": 103,
    "(D": 104,
    "(D0)": 105,
    "(Di)": 106,
    "(Exercise": 107,
    "(F": 108,
    "(Figure": 109,
    "(For": 110,
    "(G": 111,
    "(G)": 112,
    "(G,": 113,
    "(H": 114,
    "(Hint:": 115,
    "(I": 116,
    "(If": 117,
    "(In": 118,
    "(L": 119,
    "(L,": 120,
    "(Lemma": 121,
    "(M": 122,
    "(P": 123,
    "(P1": 124,
    "(P[:q]a": 125,
    "(Q": 126,
    "(Q)": 127,
    "(Q,": 128,
    "(Recall": 129,
    "(S)": 130,
    "(S,": 131,
    "(Section": 132,
    "(See": 133,
    "(T": 134,
    "(T)": 135,
    "(T,": 136,
    "(T[": 137,
    "(T[:": 138,
    "(T[:i": 139,
    "(T[:i]": 140,
    "(T[:i])": 141,
    "(The": 142,
    "(Theorem": 143,
    "(This": 144,
    "(V": 145,
    "(V)": 146,
    "(V,": 147,
    "(We": 148,
    "(We'll": 149,
    "(a": 150,
    "(a)": 151,
    "(a),": 152,
    "(a).": 153,
    "(a,": 154,
    "(a0,": 155,
    "(a1,": 156,
    "(and": 157,
    "(as": 158,
    "(b": 159,
    "(b)": 160,
    "(b),": 161,
    "(b).": 162,
    "(b,": 163,
    "(b/": 164,
    "(because": 165,
    "(but": 166,
    "(by": 167,
    "(c": 168,
    "(c)": 169,
    "(c),": 170,
    "(c).": 171,
    "(d": 172,
    "(d)": 173,
    "(d,": 174,
    "(e": 175,
    "(e)": 176,
    "(e.": 177,
    "(e.g.": 178,
    "(e.g.,": 179,
    "(f": 180,
    "(f)": 181,
    "(for": 182,
    "(g": 183,
    "(g(n))": 184,
    "(g)": 185,
    "(i": 186,
    "(i)": 187,
    "(i,": 188,
    "(i.e.,": 189,
    "(if": 190,
    "(in": 191,
    "(including": 192,
    "(j": 193,
    "(j)": 194,
    "(k": 195,
    "(k)": 196,
    "(k),": 197,
    "(k).": 198,
    "(k,": 199,
    "(l": 200,
    "(l,": 201,
    "(l1,": 202,
    "(l3,": 203,
    "(l5,": 204,
    "(lg": 205,
    "(lines": 206,
    "(m": 207,
    "(m)": 208,
    "(m,": 209,
    "(mod": 210,
    "(n": 211,
    "(n)": 212,
    "(n))": 213,
    "(n)),": 214,
    "(n)).": 215,
    "(n),": 216,
    "(n).": 217,
    "(n,": 218,
    "(n-1)": 219,
    "(n/": 220,
    "(n/2)": 221,
    "(n/3)": 222,
    "(n/4)": 223,
    "(n/b)": 224,
    "(n2)": 225,
    "(n2),": 226,
    "(n2).": 227,
    "(n3)": 228,
    "(n3).": 229,
    "(nlg": 230,
    "(no": 231,
    "(not": 232,
    "(or": 233,
    "(p": 234,
    "(p)": 235,
    "(p,": 236,
    "(possibly": 237,
    "(q": 238,
    "(q,": 239,
    "(r": 240,
    "(r,": 241,
    "(r1,": 242,
    "(re": 243,
    "(read": 244,
    "(s,": 245,
    "(see": 246,
    "(shown": 247,
    "(since": 248,
    "(so": 249,
    "(such": 250,
    "(t": 251,
    "(t)": 252,
    "(t),": 253,
    "(that": 254,
    "(the": 255,
    "(u)": 256,
    "(u,": 257,
    "(v": 258,
    "(v)": 259,
    "(v,": 260,
    "(v0,": 261,
    "(v1,": 262,
    "(v2,": 263,
    "(vk-1,": 264,
    "(w": 265,
    "(which": 266,
    "(with": 267,
    "(x": 268,
    "(x)": 269,
    "(x),": 270,
    "(x).": 271,
    "(x,": 272,
    "(x.": 273,
    "(x1": 274,
    "(x1,": 275,
    "(xi,": 276,
    "(y": 277,
    "(y)": 278,
    "(z)": 279,
    "(¬": 280,
    "(¬x1": 281,
    ")": 282,
    "))": 283,
    "),": 284,
    ").": 285,
    "):": 286,
    "*": 287,
    "*)": 288,
    "*.": 289,
    "*[q": 290,
    "*[q]": 291,
    "*|": 292,
    "+": 293,
    "++": 294,
    "+1": 295,
    "+1)": 296,
    "+1,": 297,
    "+1.": 298,
    "+2": 299,
    "+n": 300,
    ",": 301,
    ",\"": 302,
    "-": 303,
    "--": 304,
    "--a": 305,
    "--and": 306,
    "--in": 307,
    "--is": 308,
    "--that": 309,
    "--the": 310,
    "--then": 311,
    "-.": 312,
    "-1": 313,
    "-1)": 314,
    "-1),": 315,
    "-1).": 316,
    "-1,": 317,
    "-1.": 318,
    "-2": 319,
    "-2,": 320,
    "-3": 321,
    "-4": 322,
    "-5": 323,
    "-FRON": 324,
    "-K": 325,
    "-Karp": 326,
    "-SEARCH": 327,
    "-W": 328,
    "-address": 329,
    "-and-": 330,
    "-av": 331,
    "-avg": 332,
    "-based": 333,
    "-bit": 334,
    "-bound": 335,
    "-case": 336,
    "-choice": 337,
    "-common-": 338,
    "-flow": 339,
    "-free": 340,
    "-function": 341,
    "-heap": 342,
    "-in": 343,
    "-in,": 344,
    "-key": 345,
    "-length": 346,
    "-list": 347,
    "-major": 348,
    "-matching": 349,
    "-matrix": 350,
    "-notation": 351,
    "-notation,": 352,
    "-notation.": 353,
    "-of": 354,
    "-order": 355,
    "-path": 356,
    "-point": 357,
    "-programming": 358,
    "-rank": 359,
    "-s": 360,
    "-search": 361,
    "-set": 362,
    "-size": 363,
    "-theoretic": 364,
    "-time": 365,
    "-to": 366,
    "-to-": 367,
    "-tree": 368,
    "-triangular": 369,
    "-up": 370,
    "-weight": 371,
    ".": 372,
    ".\"": 373,
    ".)": 374,
    "..": 375,
    "...": 376,
    "...,": 377,
    ".1": 378,
    ".1-": 379,
    ".1-1": 380,
    ".1-2": 381,
    ".1-3": 382,
    ".1-4": 383,
    ".1-5": 384,
    ".1-6": 385,
    ".1-7": 386,
    ".1-8": 387,
    "/": 388,
    "//": 389,
    "/2": 390,
    "/2)": 391,
    "/2,": 392,
    "/2.": 393,
    "/4": 394,
    "/ak": 395,
    "/n": 396,
    "/span": 397,
    "0": 398,
    "0)": 399,
    "0),": 400,
    "0).": 401,
    "0,": 402,
    "0-": 403,
    "0-1": 404,
    "0.": 405,
    "0.0": 406,
    "0.05": 407,
    "0.1": 408,
    "00": 409,
    "000": 410,
    "000,": 411,
    "011,": 412,
    "0:": 413,
    "0]": 414,
    "0s": 415,
    "1": 416,
    "1)": 417,
    "1),": 418,
    "1)-": 419,
    "1).": 420,
    "1)/": 421,
    "1)/2": 422,
    "1)/2.": 423,
    "1)st": 424,
    "1,": 425,
    "1-": 426,
    "1-dimensional": 427,
    "1.": 428,
    "1.)": 429,
    "1/": 430,
    "1/2": 431,
    "1/2,": 432,
    "1/2.": 433,
    "1/3": 434,
    "1/4": 435,
    "1/4,": 436,
    "1/n": 437,
    "10": 438,
    "10)": 439,
    "10,": 440,
    "10.": 441,
    "10.1.": 442,
    "100": 443,
    "100,": 444,
    "1000": 445,
    "100n": 446,
    "100n2": 447,
    "101,": 448,
    "102,": 449,
    "11": 450,
    "11,": 451,
    "11.": 452,
    "11.3.": 453,
    "110": 454,
    "114": 455,
    "117": 456,
    "118": 457,
    "119": 458,
    "12": 459,
    "12,": 460,
    "12.": 461,
    "12.4": 462,
    "13": 463,
    "13,": 464,
    "13.": 465,
    "13.1": 466,
    "13.7": 467,
    "14": 468,
    "14,": 469,
    "14.": 470,
    "14.1": 471,
    "15": 472,
    "15,": 473,
    "15.": 474,
    "16": 475,
    "16,": 476,
    "16.": 477,
    "17": 478,
    "17,": 479,
    "17.": 480,
    "17.1": 481,
    "18": 482,
    "18,": 483,
    "18.": 484,
    "19": 485,
    "19,": 486,
    "19.": 487,
    "19.1": 488,
    "19.4": 489,
    "195": 490,
    "196": 491,
    "197": 492,
    "1972.": 493,
    "1973.": 494,
    "1976.": 495,
    "1979.": 496,
    "198": 497,
    "1984.": 498,
    "1985.": 499,
    "1987.": 500,
    "1989.": 501,
    "199": 502,
    "1993.": 503,
    "1994.": 504,
    "1995.": 505,
    "1996.": 506,
    "1997.": 507,
    "1998.": 508,
    "1999.": 509,
    "1:": 510,
    "1:]": 511,
    "1:s": 512,
    "1]": 513,
    "1])": 514,
    "1],": 515,
    "1].": 516,
    "1g": 517,
    "1if": 518,
    "1let": 519,
    "1s": 520,
    "1}": 521,
    "1}*": 522,
    "1},": 523,
    "1}.": 524,
    "2": 525,
    "2)": 526,
    "2),": 527,
    "2).": 528,
    "2,": 529,
    "2-": 530,
    "2-1": 531,
    "2-2": 532,
    "2-3": 533,
    "2-3-4": 534,
    "2-4": 535,
    "2-5": 536,
    "2-6": 537,
    "2-7": 538,
    "2-8": 539,
    "2-approximation": 540,
    "2.": 541,
    "2.)": 542,
    "2.1": 543,
    "2.3.": 544,
    "2.8": 545,
    "2/": 546,
    "20": 547,
    "20,": 548,
    "20.": 549,
    "20.1": 550,
    "20.2": 551,
    "20.3": 552,
    "20.7": 553,
    "200": 554,
    "2000.": 555,
    "2001.": 556,
    "2005.": 557,
    "2007.": 558,
    "2009.": 559,
    "2011.": 560,
    "2012.": 561,
    "2017.": 562,
    "2018.": 563,
    "21": 564,
    "21)": 565,
    "21,": 566,
    "21.": 567,
    "21.1": 568,
    "21.1-": 569,
    "21]": 570,
    "22": 571,
    "22),": 572,
    "22,": 573,
    "22.": 574,
    "22.1": 575,
    "22.2": 576,
    "23": 577,
    "23,": 578,
    "23.": 579,
    "23]": 580,
    "24": 581,
    "24,": 582,
    "24.": 583,
    "24.1": 584,
    "24.4": 585,
    "25": 586,
    "25)": 587,
    "25,": 588,
    "25.": 589,
    "25.1": 590,
    "256": 591,
    "26": 592,
    "26,": 593,
    "26.": 594,
    "26.1": 595,
    "26.2": 596,
    "27": 597,
    "27.": 598,
    "28": 599,
    "28,": 600,
    "28.": 601,
    "28]": 602,
    "29": 603,
    "29.": 604,
    "29]": 605,
    "2:": 606,
    "2T": 607,
    "2]": 608,
    "2],": 609,
    "2].": 610,
    "2for": 611,
    "2i": 612,
    "2k": 613,
    "2n": 614,
    "2n2": 615,
    "2r": 616,
    "2t": 617,
    "3": 618,
    "3)": 619,
    "3),": 620,
    "3).": 621,
    "3,": 622,
    "3-": 623,
    "3-1": 624,
    "3-2": 625,
    "3-3": 626,
    "3-4": 627,
    "3-5": 628,
    "3-6": 629,
    "3-7": 630,
    "3-8": 631,
    "3-CNF": 632,
    "3-CNF-": 633,
    "3-CNF-SAT": 634,
    "3.": 635,
    "3.)": 636,
    "3.1": 637,
    "3/": 638,
    "30": 639,
    "30.": 640,
    "31": 641,
    "31,": 642,
    "31.": 643,
    "31.1": 644,
    "31.1-": 645,
    "31.2": 646,
    "31.3": 647,
    "31.6": 648,
    "31.8": 649,
    "32": 650,
    "32.": 651,
    "32.1": 652,
    "33": 653,
    "33.": 654,
    "33.1": 655,
    "33.3": 656,
    "34": 657,
    "34.": 658,
    "34.1": 659,
    "34.16": 660,
    "34.4": 661,
    "34.5": 662,
    "34.5.": 663,
    "34.8": 664,
    "35": 665,
    "35.": 666,
    "35.3": 667,
    "36": 668,
    "36,": 669,
    "37": 670,
    "38": 671,
    "39": 672,
    "3:": 673,
    "3T": 674,
    "3]": 675,
    "3],": 676,
    "3].": 677,
    "3g": 678,
    "3n": 679,
    "4": 680,
    "4)": 681,
    "4))": 682,
    "4),": 683,
    "4).": 684,
    "4,": 685,
    "4-": 686,
    "4-1": 687,
    "4-2": 688,
    "4-3": 689,
    "4-4": 690,
    "4-5": 691,
    "4-6": 692,
    "4-7": 693,
    "4-8": 694,
    "4-bit": 695,
    "4.": 696,
    "4.)": 697,
    "4.1": 698,
    "4.2": 699,
    "4.7": 700,
    "40": 701,
    "41,": 702,
    "43": 703,
    "44": 704,
    "45": 705,
    "46": 706,
    "47": 707,
    "48": 708,
    "49": 709,
    "4:": 710,
    "4]": 711,
    "4],": 712,
    "4for": 713,
    "4n2": 714,
    "5": 715,
    "5(a)": 716,
    "5)": 717,
    "5),": 718,
    "5).": 719,
    "5):": 720,
    "5,": 721,
    "5-": 722,
    "5-1": 723,
    "5-2": 724,
    "5-3": 725,
    "5-4": 726,
    "5-5": 727,
    "5-6": 728,
    "5-7": 729,
    "5.": 730,
    "5.1": 731,
    "5.2": 732,
    "50": 733,
    "50,": 734,
    "500": 735,
    "512": 736,
    "54": 737,
    "55": 738,
    "56": 739,
    "57": 740,
    "58": 741,
    "59": 742,
    "5:": 743,
    "5]": 744,
    "5],": 745,
    "6": 746,
    "6)": 747,
    "6),": 748,
    "6).": 749,
    "6,": 750,
    "6.": 751,
    "60": 752,
    "63": 753,
    "64": 754,
    "64,": 755,
    "67": 756,
    "68": 757,
    "69": 758,
    "6]": 759,
    "6],": 760,
    "7": 761,
    "7)": 762,
    "7),": 763,
    "7,": 764,
    "7-": 765,
    "7.": 766,
    "7.1": 767,
    "70": 768,
    "78": 769,
    "7]": 770,
    "7],": 771,
    "8": 772,
    "8)": 773,
    "8),": 774,
    "8).": 775,
    "8,": 776,
    "8.": 777,
    "8.1": 778,
    "80": 779,
    "89": 780,
    "8]": 781,
    "8],": 782,
    "9": 783,
    "9)": 784,
    "9),": 785,
    "9,": 786,
    "9.": 787,
    "9.1": 788,
    "90": 789,
    "93": 790,
    "99": 791,
    "9]": 792,
    "9],": 793,
    "9].": 794,
    ":": 795,
    ":]": 796,
    ";": 797,
    "<": 798,
    "=": 799,
    "==": 800,
    ">": 801,
    "?": 802,
    "@": 803,
    "A": 804,
    "A(x": 805,
    "A(x)": 806,
    "A(x,": 807,
    "A)": 808,
    "A+": 809,
    "A,": 810,
    "A-1": 811,
    "A.": 812,
    "A.heap-size": 813,
    "A1": 814,
    "A1,": 815,
    "A11": 816,
    "A2": 817,
    "A2,": 818,
    "A22": 819,
    "A3": 820,
    "AC": 821,
    "ACK": 822,
    "ACM": 823,
    "ACM,": 824,
    "ACTI": 825,
    "ACTIV": 826,
    "ACTIVIT": 827,
    "ACTIVITY-": 828,
    "ACTIVITY-SELECTOR": 829,
    "AD": 830,
    "AL": 831,
    "AM": 832,
    "AN": 833,
    "AND": 834,
    "ANG": 835,
    "ANT": 836,
    "ANT,": 837,
    "AP": 838,
    "APPRO": 839,
    "APPROX-": 840,
    "APPROX-SUBSET-SUM": 841,
    "APPROX-TSP-TOU": 842,
    "APPROX-VERTEX-COVER": 843,
    "APSP": 844,
    "AR": 845,
    "AR-": 846,
    "ARRA": 847,
    "ARRAY": 848,
    "AS": 849,
    "ASE": 850,
    "ASE-K": 851,
    "ASE-KEY": 852,
    "ASSI": 853,
    "ASSIST": 854,
    "AT": 855,
    "ATA": 856,
    "AU": 857,
    "AUG": 858,
    "AUGMENT": 859,
    "AUGMENTING-": 860,
    "AUGMENTING-PATH": 861,
    "AUTO": 862,
    "AUTOMAT": 863,
    "AUTOMATON-": 864,
    "AUX": 865,
    "AV": 866,
    "AVL": 867,
    "A[": 868,
    "A[1": 869,
    "A[i": 870,
    "A[i,": 871,
    "A[i]": 872,
    "A[i],": 873,
    "A[j": 874,
    "A[j]": 875,
    "A[j],": 876,
    "A[p": 877,
    "A[p1": 878,
    "A[p2": 879,
    "A[p]": 880,
    "A[q": 881,
    "A[q]": 882,
    "A[r]": 883,
    "Ac": 884,
    "According": 885,
    "Ad": 886,
    "Adding": 887,
    "Addis": 888,
    "Addison": 889,
    "Addison-W": 890,
    "Addison-Wesley,": 891,
    "Addition": 892,
    "Adj": 893,
    "Adj[": 894,
    "Adj[u": 895,
    "Adj[u]": 896,
    "After": 897,
    "Again,": 898,
    "Aho": 899,
    "Aho,": 900,
    "Ahu": 901,
    "Ahuj": 902,
    "Ai": 903,
    "Ai:": 904,
    "AiAi": 905,
    "AiAi+1": 906,
    "Aij": 907,
    "Aj": 908,
    "Aj.": 909,
    "Ak": 910,
    "Ak+1": 911,
    "Ak+2": 912,
    "Akra": 913,
    "Akra-": 914,
    "Akra-Bazzi": 915,
    "Al": 916,
    "Algorithm": 917,
    "Algorithms": 918,
    "Algorithms,": 919,
    "Algorithms.": 920,
    "Alice": 921,
    "Alice's": 922,
    "All": 923,
    "Also": 924,
    "Alternative": 925,
    "Alternatively,": 926,
    "Although": 927,
    "Am": 928,
    "Amer": 929,
    "Americ": 930,
    "American": 931,
    "An": 932,
    "Anal": 933,
    "Analy": 934,
    "Analys": 935,
    "Analysis": 936,
    "Analyze": 937,
    "And": 938,
    "Andre": 939,
    "Andrew": 940,
    "Annual": 941,
    "Ano": 942,
    "Another": 943,
    "Any": 944,
    "Ap": 945,
    "Appen": 946,
    "Appendix": 947,
    "Application": 948,
    "Applied": 949,
    "Applying": 950,
    "Appro": 951,
    "Approx": 952,
    "Approxi": 953,
    "Approximation": 954,
    "Ar": 955,
    "Argue": 956,
    "Aror": 957,
    "As": 958,
    "Assum": 959,
    "Assume": 960,
    "Assuming": 961,
    "Asymptotic": 962,
    "At": 963,
    "Au": 964,
    "Ax": 965,
    "B": 966,
    "B(T": 967,
    "B(T)": 968,
    "B(x)": 969,
    "B)": 970,
    "B,": 971,
    "B-": 972,
    "B-1": 973,
    "B-TREE-": 974,
    "B-TREE-INSERT": 975,
    "B-TREE-SPLIT-": 976,
    "B-TREE-SPLIT-CHILD": 977,
    "B-tree": 978,
    "B-tree.": 979,
    "B-trees": 980,
    "B.": 981,
    "B.2": 982,
    "B11": 983,
    "B11,": 984,
    "B21,": 985,
    "BFS": 986,
    "BIN": 987,
    "BL": 988,
    "BLACK": 989,
    "BLE": 990,
    "BLE-": 991,
    "BOT": 992,
    "BOTT": 993,
    "BOTTOM": 994,
    "BOTTOM-": 995,
    "BOTTOM-UP-": 996,
    "BST": 997,
    "BU": 998,
    "BUIL": 999,
    "BUILD-": 1000,
    "BUILD-MAX-HEAP": 1001,
    "BW": 1002,
    "BWT": 1003,
    "B[": 1004,
    "Ba": 1005,
    "Bas": 1006,
    "Basic": 1007,
    "Baz": 1008,
    "Bazzi": 1009,
    "Be": 1010,
    "Because": 1011,
    "Before": 1012,
    "Begin": 1013,
    "Bell": 1014,
    "Bellman": 1015,
    "Bellman-": 1016,
    "Bellman-Ford": 1017,
    "Bent": 1018,
    "Ber": 1019,
    "Bern": 1020,
    "Bernou": 1021,
    "Bernoull": 1022,
    "Bernoulli": 1023,
    "Binary": 1024,
    "Bl": 1025,
    "Blue": 1026,
    "Bo": 1027,
    "Bob": 1028,
    "Boo": 1029,
    "Bor": 1030,
    "Both": 1031,
    "Bread": 1032,
    "Breadth-first": 1033,
    "Brent": 1034,
    "Bu": 1035,
    "Bur": 1036,
    "But": 1037,
    "By": 1038,
    "C": 1039,
    "C(x)": 1040,
    "C)": 1041,
    "C*": 1042,
    "C++": 1043,
    "C,": 1044,
    "C-": 1045,
    "C.": 1046,
    "C.1": 1047,
    "C1": 1048,
    "C11,": 1049,
    "C12,": 1050,
    "C2": 1051,
    "C21,": 1052,
    "C22": 1053,
    "CES": 1054,
    "CESSO": 1055,
    "CG": 1056,
    "CH": 1057,
    "CHA": 1058,
    "CHAIN": 1059,
    "CHIL": 1060,
    "CHILD": 1061,
    "CIR": 1062,
    "CIRCU": 1063,
    "CIRCUIT-": 1064,
    "CIRCUIT-SAT": 1065,
    "CLI": 1066,
    "CLIQUE": 1067,
    "CNF": 1068,
    "CO": 1069,
    "COM": 1070,
    "COMPA": 1071,
    "COMPACT-": 1072,
    "COMPACT-LIST-SEARCH": 1073,
    "COMPO": 1074,
    "COMPON": 1075,
    "COMPONENT": 1076,
    "COMPONENTS": 1077,
    "COMPOSI": 1078,
    "COMPU": 1079,
    "COMPUTE-": 1080,
    "CON": 1081,
    "CONNE": 1082,
    "CONNEC": 1083,
    "CONNECTED-": 1084,
    "CONNECTED-COMPONENTS": 1085,
    "COUN": 1086,
    "COUNT": 1087,
    "COUNTING-": 1088,
    "COUNTING-SORT": 1089,
    "COVER": 1090,
    "CPU": 1091,
    "CRE": 1092,
    "CS,": 1093,
    "CS,j": 1094,
    "CS,j+1": 1095,
    "CS,m": 1096,
    "CT": 1097,
    "CT-": 1098,
    "CU": 1099,
    "CUT-RO": 1100,
    "CUT-ROD": 1101,
    "CUT-ROD(p,": 1102,
    "CUT-ROD-": 1103,
    "CY": 1104,
    "CYC": 1105,
    "CYCLE": 1106,
    "Cal": 1107,
    "Cam": 1108,
    "Cambridge": 1109,
    "Can": 1110,
    "Car": 1111,
    "Carmi": 1112,
    "Carmich": 1113,
    "Carmichael": 1114,
    "Cart": 1115,
    "Cartes": 1116,
    "Cartesian": 1117,
    "Case": 1118,
    "Ch": 1119,
    "Chapter": 1120,
    "Chapters": 1121,
    "Char": 1122,
    "Charles": 1123,
    "Cher": 1124,
    "Chin": 1125,
    "Chinese": 1126,
    "Cho": 1127,
    "Chris": 1128,
    "Ci": 1129,
    "Cil": 1130,
    "Cilk": 1131,
    "Cl": 1132,
    "Co": 1133,
    "Com": 1134,
    "Combin": 1135,
    "Combinatorial": 1136,
    "Combining": 1137,
    "Comm": 1138,
    "Communications": 1139,
    "Comp": 1140,
    "Company,": 1141,
    "Compare": 1142,
    "Comple": 1143,
    "Complex": 1144,
    "Comput": 1145,
    "Computation,": 1146,
    "Computational": 1147,
    "Compute": 1148,
    "Computer": 1149,
    "Computing": 1150,
    "Computing,": 1151,
    "Con": 1152,
    "Conclude": 1153,
    "Consequently,": 1154,
    "Consider": 1155,
    "Construct": 1156,
    "Constructing": 1157,
    "Contin": 1158,
    "Conversely,": 1159,
    "Cor": 1160,
    "Corollary": 1161,
    "Correct": 1162,
    "Correctness": 1163,
    "Coun": 1164,
    "Counting": 1165,
    "Cre": 1166,
    "Cryp": 1167,
    "D": 1168,
    "D,": 1169,
    "D-": 1170,
    "D.": 1171,
    "DA": 1172,
    "DAG": 1173,
    "DAG-": 1174,
    "DE": 1175,
    "DECOMPOSI": 1176,
    "DECOMPOSITION": 1177,
    "DECRE": 1178,
    "DECREASE-KEY": 1179,
    "DELE": 1180,
    "DELETE": 1181,
    "DELETE,": 1182,
    "DELETE-": 1183,
    "DEQUEUE": 1184,
    "DESC": 1185,
    "DF": 1186,
    "DFS": 1187,
    "DFS-": 1188,
    "DFS-VISI": 1189,
    "DFS-VISIT": 1190,
    "DFT": 1191,
    "DFTs": 1192,
    "DI": 1193,
    "DISK": 1194,
    "DISK-": 1195,
    "DISK-READ": 1196,
    "DISK-W": 1197,
    "DISK-WRITE": 1198,
    "DNA": 1199,
    "Da": 1200,
    "Dan": 1201,
    "Daniel": 1202,
    "Data": 1203,
    "David": 1204,
    "Davis": 1205,
    "De": 1206,
    "Def": 1207,
    "Define": 1208,
    "Delet": 1209,
    "Deletion": 1210,
    "Den": 1211,
    "Denot": 1212,
    "Denote": 1213,
    "Dep": 1214,
    "Des": 1215,
    "Descri": 1216,
    "Describe": 1217,
    "Design": 1218,
    "Develop": 1219,
    "Di": 1220,
    "Dif": 1221,
    "Dijk": 1222,
    "Dijkstra": 1223,
    "Dijkstra's": 1224,
    "Dis": 1225,
    "Discrete": 1226,
    "Divi": 1227,
    "Divide": 1228,
    "Dj": 1229,
    "Do": 1230,
    "Does": 1231,
    "Donald": 1232,
    "Dor": 1233,
    "Draw": 1234,
    "Dynamic": 1235,
    "E": 1236,
    "E)": 1237,
    "E),": 1238,
    "E)-time": 1239,
    "E).": 1240,
    "E,": 1241,
    "E-": 1242,
    "E-S": 1243,
    "E.": 1244,
    "E2": 1245,
    "ED": 1246,
    "EE": 1247,
    "EI": 1248,
    "EIGH": 1249,
    "EM,": 1250,
    "EN": 1251,
    "ENQUEUE": 1252,
    "ENQUEUE(Q,": 1253,
    "ENT": 1254,
    "ENT-": 1255,
    "ER": 1256,
    "ES": 1257,
    "EUCLI": 1258,
    "EUCLID": 1259,
    "EX": 1260,
    "EXAC": 1261,
    "EXT": 1262,
    "EXTEN": 1263,
    "EXTEND-": 1264,
    "EXTENDE": 1265,
    "EXTENDED-": 1266,
    "EXTENDED-EUCLID": 1267,
    "EXTRA": 1268,
    "EXTRACT-": 1269,
    "EXTRACT-MAX": 1270,
    "EXTRACT-MIN": 1271,
    "EY": 1272,
    "E[": 1273,
    "E[X]": 1274,
    "Each": 1275,
    "Ed": 1276,
    "Edges": 1277,
    "Edmon": 1278,
    "Edmonds": 1279,
    "Edmonds-Karp": 1280,
    "Ef": 1281,
    "Efficient": 1282,
    "Ei": 1283,
    "Element": 1284,
    "Emma": 1285,
    "En": 1286,
    "Engl": 1287,
    "English": 1288,
    "Eq1": 1289,
    "Equ": 1290,
    "Equation": 1291,
    "Eucl": 1292,
    "Euclid": 1293,
    "Euclid's": 1294,
    "Eul": 1295,
    "Euler": 1296,
    "Even": 1297,
    "Every": 1298,
    "Ex": 1299,
    "Examp": 1300,
    "Examples": 1301,
    "Exercis": 1302,
    "Exercise": 1303,
    "Exercises": 1304,
    "Explain": 1305,
    "Expres": 1306,
    "Express": 1307,
    "F": 1308,
    "F,": 1309,
    "F.": 1310,
    "FAL": 1311,
    "FALSE": 1312,
    "FF": 1313,
    "FFT": 1314,
    "FI": 1315,
    "FIB": 1316,
    "FIN": 1317,
    "FIND-": 1318,
    "FIND-AUGMENTING-PATH": 1319,
    "FIND-SET": 1320,
    "FINI": 1321,
    "FINITE-": 1322,
    "FINITE-AUTOMATON-": 1323,
    "FINITE-AUTOMATON-MATCHER": 1324,
    "FIX": 1325,
    "FIX-": 1326,
    "FIXU": 1327,
    "FIXUP": 1328,
    "FIXUP,": 1329,
    "FIXUP.": 1330,
    "FL": 1331,
    "FO": 1332,
    "FOR": 1333,
    "FORD-": 1334,
    "FORD-FUL": 1335,
    "FORD-FULK": 1336,
    "FORD-FULKER": 1337,
    "FORD-FULKERSON": 1338,
    "FORE": 1339,
    "FORESE": 1340,
    "FORESEE": 1341,
    "FR": 1342,
    "FRON": 1343,
    "FS": 1344,
    "FT": 1345,
    "FUL": 1346,
    "FUN": 1347,
    "FUNC": 1348,
    "FUNCTION": 1349,
    "Fast": 1350,
    "Faster": 1351,
    "Fi": 1352,
    "Fib": 1353,
    "Fibonacci": 1354,
    "Figure": 1355,
    "Figures": 1356,
    "Fin": 1357,
    "Finally,": 1358,
    "Find": 1359,
    "Finding": 1360,
    "First": 1361,
    "First,": 1362,
    "Fk": 1363,
    "Flow": 1364,
    "Floy": 1365,
    "Floyd-": 1366,
    "Floyd-Warshall": 1367,
    "For": 1368,
    "Ford": 1369,
    "Ford-": 1370,
    "Ford-Fulkerson": 1371,
    "Form": 1372,
    "Formul": 1373,
    "Fort": 1374,
    "Fortunately,": 1375,
    "Found": 1376,
    "Foundations": 1377,
    "Fouri": 1378,
    "Fourier": 1379,
    "Fred": 1380,
    "Fredman": 1381,
    "From": 1382,
    "Ful": 1383,
    "Fulk": 1384,
    "Fulkerson": 1385,
    "Further": 1386,
    "Furthermore,": 1387,
    "G": 1388,
    "G,": 1389,
    "G.": 1390,
    "G.E": 1391,
    "G.V": 1392,
    "GA": 1393,
    "GAL": 1394,
    "GALE-": 1395,
    "GALE-SHAPLE": 1396,
    "GALE-SHAPLEY": 1397,
    "GF": 1398,
    "GH": 1399,
    "GM": 1400,
    "GM,": 1401,
    "GM,h": 1402,
    "GM,h.": 1403,
    "GRA": 1404,
    "GRADI": 1405,
    "GRADIENT-": 1406,
    "GRADIENT-DESC": 1407,
    "GRADIENT-DESCENT": 1408,
    "GRE": 1409,
    "GREED": 1410,
    "GREEDY-": 1411,
    "GREEDY-SET-": 1412,
    "GREEDY-SET-COVER": 1413,
    "GT": 1414,
    "Ga": 1415,
    "Gab": 1416,
    "Gabow": 1417,
    "Gal": 1418,
    "Galil": 1419,
    "Gaus": 1420,
    "Ge": 1421,
    "Gener": 1422,
    "General": 1423,
    "Gf": 1424,
    "Gf.": 1425,
    "Gh": 1426,
    "Give": 1427,
    "Given": 1428,
    "Go": 1429,
    "Gold": 1430,
    "Goldberg": 1431,
    "Gra": 1432,
    "Gradient": 1433,
    "Graha": 1434,
    "Graph": 1435,
    "Gray": 1436,
    "Gre": 1437,
    "Greedy": 1438,
    "Gri": 1439,
    "Gu": 1440,
    "H": 1441,
    "H,": 1442,
    "H.": 1443,
    "HA": 1444,
    "HAM-": 1445,
    "HAM-CYCLE": 1446,
    "HASH": 1447,
    "HASH-": 1448,
    "HE": 1449,
    "HEA": 1450,
    "HEAP": 1451,
    "HEAP-": 1452,
    "HEAPSORT": 1453,
    "HI": 1454,
    "HIR": 1455,
    "HIRE-": 1456,
    "HIRE-ASSIST": 1457,
    "HO": 1458,
    "HOAR": 1459,
    "HOARE-": 1460,
    "Ha": 1461,
    "Hall,": 1462,
    "Han": 1463,
    "Hand": 1464,
    "Hank": 1465,
    "Har": 1466,
    "Hard": 1467,
    "Having": 1468,
    "He": 1469,
    "Hence,": 1470,
    "Here": 1471,
    "Here's": 1472,
    "Here,": 1473,
    "Ho": 1474,
    "Hochbaum": 1475,
    "Hop": 1476,
    "Hopcr": 1477,
    "Hopcrof": 1478,
    "Hopcroft": 1479,
    "Hopcroft,": 1480,
    "Hopcroft-Karp": 1481,
    "Hor": 1482,
    "How": 1483,
    "Hu": 1484,
    "Huffman": 1485,
    "Hung": 1486,
    "Hungari": 1487,
    "Hungarian": 1488,
    "I": 1489,
    "I,": 1490,
    "I.": 1491,
    "IC": 1492,
    "IF": 1493,
    "IFY": 1494,
    "II": 1495,
    "IL": 1496,
    "IMU": 1497,
    "IMUM": 1498,
    "IMUM,": 1499,
    "IN": 1500,
    "INCRE": 1501,
    "INCREASE-KEY": 1502,
    "INCREMENT": 1503,
    "ING": 1504,
    "ING-": 1505,
    "INGL": 1506,
    "INGLE-": 1507,
    "INGLE-SOURC": 1508,
    "INGLE-SOURCE": 1509,
    "INGLE-SOURCE(G,": 1510,
    "INI": 1511,
    "INITIA": 1512,
    "INITIALI": 1513,
    "INITIALIZ": 1514,
    "INITIALIZE-S": 1515,
    "INITIALIZE-SINGLE-SOURCE(G,": 1516,
    "INORDE": 1517,
    "INORDER-": 1518,
    "INORDER-TREE-": 1519,
    "INSE": 1520,
    "INSERT": 1521,
    "INSERT,": 1522,
    "INSERTI": 1523,
    "INSERTION-": 1524,
    "INSERTION-SORT": 1525,
    "INTER": 1526,
    "INTERV": 1527,
    "INTERVAL": 1528,
    "INTERVAL-SEARCH": 1529,
    "IR": 1530,
    "IT": 1531,
    "IT-": 1532,
    "IZE": 1533,
    "IZED": 1534,
    "IZED-": 1535,
    "If": 1536,
    "If,": 1537,
    "Ill": 1538,
    "Im": 1539,
    "Ima": 1540,
    "Imm": 1541,
    "Immedi": 1542,
    "In": 1543,
    "Inde": 1544,
    "Indeed,": 1545,
    "Information": 1546,
    "Initi": 1547,
    "Initial": 1548,
    "Initialization": 1549,
    "Initialization:": 1550,
    "Initially,": 1551,
    "Inser": 1552,
    "Inserting": 1553,
    "Insertion": 1554,
    "Instead": 1555,
    "Instead,": 1556,
    "Int": 1557,
    "Inter": 1558,
    "Interval": 1559,
    "Introdu": 1560,
    "Introduction": 1561,
    "Intu": 1562,
    "Intuitively,": 1563,
    "Is": 1564,
    "It": 1565,
    "It's": 1566,
    "Its": 1567,
    "J": 1568,
    "J.": 1569,
    "JO": 1570,
    "James": 1571,
    "Jav": 1572,
    "Java": 1573,
    "Jef": 1574,
    "Jo": 1575,
    "Joe": 1576,
    "John": 1577,
    "Johnson": 1578,
    "Johnson's": 1579,
    "Jose": 1580,
    "Joseph": 1581,
    "Jour": 1582,
    "Journal": 1583,
    "Jr.": 1584,
    "Just": 1585,
    "Justify": 1586,
    "K": 1587,
    "K,": 1588,
    "K.": 1589,
    "KM": 1590,
    "KMP-": 1591,
    "KMP-MATCHER": 1592,
    "Kar": 1593,
    "Kare": 1594,
    "Karen": 1595,
    "Karen,": 1596,
    "Karp": 1597,
    "Ke": 1598,
    "Kle": 1599,
    "Knu": 1600,
    "Knuth": 1601,
    "Knuth,": 1602,
    "Knuth-": 1603,
    "Knuth-Morris-": 1604,
    "Knuth-Morris-Pratt": 1605,
    "Knuth.": 1606,
    "Kr": 1607,
    "Krus": 1608,
    "Krusk": 1609,
    "Kruskal": 1610,
    "Kruskal's": 1611,
    "L": 1612,
    "L(": 1613,
    "L(n)": 1614,
    "L(r": 1615,
    "L(r)": 1616,
    "L,": 1617,
    "L-": 1618,
    "L.": 1619,
    "L.head": 1620,
    "L.nil": 1621,
    "L.nil.": 1622,
    "L1": 1623,
    "L2": 1624,
    "L2.": 1625,
    "LA": 1626,
    "LC": 1627,
    "LCP": 1628,
    "LCP[": 1629,
    "LCS": 1630,
    "LCS-": 1631,
    "LCS-LENGTH": 1632,
    "LE": 1633,
    "LEF": 1634,
    "LEFT-ROTATE(T,": 1635,
    "LEN": 1636,
    "LENG": 1637,
    "LENGTH": 1638,
    "LER-": 1639,
    "LI": 1640,
    "LIFO": 1641,
    "LIN": 1642,
    "LINE": 1643,
    "LINEAR-": 1644,
    "LINK": 1645,
    "LIST": 1646,
    "LIST-": 1647,
    "LIST-DELETE": 1648,
    "LIST-INSERT": 1649,
    "LIST-SEARCH": 1650,
    "LO": 1651,
    "LOG": 1652,
    "LOO": 1653,
    "LOOK": 1654,
    "LOOKUP-": 1655,
    "LOOKUP-CHAIN": 1656,
    "LOW-": 1657,
    "LRU": 1658,
    "LU": 1659,
    "LU-": 1660,
    "LU-DECOMPOSITION": 1661,
    "LUP": 1662,
    "LUP-": 1663,
    "LY-": 1664,
    "La": 1665,
    "Lace": 1666,
    "Law": 1667,
    "Le": 1668,
    "Lecture": 1669,
    "Lee": 1670,
    "Leight": 1671,
    "Leis": 1672,
    "Leiserson": 1673,
    "Lemma": 1674,
    "Len": 1675,
    "Lenstra": 1676,
    "Lenstra,": 1677,
    "Let": 1678,
    "Let's": 1679,
    "Letting": 1680,
    "Li": 1681,
    "Like": 1682,
    "Likewise,": 1683,
    "Line": 1684,
    "Linear": 1685,
    "Lines": 1686,
    "Lloy": 1687,
    "Lloyd": 1688,
    "Lloyd's": 1689,
    "Lo": 1690,
    "Lucky": 1691,
    "M": 1692,
    "M(n)": 1693,
    "M*": 1694,
    "M,": 1695,
    "M-": 1696,
    "M-augmenting": 1697,
    "M.": 1698,
    "MA": 1699,
    "MAJO": 1700,
    "MAJORI": 1701,
    "MAK": 1702,
    "MAKE-": 1703,
    "MAKE-RANK": 1704,
    "MAKE-SET": 1705,
    "MAKE-SET,": 1706,
    "MAN": 1707,
    "MAR": 1708,
    "MARK": 1709,
    "MARKING": 1710,
    "MAT": 1711,
    "MAT-": 1712,
    "MAT-VE": 1713,
    "MATCH": 1714,
    "MATCHER": 1715,
    "MATRI": 1716,
    "MATRIX-": 1717,
    "MATRIX-CHAIN": 1718,
    "MATRIX-CHAIN-": 1719,
    "MATRIX-CHAIN-ORDE": 1720,
    "MATRIX-CHAIN-ORDER": 1721,
    "MATRIX-MULTIPL": 1722,
    "MATRIX-MULTIPLY": 1723,
    "MATRIX-MULTIPLY-": 1724,
    "MATRIX-MULTIPLY-RECURSIVE": 1725,
    "MAX": 1726,
    "MAX-": 1727,
    "MAX-HEAP": 1728,
    "MAX-HEAP-": 1729,
    "MAX-HEAP-INCREASE-KEY": 1730,
    "MAX-HEAPIFY": 1731,
    "MAX-HEAPIFY(A,": 1732,
    "MAXIMUM": 1733,
    "MAXIMUM,": 1734,
    "ME": 1735,
    "MEMO": 1736,
    "MEMOIZED-": 1737,
    "MENT": 1738,
    "MER": 1739,
    "MERG": 1740,
    "MERGE": 1741,
    "MERGE-": 1742,
    "MERGE-SORT": 1743,
    "MIL": 1744,
    "MILLER-": 1745,
    "MILLER-RABIN": 1746,
    "MIN": 1747,
    "MIN-": 1748,
    "MIN-HEAP": 1749,
    "MINIMUM": 1750,
    "MINIMUM,": 1751,
    "MIT": 1752,
    "MO": 1753,
    "MOD": 1754,
    "MODULAR-": 1755,
    "MODULAR-EX": 1756,
    "MODULAR-EXPONENTIATION": 1757,
    "MOVE-": 1758,
    "MOVE-TO": 1759,
    "MOVE-TO-FRON": 1760,
    "MOVE-TO-FRONT": 1761,
    "MP": 1762,
    "MST-": 1763,
    "MU": 1764,
    "MUL": 1765,
    "MULTI": 1766,
    "MULTIPL": 1767,
    "MULTIPOP": 1768,
    "Ma": 1769,
    "Mach": 1770,
    "Machine": 1771,
    "Main": 1772,
    "Maintain": 1773,
    "Maintenance": 1774,
    "Maintenance:": 1775,
    "Make": 1776,
    "Making": 1777,
    "Man": 1778,
    "Many": 1779,
    "Mar": 1780,
    "Mark": 1781,
    "Mart": 1782,
    "Mat": 1783,
    "Matching": 1784,
    "Mathemat": 1785,
    "Mathematic": 1786,
    "Mathematical": 1787,
    "Mathematics": 1788,
    "Mathematics,": 1789,
    "Matrix": 1790,
    "Max": 1791,
    "Mc": 1792,
    "Me": 1793,
    "Med": 1794,
    "Mehl": 1795,
    "Mehlhor": 1796,
    "Merge": 1797,
    "Mich": 1798,
    "Michael": 1799,
    "Mik": 1800,
    "Miller": 1801,
    "Miller-": 1802,
    "Miller-Rabin": 1803,
    "Min": 1804,
    "Minimum": 1805,
    "Mo": 1806,
    "Mod": 1807,
    "Modify": 1808,
    "Mon": 1809,
    "Monty": 1810,
    "Mor": 1811,
    "More": 1812,
    "Moreover,": 1813,
    "Morgan": 1814,
    "Morris": 1815,
    "Morris-": 1816,
    "Most": 1817,
    "Multi": 1818,
    "Multiplying": 1819,
    "N": 1820,
    "N.": 1821,
    "NA": 1822,
    "NAI": 1823,
    "NAIVE-": 1824,
    "NE": 1825,
    "NF": 1826,
    "NI": 1827,
    "NIL": 1828,
    "NIL,": 1829,
    "NIL.": 1830,
    "NO": 1831,
    "NON": 1832,
    "NONFUL": 1833,
    "NONFULL": 1834,
    "NP": 1835,
    "NP,": 1836,
    "NP-": 1837,
    "NP-complet": 1838,
    "NP-complete": 1839,
    "NP-complete,": 1840,
    "NP-complete.": 1841,
    "NP-completen": 1842,
    "NP-completeness": 1843,
    "NP-hard": 1844,
    "NP-hard.": 1845,
    "NP.": 1846,
    "NPcomplete": 1847,
    "Na": 1848,
    "Ne": 1849,
    "Never": 1850,
    "Nevertheless,": 1851,
    "New": 1852,
    "Next": 1853,
    "Next,": 1854,
    "No": 1855,
    "Node": 1856,
    "Nor": 1857,
    "Not": 1858,
    "Note": 1859,
    "Notes": 1860,
    "Now": 1861,
    "Now,": 1862,
    "Num": 1863,
    "Number": 1864,
    "O": 1865,
    "O(": 1866,
    "O(1)": 1867,
    "O(1),": 1868,
    "O(1).": 1869,
    "O(E": 1870,
    "O(E)": 1871,
    "O(M": 1872,
    "O(V": 1873,
    "O(V2": 1874,
    "O(VE": 1875,
    "O(VE)": 1876,
    "O(g(n))": 1877,
    "O(h)": 1878,
    "O(lg": 1879,
    "O(m": 1880,
    "O(m)": 1881,
    "O(n": 1882,
    "O(n)": 1883,
    "O(n),": 1884,
    "O(n).": 1885,
    "O(n2)": 1886,
    "O(n2),": 1887,
    "O(n2).": 1888,
    "O(n3)": 1889,
    "O(nk)": 1890,
    "O-notation": 1891,
    "OM": 1892,
    "ON": 1893,
    "ON-": 1894,
    "ONG": 1895,
    "OP": 1896,
    "OPTI": 1897,
    "OPTIMA": 1898,
    "OPTIMAL-": 1899,
    "OPTIMAL-BST": 1900,
    "OR": 1901,
    "ORDE": 1902,
    "OS-": 1903,
    "OS-RANK": 1904,
    "OS-SELECT": 1905,
    "OT": 1906,
    "Ob": 1907,
    "Observe": 1908,
    "Oce": 1909,
    "Ocean": 1910,
    "Oceanside,": 1911,
    "Of": 1912,
    "On": 1913,
    "Once": 1914,
    "One": 1915,
    "Online": 1916,
    "Only": 1917,
    "Op": 1918,
    "Optim": 1919,
    "Optimal": 1920,
    "Optimization": 1921,
    "Or": 1922,
    "Orlin": 1923,
    "Oscar": 1924,
    "Other": 1925,
    "Otherwise,": 1926,
    "Our": 1927,
    "Over": 1928,
    "P": 1929,
    "P,": 1930,
    "P-": 1931,
    "P-FIB": 1932,
    "P-MAT-VE": 1933,
    "P-MATRIX-MULTIPLY-RECURSIVE": 1934,
    "P-MERGE-": 1935,
    "P-MERGE-AUX": 1936,
    "P-MERGE-SORT": 1937,
    "P-SCAN": 1938,
    "P-SCAN-": 1939,
    "P.": 1940,
    "P1": 1941,
    "P1,": 1942,
    "P2": 1943,
    "P2,": 1944,
    "PA": 1945,
    "PARE": 1946,
    "PAREN": 1947,
    "PARENT(i)": 1948,
    "PART": 1949,
    "PARTI": 1950,
    "PARTITION": 1951,
    "PATH": 1952,
    "PER": 1953,
    "PERMU": 1954,
    "PERMUTE": 1955,
    "PL": 1956,
    "PLE": 1957,
    "PO": 1958,
    "PON": 1959,
    "PONEN": 1960,
    "PONENTIA": 1961,
    "PONENTIATION": 1962,
    "POP": 1963,
    "POP,": 1964,
    "PR": 1965,
    "PRE": 1966,
    "PREDE": 1967,
    "PREDECESSO": 1968,
    "PREDECESSOR": 1969,
    "PREFIX-": 1970,
    "PREFIX-FUNCTION": 1971,
    "PRI": 1972,
    "PRIM": 1973,
    "PRIN": 1974,
    "PRINT-": 1975,
    "PRO": 1976,
    "PSE": 1977,
    "PSEU": 1978,
    "PSEUD": 1979,
    "PSEUDOP": 1980,
    "PSEUDOPRI": 1981,
    "PSEUDOPRIME": 1982,
    "PU": 1983,
    "PUSH": 1984,
    "PUSH(S,": 1985,
    "PUSH,": 1986,
    "P[": 1987,
    "P[1:": 1988,
    "P[1:m]": 1989,
    "P[:": 1990,
    "P[:k]": 1991,
    "P[:q": 1992,
    "P[:q]": 1993,
    "P[:q].": 1994,
    "P[:q]a": 1995,
    "P[:r]": 1996,
    "P[q": 1997,
    "Pa": 1998,
    "Papa": 1999,
    "Papadi": 2000,
    "Papadimit": 2001,
    "Papadimitri": 2002,
    "Papadimitriou": 2003,
    "Par": 2004,
    "Parallel": 2005,
    "Part": 2006,
    "Pat": 2007,
    "Path": 2008,
    "Pe": 2009,
    "Per": 2010,
    "Perform": 2011,
    "Perhaps": 2012,
    "Petti": 2013,
    "Pi": 2014,
    "Pk": 2015,
    "Pk)": 2016,
    "Po": 2017,
    "Polyno": 2018,
    "Polynomial": 2019,
    "Pr": 2020,
    "Prat": 2021,
    "Pratt": 2022,
    "Pren": 2023,
    "Prentice": 2024,
    "Press,": 2025,
    "Pri": 2026,
    "Prim": 2027,
    "Prim's": 2028,
    "Prior": 2029,
    "Pro": 2030,
    "Prob": 2031,
    "Probabil": 2032,
    "Probabilistic": 2033,
    "Probability": 2034,
    "Problem": 2035,
    "Problems": 2036,
    "Proceedings": 2037,
    "Process": 2038,
    "Professor": 2039,
    "Progra": 2040,
    "Programming": 2041,
    "Programming.": 2042,
    "Proof": 2043,
    "Proper": 2044,
    "Prove": 2045,
    "Pr{": 2046,
    "Publ": 2047,
    "Publish": 2048,
    "Puck": 2049,
    "Put": 2050,
    "Py": 2051,
    "Pyth": 2052,
    "Q": 2053,
    "Q,": 2054,
    "Q.": 2055,
    "Q.head": 2056,
    "Q.tail": 2057,
    "QU": 2058,
    "QUE": 2059,
    "QUEU": 2060,
    "QUEUE": 2061,
    "QUIC": 2062,
    "QUICK": 2063,
    "QUICKSORT": 2064,
    "Qu": 2065,
    "R": 2066,
    "R,": 2067,
    "R-": 2068,
    "R.": 2069,
    "RA": 2070,
    "RABIN": 2071,
    "RADI": 2072,
    "RADIX-": 2073,
    "RADIX-SORT": 2074,
    "RAM": 2075,
    "RAN": 2076,
    "RAND": 2077,
    "RANDOM": 2078,
    "RANDOMIZED-": 2079,
    "RANDOMIZED-PARTITION": 2080,
    "RANDOMIZED-QUICKSORT": 2081,
    "RANDOMIZED-SELECT": 2082,
    "RANK": 2083,
    "RB-": 2084,
    "RB-DELETE": 2085,
    "RB-DELETE-": 2086,
    "RB-DELETE-FIXUP": 2087,
    "RB-INSERT": 2088,
    "RB-INSERT-": 2089,
    "RB-INSERT-FIXUP": 2090,
    "RC": 2091,
    "RC,": 2092,
    "RE": 2093,
    "RE-": 2094,
    "READ": 2095,
    "RECU": 2096,
    "RECUR": 2097,
    "RECURSI": 2098,
    "RECURSIVE": 2099,
    "RECURSIVE-": 2100,
    "RECURSIVE-ACTIVITY-SELECTOR": 2101,
    "RECURSIVE-MATRIX-CHAIN": 2102,
    "RED": 2103,
    "REDUC": 2104,
    "REDUCE": 2105,
    "RELA": 2106,
    "RELAX": 2107,
    "RI": 2108,
    "RIGH": 2109,
    "RITE": 2110,
    "RO": 2111,
    "RP": 2112,
    "RSA": 2113,
    "RT": 2114,
    "RTE": 2115,
    "RU": 2116,
    "Ra": 2117,
    "Rab": 2118,
    "Rabin": 2119,
    "Rabin-Karp": 2120,
    "Rad": 2121,
    "Ram": 2122,
    "Rand": 2123,
    "Random": 2124,
    "Randomi": 2125,
    "Randomized": 2126,
    "Rather": 2127,
    "Re": 2128,
    "Recall": 2129,
    "Recur": 2130,
    "Recursively": 2131,
    "Red": 2132,
    "Redu": 2133,
    "Ref": 2134,
    "Reg": 2135,
    "Regardless": 2136,
    "Rese": 2137,
    "Research": 2138,
    "Rewrite": 2139,
    "Rich": 2140,
    "Richard": 2141,
    "Riv": 2142,
    "Rivest": 2143,
    "Ro": 2144,
    "Robert": 2145,
    "Ronald": 2146,
    "Run": 2147,
    "S": 2148,
    "S)": 2149,
    "S,": 2150,
    "S-": 2151,
    "S-1": 2152,
    "S.": 2153,
    "S.top": 2154,
    "S1": 2155,
    "S1,": 2156,
    "S2": 2157,
    "S2,": 2158,
    "S3": 2159,
    "SA": 2160,
    "SAT": 2161,
    "SAT.": 2162,
    "SA[": 2163,
    "SA[i]": 2164,
    "SC": 2165,
    "SCAN": 2166,
    "SCC": 2167,
    "SE": 2168,
    "SEAR": 2169,
    "SEARCH": 2170,
    "SEARCH,": 2171,
    "SELE": 2172,
    "SELEC": 2173,
    "SELECT": 2174,
    "SELECT.": 2175,
    "SELECTOR": 2176,
    "SET": 2177,
    "SET,": 2178,
    "SET-": 2179,
    "SH": 2180,
    "SHAP": 2181,
    "SHAPLE": 2182,
    "SHO": 2183,
    "SHORTE": 2184,
    "SHORTEST-": 2185,
    "SHORTEST-PATH": 2186,
    "SHORTEST-PATHS": 2187,
    "SI": 2188,
    "SIAM": 2189,
    "SIG": 2190,
    "SK": 2191,
    "SO": 2192,
    "SOL": 2193,
    "SON": 2194,
    "SORT": 2195,
    "SOU": 2196,
    "SOURC": 2197,
    "SP": 2198,
    "SPLI": 2199,
    "SPLIT-": 2200,
    "SS": 2201,
    "ST": 2202,
    "ST-": 2203,
    "STR": 2204,
    "STRA": 2205,
    "SU": 2206,
    "SUB": 2207,
    "SUBSET-": 2208,
    "SUBSET-SU": 2209,
    "SUBSET-SUM": 2210,
    "SUCCESSO": 2211,
    "SUCCESSOR": 2212,
    "SUCCESSOR,": 2213,
    "SUF": 2214,
    "SUFFIX-": 2215,
    "SUFFIX-ARRAY": 2216,
    "SUM-": 2217,
    "SUM-ARRAY": 2218,
    "San": 2219,
    "Sch": 2220,
    "Schur": 2221,
    "Sci": 2222,
    "Science": 2223,
    "Science,": 2224,
    "Sciences": 2225,
    "Sciences,": 2226,
    "Se": 2227,
    "Search": 2228,
    "Searching": 2229,
    "Second": 2230,
    "Second,": 2231,
    "Section": 2232,
    "Sections": 2233,
    "Sedge": 2234,
    "Sedgewick": 2235,
    "See": 2236,
    "Sele": 2237,
    "Ser": 2238,
    "Set": 2239,
    "Several": 2240,
    "Sh": 2241,
    "Sha": 2242,
    "She": 2243,
    "Shmo": 2244,
    "Short": 2245,
    "Shortest": 2246,
    "Show": 2247,
    "Si": 2248,
    "Sij": 2249,
    "Sim": 2250,
    "Simil": 2251,
    "Similar": 2252,
    "Similarly,": 2253,
    "Since": 2254,
    "Sk": 2255,
    "Sle": 2256,
    "Sleator": 2257,
    "Sn": 2258,
    "So": 2259,
    "Soci": 2260,
    "Society": 2261,
    "Sol": 2262,
    "Solving": 2263,
    "Some": 2264,
    "Sometimes": 2265,
    "Sometimes,": 2266,
    "Sons,": 2267,
    "Sort": 2268,
    "Sorting": 2269,
    "Spec": 2270,
    "Specifically,": 2271,
    "Spr": 2272,
    "Springer,": 2273,
    "St": 2274,
    "Stack": 2275,
    "Star": 2276,
    "Start": 2277,
    "Starting": 2278,
    "State": 2279,
    "Ste": 2280,
    "Step": 2281,
    "Sti": 2282,
    "Str": 2283,
    "Strass": 2284,
    "Strassen": 2285,
    "Strassen's": 2286,
    "Stru": 2287,
    "Structures": 2288,
    "Su": 2289,
    "Sub": 2290,
    "Substit": 2291,
    "Substituting": 2292,
    "Suc": 2293,
    "Such": 2294,
    "Suggest": 2295,
    "Sum": 2296,
    "Sup": 2297,
    "Suppose": 2298,
    "Sur": 2299,
    "Sy": 2300,
    "Sym": 2301,
    "Symp": 2302,
    "Symposi": 2303,
    "Symposium": 2304,
    "System": 2305,
    "T": 2306,
    "T(i)": 2307,
    "T(n)": 2308,
    "T)": 2309,
    "T).": 2310,
    "T,": 2311,
    "T-": 2312,
    "T-RO": 2313,
    "T-ROTATE": 2314,
    "T-ROTATE(T,": 2315,
    "T.": 2316,
    "T.nil": 2317,
    "T.nil,": 2318,
    "T.nil.": 2319,
    "T.num": 2320,
    "T.root": 2321,
    "T.size": 2322,
    "T1": 2323,
    "T1(n)": 2324,
    "T1/": 2325,
    "TA": 2326,
    "TA)": 2327,
    "TABLE-": 2328,
    "TABLE-INSERT": 2329,
    "TATE": 2330,
    "TE": 2331,
    "TE-": 2332,
    "TED-": 2333,
    "TEN": 2334,
    "TER": 2335,
    "TH": 2336,
    "TI": 2337,
    "TIA": 2338,
    "TION": 2339,
    "TION-": 2340,
    "TO": 2341,
    "TOU": 2342,
    "TP": 2343,
    "TRAN": 2344,
    "TRANS": 2345,
    "TRANSPL": 2346,
    "TRANSPLANT": 2347,
    "TRANSPLANT(T,": 2348,
    "TRE": 2349,
    "TREE": 2350,
    "TREE-": 2351,
    "TREE-DELETE": 2352,
    "TREE-INSERT": 2353,
    "TREE-MINIMUM": 2354,
    "TREE-SEARCH": 2355,
    "TRU": 2356,
    "TRUE": 2357,
    "TRUE,": 2358,
    "TS": 2359,
    "TSP-": 2360,
    "TSP-TOU": 2361,
    "TY": 2362,
    "T[": 2363,
    "T[1:": 2364,
    "T[:": 2365,
    "T[:s": 2366,
    "T[SA[": 2367,
    "T[SA[rank[i": 2368,
    "T[i": 2369,
    "T[i:": 2370,
    "T[i:]": 2371,
    "T[i]": 2372,
    "T[j": 2373,
    "T[q]": 2374,
    "T[s": 2375,
    "Ta": 2376,
    "Taking": 2377,
    "Tar": 2378,
    "Tarjan": 2379,
    "Tarjan.": 2380,
    "Tech": 2381,
    "Ter": 2382,
    "Termin": 2383,
    "Termination": 2384,
    "Termination:": 2385,
    "Th": 2386,
    "That": 2387,
    "The": 2388,
    "Then": 2389,
    "Then,": 2390,
    "Theor": 2391,
    "Theore": 2392,
    "Theorem": 2393,
    "Theoretical": 2394,
    "Theory": 2395,
    "Theory,": 2396,
    "There": 2397,
    "Therefore,": 2398,
    "These": 2399,
    "They": 2400,
    "Think": 2401,
    "Thir": 2402,
    "This": 2403,
    "Thom": 2404,
    "Thor": 2405,
    "Thorup": 2406,
    "Thus": 2407,
    "Thus,": 2408,
    "Ti": 2409,
    "Tim": 2410,
    "Time": 2411,
    "To": 2412,
    "Tran": 2413,
    "Transa": 2414,
    "Transactions": 2415,
    "Tre": 2416,
    "Trees": 2417,
    "Tw": 2418,
    "Two": 2419,
    "Ty": 2420,
    "Typ": 2421,
    "Typically,": 2422,
    "T}": 2423,
    "U": 2424,
    "U,": 2425,
    "U.": 2426,
    "U.S.": 2427,
    "UC": 2428,
    "UCCESSO": 2429,
    "UCLI": 2430,
    "UL": 2431,
    "ULAR-": 2432,
    "UN": 2433,
    "UNI": 2434,
    "UNION": 2435,
    "UNION,": 2436,
    "UP-": 2437,
    "Ui": 2438,
    "Ullman": 2439,
    "Un": 2440,
    "Under": 2441,
    "Unfortunately,": 2442,
    "Uni": 2443,
    "Univers": 2444,
    "University": 2445,
    "Unlike": 2446,
    "Up": 2447,
    "Upon": 2448,
    "Use": 2449,
    "Using": 2450,
    "V": 2451,
    "V)": 2452,
    "V),": 2453,
    "V).": 2454,
    "V*": 2455,
    "V,": 2456,
    "V.": 2457,
    "V2": 2458,
    "VE": 2459,
    "VE-": 2460,
    "VER": 2461,
    "VERTE": 2462,
    "VERTEX-": 2463,
    "VERTEX-COVER": 2464,
    "VI": 2465,
    "VISI": 2466,
    "Van": 2467,
    "Var": 2468,
    "Vari": 2469,
    "Ver": 2470,
    "Vertex": 2471,
    "Vertices": 2472,
    "W": 2473,
    "W,": 2474,
    "W-": 2475,
    "W.": 2476,
    "WAL": 2477,
    "WALK": 2478,
    "WAR": 2479,
    "WEIGH": 2480,
    "WEIGHTED-": 2481,
    "WEIGHTED-MAJORI": 2482,
    "WHI": 2483,
    "WHITE": 2484,
    "WIT": 2485,
    "WITN": 2486,
    "WITNES": 2487,
    "WITNESS": 2488,
    "Wand": 2489,
    "Wanda,": 2490,
    "War": 2491,
    "Warshall": 2492,
    "We": 2493,
    "We'll": 2494,
    "Wh": 2495,
    "What": 2496,
    "When": 2497,
    "Whenever": 2498,
    "Where": 2499,
    "Which": 2500,
    "Why": 2501,
    "Why?": 2502,
    "Wi": 2503,
    "Wiley": 2504,
    "Will": 2505,
    "Willi": 2506,
    "William": 2507,
    "Williamson": 2508,
    "Win": 2509,
    "With": 2510,
    "Within": 2511,
    "Without": 2512,
    "Wor": 2513,
    "Wr": 2514,
    "Write": 2515,
    "X": 2516,
    "X,": 2517,
    "X-": 2518,
    "X.": 2519,
    "Xi": 2520,
    "Xm-1": 2521,
    "Y": 2522,
    "Y,": 2523,
    "Y-": 2524,
    "Y.": 2525,
    "You": 2526,
    "Youn": 2527,
    "Young": 2528,
    "Your": 2529,
    "Z": 2530,
    "ZE": 2531,
    "Zij": 2532,
    "[": 2533,
    "[0": 2534,
    "[0,": 2535,
    "[1": 2536,
    "[1,": 2537,
    "[10": 2538,
    "[11": 2539,
    "[13": 2540,
    "[14": 2541,
    "[15": 2542,
    "[16": 2543,
    "[17": 2544,
    "[18": 2545,
    "[19": 2546,
    "[1:": 2547,
    "[1]": 2548,
    "[2": 2549,
    "[20": 2550,
    "[23": 2551,
    "[24": 2552,
    "[25": 2553,
    "[259]": 2554,
    "[26": 2555,
    "[261]": 2556,
    "[27": 2557,
    "[28": 2558,
    "[29": 2559,
    "[2]": 2560,
    "[3": 2561,
    "[30": 2562,
    "[33": 2563,
    "[34": 2564,
    "[35": 2565,
    "[36": 2566,
    "[37": 2567,
    "[38": 2568,
    "[39": 2569,
    "[3]": 2570,
    "[4": 2571,
    "[40": 2572,
    "[43": 2573,
    "[44": 2574,
    "[45": 2575,
    "[46": 2576,
    "[5": 2577,
    "[5]": 2578,
    "[6": 2579,
    "[7": 2580,
    "[8": 2581,
    "[9": 2582,
    "[A[j]": 2583,
    "[A[j]]": 2584,
    "[X": 2585,
    "[X]": 2586,
    "[a": 2587,
    "[a]": 2588,
    "[a]n": 2589,
    "[b": 2590,
    "[i": 2591,
    "[i,": 2592,
    "[i]": 2593,
    "[i].": 2594,
    "[j]": 2595,
    "[k]": 2596,
    "[q": 2597,
    "[q]": 2598,
    "[u,": 2599,
    "[v,": 2600,
    "]": 2601,
    "],": 2602,
    "].": 2603,
    "]n": 2604,
    "_": 2605,
    "__": 2606,
    "`": 2607,
    "a": 2608,
    "a(u,": 2609,
    "a)": 2610,
    "a),": 2611,
    "a).": 2612,
    "a,": 2613,
    "a.": 2614,
    "a.freq": 2615,
    "a/": 2616,
    "a0": 2617,
    "a0,": 2618,
    "a1": 2619,
    "a1,": 2620,
    "a11": 2621,
    "a2": 2622,
    "a2,": 2623,
    "a:": 2624,
    "ab": 2625,
    "ab,": 2626,
    "abab": 2627,
    "ababa": 2628,
    "abe": 2629,
    "abil": 2630,
    "ability": 2631,
    "able": 2632,
    "able,": 2633,
    "ables": 2634,
    "ably": 2635,
    "abor": 2636,
    "about": 2637,
    "above": 2638,
    "above,": 2639,
    "above.": 2640,
    "abs": 2641,
    "absol": 2642,
    "absolute": 2643,
    "abstra": 2644,
    "abstract": 2645,
    "abuse": 2646,
    "ac": 2647,
    "accep": 2648,
    "accepted": 2649,
    "accepting": 2650,
    "accepts": 2651,
    "access": 2652,
    "accessed": 2653,
    "accesses": 2654,
    "acci": 2655,
    "accomp": 2656,
    "accompl": 2657,
    "according": 2658,
    "account": 2659,
    "accounting": 2660,
    "accumul": 2661,
    "accur": 2662,
    "ach": 2663,
    "achi": 2664,
    "achiev": 2665,
    "achieve": 2666,
    "achieved": 2667,
    "achieves": 2668,
    "ack": 2669,
    "acro": 2670,
    "across": 2671,
    "act": 2672,
    "acti": 2673,
    "action": 2674,
    "activi": 2675,
    "activities": 2676,
    "activities.": 2677,
    "activity": 2678,
    "activity-": 2679,
    "activity-selection": 2680,
    "actu": 2681,
    "actual": 2682,
    "actually": 2683,
    "acy": 2684,
    "acyclic": 2685,
    "acyclic,": 2686,
    "acyclic.": 2687,
    "ad": 2688,
    "adap": 2689,
    "add": 2690,
    "added": 2691,
    "addi": 2692,
    "adding": 2693,
    "addition": 2694,
    "addition,": 2695,
    "additional": 2696,
    "additive": 2697,
    "addres": 2698,
    "address": 2699,
    "addressing": 2700,
    "addressing,": 2701,
    "adds": 2702,
    "adjac": 2703,
    "adjacency": 2704,
    "adjacency-list": 2705,
    "adjacency-matrix": 2706,
    "adjacent": 2707,
    "adjust": 2708,
    "adop": 2709,
    "adopt": 2710,
    "adrat": 2711,
    "adv": 2712,
    "advan": 2713,
    "advance": 2714,
    "advance.": 2715,
    "advanced": 2716,
    "advanta": 2717,
    "advantage": 2718,
    "advantages": 2719,
    "advers": 2720,
    "adversary": 2721,
    "advert": 2722,
    "advertis": 2723,
    "advertising": 2724,
    "ael": 2725,
    "af": 2726,
    "affe": 2727,
    "affect": 2728,
    "after": 2729,
    "afterward": 2730,
    "afterward.": 2731,
    "ag": 2732,
    "aga": 2733,
    "aga$": 2734,
    "again": 2735,
    "again,": 2736,
    "against": 2737,
    "age": 2738,
    "agement": 2739,
    "agent": 2740,
    "ages": 2741,
    "aggregate": 2742,
    "ah": 2743,
    "ai": 2744,
    "aij": 2745,
    "aik": 2746,
    "ail": 2747,
    "ailable": 2748,
    "ain": 2749,
    "aj": 2750,
    "aj,": 2751,
    "ak": 2752,
    "ak,": 2753,
    "al": 2754,
    "al.": 2755,
    "ales": 2756,
    "alesperson": 2757,
    "algebra": 2758,
    "algebraic": 2759,
    "algorithm": 2760,
    "algorithm's": 2761,
    "algorithm,": 2762,
    "algorithm.": 2763,
    "algorithm?": 2764,
    "algorithmic": 2765,
    "algorithms": 2766,
    "algorithms,": 2767,
    "algorithms.": 2768,
    "algorithms:": 2769,
    "align": 2770,
    "ality": 2771,
    "all": 2772,
    "all,": 2773,
    "all-": 2774,
    "all-pairs": 2775,
    "all.": 2776,
    "alle": 2777,
    "allel": 2778,
    "alleli": 2779,
    "alloc": 2780,
    "allocate": 2781,
    "allow": 2782,
    "allowed": 2783,
    "allowing": 2784,
    "allows": 2785,
    "ally": 2786,
    "ally,": 2787,
    "ally.": 2788,
    "almost": 2789,
    "along": 2790,
    "alpha": 2791,
    "alphabe": 2792,
    "alphabet": 2793,
    "alphabetical": 2794,
    "already": 2795,
    "also": 2796,
    "altern": 2797,
    "alternate": 2798,
    "alternative": 2799,
    "although": 2800,
    "always": 2801,
    "am": 2802,
    "ambig": 2803,
    "ambigu": 2804,
    "ame": 2805,
    "ament": 2806,
    "amental": 2807,
    "ames": 2808,
    "ameter": 2809,
    "among": 2810,
    "amortized": 2811,
    "amoun": 2812,
    "amount": 2813,
    "amounts": 2814,
    "amp": 2815,
    "an": 2816,
    "an)": 2817,
    "an,": 2818,
    "an.": 2819,
    "an1": 2820,
    "anal": 2821,
    "analog": 2822,
    "analogous": 2823,
    "analy": 2824,
    "analys": 2825,
    "analyses": 2826,
    "analysis": 2827,
    "analysis,": 2828,
    "analysis.": 2829,
    "analyze": 2830,
    "analyzed": 2831,
    "analyzing": 2832,
    "ance": 2833,
    "anced": 2834,
    "ances": 2835,
    "ancest": 2836,
    "ancestor": 2837,
    "and": 2838,
    "and,": 2839,
    "and-": 2840,
    "ander": 2841,
    "andid": 2842,
    "ang": 2843,
    "ange": 2844,
    "angle": 2845,
    "anon": 2846,
    "anonymous": 2847,
    "another": 2848,
    "another,": 2849,
    "another.": 2850,
    "ans": 2851,
    "answ": 2852,
    "answer": 2853,
    "answer.": 2854,
    "answers": 2855,
    "ant": 2856,
    "ante": 2857,
    "anti": 2858,
    "antiparallel": 2859,
    "any": 2860,
    "any,": 2861,
    "anywhere": 2862,
    "ap": 2863,
    "app": 2864,
    "apparent": 2865,
    "appe": 2866,
    "appear": 2867,
    "appearing": 2868,
    "appears": 2869,
    "appen": 2870,
    "apping": 2871,
    "appl": 2872,
    "applic": 2873,
    "applicant": 2874,
    "application": 2875,
    "applications": 2876,
    "applications,": 2877,
    "applications.": 2878,
    "applied": 2879,
    "applies": 2880,
    "applies.": 2881,
    "apply": 2882,
    "applying": 2883,
    "appro": 2884,
    "approach": 2885,
    "approach,": 2886,
    "approach.": 2887,
    "approaches": 2888,
    "appropri": 2889,
    "appropriate": 2890,
    "approx": 2891,
    "approxi": 2892,
    "approximate": 2893,
    "approximately": 2894,
    "approximation": 2895,
    "aps": 2896,
    "apter": 2897,
    "ar": 2898,
    "arbit": 2899,
    "arbitr": 2900,
    "arbitrari": 2901,
    "arbitrarily": 2902,
    "arbitrary": 2903,
    "arch": 2904,
    "ard": 2905,
    "ardless": 2906,
    "are": 2907,
    "are.": 2908,
    "area": 2909,
    "aren": 2910,
    "arest": 2911,
    "arg": 2912,
    "argu": 2913,
    "argue": 2914,
    "argued": 2915,
    "argument": 2916,
    "argument.": 2917,
    "arguments": 2918,
    "ari": 2919,
    "aries": 2920,
    "arily": 2921,
    "aring": 2922,
    "ario": 2923,
    "aris": 2924,
    "arise": 2925,
    "arises": 2926,
    "arison": 2927,
    "arithm": 2928,
    "arithmetic": 2929,
    "ark": 2930,
    "aro": 2931,
    "around": 2932,
    "arp": 2933,
    "arra": 2934,
    "arran": 2935,
    "arrange": 2936,
    "array": 2937,
    "array,": 2938,
    "array.": 2939,
    "arrays": 2940,
    "arrays,": 2941,
    "arrays.": 2942,
    "arri": 2943,
    "arriage": 2944,
    "arrive": 2945,
    "arrives": 2946,
    "arrow": 2947,
    "arrows": 2948,
    "art": 2949,
    "artic": 2950,
    "article": 2951,
    "ary": 2952,
    "as": 2953,
    "as,": 2954,
    "as.": 2955,
    "ase": 2956,
    "ases": 2957,
    "ash": 2958,
    "asing": 2959,
    "ask": 2960,
    "asked": 2961,
    "asks": 2962,
    "ason": 2963,
    "aspe": 2964,
    "ass": 2965,
    "assi": 2966,
    "assign": 2967,
    "assigned": 2968,
    "assigning": 2969,
    "assignment": 2970,
    "assignment.": 2971,
    "assignments": 2972,
    "assigns": 2973,
    "assistant": 2974,
    "associ": 2975,
    "associated": 2976,
    "associative": 2977,
    "assu": 2978,
    "assume": 2979,
    "assumed": 2980,
    "assumes": 2981,
    "assuming": 2982,
    "assumption": 2983,
    "assumptions": 2984,
    "ast": 2985,
    "asymptotic": 2986,
    "asymptotically": 2987,
    "at": 2988,
    "ata": 2989,
    "atat": 2990,
    "ate": 2991,
    "ated": 2992,
    "ately": 2993,
    "ately,": 2994,
    "ater": 2995,
    "ates": 2996,
    "ates,": 2997,
    "ates.": 2998,
    "ath": 2999,
    "ating": 3000,
    "ation": 3001,
    "ation,": 3002,
    "ation.": 3003,
    "ational": 3004,
    "ations": 3005,
    "ations.": 3006,
    "atis": 3007,
    "atistic": 3008,
    "ativ": 3009,
    "ative": 3010,
    "ativity": 3011,
    "ator": 3012,
    "atorial": 3013,
    "attemp": 3014,
    "attempt": 3015,
    "atten": 3016,
    "attention": 3017,
    "attribut": 3018,
    "attribute": 3019,
    "attribute.": 3020,
    "attributes": 3021,
    "attributes.": 3022,
    "ature": 3023,
    "au": 3024,
    "augment": 3025,
    "augmented": 3026,
    "augmenting": 3027,
    "auth": 3028,
    "authen": 3029,
    "authentic": 3030,
    "authentication": 3031,
    "authors": 3032,
    "auto": 3033,
    "automat": 3034,
    "automatically": 3035,
    "automaton": 3036,
    "automobile": 3037,
    "aux": 3038,
    "auxili": 3039,
    "auxiliary": 3040,
    "av": 3041,
    "available": 3042,
    "average": 3043,
    "average,": 3044,
    "average-case": 3045,
    "avo": 3046,
    "avoid": 3047,
    "ax": 3048,
    "axi": 3049,
    "axiom": 3050,
    "ay": 3051,
    "b": 3052,
    "b(k": 3053,
    "b(k;": 3054,
    "b)": 3055,
    "b),": 3056,
    "b).": 3057,
    "b,": 3058,
    "b-bit": 3059,
    "b.": 3060,
    "b1,": 3061,
    "b2,": 3062,
    "b:": 3063,
    "b[i,": 3064,
    "ba": 3065,
    "back": 3066,
    "background": 3067,
    "backward": 3068,
    "bad": 3069,
    "bag": 3070,
    "bal": 3071,
    "balance": 3072,
    "balanced": 3073,
    "balanced.": 3074,
    "ball": 3075,
    "balls": 3076,
    "bas": 3077,
    "base": 3078,
    "based": 3079,
    "basic": 3080,
    "basis": 3081,
    "be": 3082,
    "bear": 3083,
    "beat": 3084,
    "because": 3085,
    "become": 3086,
    "becomes": 3087,
    "been": 3088,
    "before": 3089,
    "before,": 3090,
    "begin": 3091,
    "beginning": 3092,
    "begins": 3093,
    "beha": 3094,
    "behavi": 3095,
    "behavior": 3096,
    "behind": 3097,
    "being": 3098,
    "belong": 3099,
    "belongs": 3100,
    "below": 3101,
    "ben": 3102,
    "bene": 3103,
    "ber": 3104,
    "berg": 3105,
    "bert": 3106,
    "best": 3107,
    "best-case": 3108,
    "bet": 3109,
    "better": 3110,
    "between": 3111,
    "bey": 3112,
    "beyond": 3113,
    "bh": 3114,
    "bh(x)": 3115,
    "bi": 3116,
    "bi,": 3117,
    "bi,1": 3118,
    "bic": 3119,
    "biconne": 3120,
    "biconnected": 3121,
    "big": 3122,
    "bil": 3123,
    "bility": 3124,
    "bin": 3125,
    "binary": 3126,
    "binary-search": 3127,
    "binary-search-tree": 3128,
    "bine": 3129,
    "binomial": 3130,
    "bins": 3131,
    "bipartite": 3132,
    "birth": 3133,
    "birthday": 3134,
    "birthdays": 3135,
    "bit": 3136,
    "bitonic": 3137,
    "bits": 3138,
    "bits,": 3139,
    "bits.": 3140,
    "bj": 3141,
    "bl": 3142,
    "black": 3143,
    "black,": 3144,
    "black-": 3145,
    "black-height": 3146,
    "black.": 3147,
    "ble": 3148,
    "bles": 3149,
    "block": 3150,
    "block.": 3151,
    "blocking": 3152,
    "blocks": 3153,
    "blocks,": 3154,
    "blocks.": 3155,
    "blue": 3156,
    "blue,": 3157,
    "blue.": 3158,
    "bly": 3159,
    "bm": 3160,
    "bn": 3161,
    "bo": 3162,
    "bod": 3163,
    "body": 3164,
    "boo": 3165,
    "book": 3166,
    "book,": 3167,
    "book.": 3168,
    "books": 3169,
    "boolean": 3170,
    "bot": 3171,
    "both": 3172,
    "bottleneck": 3173,
    "bottom": 3174,
    "bottom-up": 3175,
    "bound": 3176,
    "bound,": 3177,
    "bound.": 3178,
    "boundary": 3179,
    "bounded": 3180,
    "bounding": 3181,
    "bounds": 3182,
    "bounds.": 3183,
    "box": 3184,
    "br": 3185,
    "bra": 3186,
    "brac": 3187,
    "bran": 3188,
    "branching": 3189,
    "brea": 3190,
    "bread": 3191,
    "breadth-first": 3192,
    "break": 3193,
    "breaking": 3194,
    "breaks": 3195,
    "bri": 3196,
    "brid": 3197,
    "bridge": 3198,
    "brief": 3199,
    "bro": 3200,
    "bu": 3201,
    "bucket": 3202,
    "buil": 3203,
    "build": 3204,
    "building": 3205,
    "built": 3206,
    "but": 3207,
    "bution": 3208,
    "butter": 3209,
    "butterf": 3210,
    "butterfly": 3211,
    "buy": 3212,
    "by": 3213,
    "byt": 3214,
    "bytes": 3215,
    "c": 3216,
    "c(": 3217,
    "c(u,": 3218,
    "c)": 3219,
    "c,": 3220,
    "c.": 3221,
    "c1": 3222,
    "c1,": 3223,
    "c1n": 3224,
    "c2": 3225,
    "c5": 3226,
    "cT": 3227,
    "c[i": 3228,
    "c[i,": 3229,
    "ca": 3230,
    "cach": 3231,
    "cache": 3232,
    "cache,": 3233,
    "cache.": 3234,
    "caching": 3235,
    "cal": 3236,
    "calcul": 3237,
    "calculate": 3238,
    "calculation": 3239,
    "call": 3240,
    "call,": 3241,
    "call.": 3242,
    "calle": 3243,
    "called": 3244,
    "calling": 3245,
    "calls": 3246,
    "calls,": 3247,
    "calls.": 3248,
    "came": 3249,
    "can": 3250,
    "can,": 3251,
    "candid": 3252,
    "candidate": 3253,
    "candidates": 3254,
    "cannot": 3255,
    "cap": 3256,
    "capa": 3257,
    "capaci": 3258,
    "capacities": 3259,
    "capacity": 3260,
    "capacity.": 3261,
    "capital": 3262,
    "capt": 3263,
    "capture": 3264,
    "car": 3265,
    "card": 3266,
    "cardin": 3267,
    "cardinality": 3268,
    "cards": 3269,
    "care": 3270,
    "careful": 3271,
    "carri": 3272,
    "carry": 3273,
    "cas": 3274,
    "case": 3275,
    "case,": 3276,
    "case.": 3277,
    "cases": 3278,
    "cases,": 3279,
    "cases.": 3280,
    "casion": 3281,
    "cast": 3282,
    "cat": 3283,
    "cate": 3284,
    "categor": 3285,
    "caten": 3286,
    "cause": 3287,
    "caused": 3288,
    "causes": 3289,
    "cc": 3290,
    "ce": 3291,
    "ced": 3292,
    "ceed": 3293,
    "ceedings": 3294,
    "ceil": 3295,
    "ceiling": 3296,
    "ceilings": 3297,
    "cell": 3298,
    "cend": 3299,
    "cent": 3300,
    "center": 3301,
    "centers": 3302,
    "centr": 3303,
    "centroid": 3304,
    "cep": 3305,
    "cept": 3306,
    "ception": 3307,
    "cer": 3308,
    "certain": 3309,
    "certainly": 3310,
    "certific": 3311,
    "certificate": 3312,
    "ces": 3313,
    "cess": 3314,
    "cf": 3315,
    "cg(n)": 3316,
    "ch": 3317,
    "chain": 3318,
    "chaining": 3319,
    "chains": 3320,
    "chan": 3321,
    "chance": 3322,
    "chang": 3323,
    "change": 3324,
    "change,": 3325,
    "change.": 3326,
    "changed": 3327,
    "changes": 3328,
    "changes.": 3329,
    "changing": 3330,
    "chapter": 3331,
    "chapter,": 3332,
    "chapter.": 3333,
    "chapters": 3334,
    "char": 3335,
    "charact": 3336,
    "character": 3337,
    "characteristic": 3338,
    "characterize": 3339,
    "characterizes": 3340,
    "characters": 3341,
    "characters,": 3342,
    "characters.": 3343,
    "charge": 3344,
    "charges": 3345,
    "che": 3346,
    "check": 3347,
    "checking": 3348,
    "checks": 3349,
    "ched": 3350,
    "ches": 3351,
    "child": 3352,
    "child,": 3353,
    "child.": 3354,
    "children": 3355,
    "children,": 3356,
    "children.": 3357,
    "ching": 3358,
    "chips": 3359,
    "cho": 3360,
    "choic": 3361,
    "choice": 3362,
    "choice,": 3363,
    "choice.": 3364,
    "choices": 3365,
    "choices.": 3366,
    "choo": 3367,
    "choose": 3368,
    "chooses": 3369,
    "choosing": 3370,
    "chop": 3371,
    "chose": 3372,
    "chosen": 3373,
    "chosen,": 3374,
    "chotom": 3375,
    "ci": 3376,
    "cial": 3377,
    "cij": 3378,
    "cil": 3379,
    "cing": 3380,
    "ciph": 3381,
    "cipher": 3382,
    "cir": 3383,
    "circle": 3384,
    "circles": 3385,
    "circu": 3386,
    "circuit": 3387,
    "circuit,": 3388,
    "circuit-": 3389,
    "circuit-satisfiability": 3390,
    "circular": 3391,
    "cis": 3392,
    "cise": 3393,
    "cision": 3394,
    "city": 3395,
    "cj": 3396,
    "ck": 3397,
    "cket": 3398,
    "cl": 3399,
    "cla": 3400,
    "claim": 3401,
    "claims": 3402,
    "class": 3403,
    "classes": 3404,
    "classi": 3405,
    "classify": 3406,
    "claus": 3407,
    "clause": 3408,
    "clause,": 3409,
    "clauses": 3410,
    "cle": 3411,
    "clean": 3412,
    "clear": 3413,
    "cles": 3414,
    "clever": 3415,
    "cli": 3416,
    "clic": 3417,
    "clique": 3418,
    "clo": 3419,
    "clos": 3420,
    "close": 3421,
    "closed": 3422,
    "closely": 3423,
    "closer": 3424,
    "closest": 3425,
    "closure": 3426,
    "clu": 3427,
    "clude": 3428,
    "clusion": 3429,
    "clust": 3430,
    "cluster": 3431,
    "clustering": 3432,
    "clusters": 3433,
    "cn": 3434,
    "cn2": 3435,
    "co": 3436,
    "co-": 3437,
    "code": 3438,
    "code,": 3439,
    "code.": 3440,
    "codes": 3441,
    "codeword": 3442,
    "coding": 3443,
    "coefficient": 3444,
    "coefficients": 3445,
    "coin": 3446,
    "coins": 3447,
    "col": 3448,
    "coll": 3449,
    "colle": 3450,
    "collection": 3451,
    "collide": 3452,
    "collision": 3453,
    "collisions": 3454,
    "colo": 3455,
    "color": 3456,
    "colored": 3457,
    "coloring": 3458,
    "colors": 3459,
    "colum": 3460,
    "column": 3461,
    "column-": 3462,
    "column-major": 3463,
    "column.": 3464,
    "columns": 3465,
    "columns.": 3466,
    "columnsort": 3467,
    "com": 3468,
    "combin": 3469,
    "combination": 3470,
    "combinational": 3471,
    "combinatorial": 3472,
    "combine": 3473,
    "combined": 3474,
    "combining": 3475,
    "come": 3476,
    "comes": 3477,
    "coming": 3478,
    "comm": 3479,
    "commod": 3480,
    "commodity": 3481,
    "common": 3482,
    "common-": 3483,
    "commonly": 3484,
    "commun": 3485,
    "commut": 3486,
    "comp": 3487,
    "compact": 3488,
    "company": 3489,
    "compare": 3490,
    "compare-": 3491,
    "compare-exchange": 3492,
    "compared": 3493,
    "compares": 3494,
    "comparing": 3495,
    "comparison": 3496,
    "comparison-based": 3497,
    "comparisons": 3498,
    "comparisons.": 3499,
    "compat": 3500,
    "compatible": 3501,
    "compe": 3502,
    "competitive": 3503,
    "compil": 3504,
    "complement": 3505,
    "complet": 3506,
    "complete": 3507,
    "completed": 3508,
    "completes": 3509,
    "completing": 3510,
    "completion": 3511,
    "complex": 3512,
    "complexity": 3513,
    "complic": 3514,
    "complicated": 3515,
    "complicated,": 3516,
    "compo": 3517,
    "component": 3518,
    "component.": 3519,
    "components": 3520,
    "components.": 3521,
    "compos": 3522,
    "compose": 3523,
    "composit": 3524,
    "composite": 3525,
    "composite,": 3526,
    "composite.": 3527,
    "compositeness": 3528,
    "composition": 3529,
    "compres": 3530,
    "compression": 3531,
    "compression.": 3532,
    "compris": 3533,
    "comprises": 3534,
    "comput": 3535,
    "computation": 3536,
    "computation,": 3537,
    "computation.": 3538,
    "computational": 3539,
    "computations": 3540,
    "compute": 3541,
    "computed": 3542,
    "computed.": 3543,
    "computer": 3544,
    "computer,": 3545,
    "computer.": 3546,
    "computers": 3547,
    "computers,": 3548,
    "computes": 3549,
    "computing": 3550,
    "con": 3551,
    "concaten": 3552,
    "concep": 3553,
    "concept": 3554,
    "concepts": 3555,
    "concer": 3556,
    "concern": 3557,
    "conclude": 3558,
    "concrete": 3559,
    "cond": 3560,
    "condition": 3561,
    "condition.": 3562,
    "conditional": 3563,
    "conditions": 3564,
    "conf": 3565,
    "config": 3566,
    "configur": 3567,
    "configuration": 3568,
    "configurations": 3569,
    "conje": 3570,
    "conjun": 3571,
    "conne": 3572,
    "connect": 3573,
    "connected": 3574,
    "connected,": 3575,
    "connecting": 3576,
    "connectivity": 3577,
    "connects": 3578,
    "conquer": 3579,
    "conse": 3580,
    "consecu": 3581,
    "consecutive": 3582,
    "conserv": 3583,
    "conservation": 3584,
    "conside": 3585,
    "consider": 3586,
    "considered": 3587,
    "considering": 3588,
    "considers": 3589,
    "consist": 3590,
    "consistent": 3591,
    "consisting": 3592,
    "consists": 3593,
    "const": 3594,
    "constant": 3595,
    "constant,": 3596,
    "constant.": 3597,
    "constants": 3598,
    "constants.": 3599,
    "constit": 3600,
    "constra": 3601,
    "constrain": 3602,
    "constrained": 3603,
    "constraint": 3604,
    "constraint,": 3605,
    "constraints": 3606,
    "constraints,": 3607,
    "constraints.": 3608,
    "constru": 3609,
    "construct": 3610,
    "constructed": 3611,
    "constructing": 3612,
    "construction": 3613,
    "constructs": 3614,
    "cont": 3615,
    "contain": 3616,
    "contained": 3617,
    "containing": 3618,
    "contains": 3619,
    "contents": 3620,
    "context": 3621,
    "conti": 3622,
    "contigu": 3623,
    "contiguous": 3624,
    "contin": 3625,
    "continu": 3626,
    "continue": 3627,
    "continues": 3628,
    "continuous": 3629,
    "contra": 3630,
    "contract": 3631,
    "contracting": 3632,
    "contraction": 3633,
    "contradi": 3634,
    "contradicting": 3635,
    "contradiction": 3636,
    "contradiction.": 3637,
    "contradicts": 3638,
    "contrapositive": 3639,
    "contrast": 3640,
    "contrast,": 3641,
    "contribut": 3642,
    "contributes": 3643,
    "control": 3644,
    "conve": 3645,
    "conven": 3646,
    "conveni": 3647,
    "convenience,": 3648,
    "convenient": 3649,
    "convention": 3650,
    "convention,": 3651,
    "conver": 3652,
    "converg": 3653,
    "converse": 3654,
    "convert": 3655,
    "converted": 3656,
    "converting": 3657,
    "convex": 3658,
    "coordin": 3659,
    "coordinate": 3660,
    "cop": 3661,
    "copied": 3662,
    "copies": 3663,
    "copy": 3664,
    "copying": 3665,
    "cor": 3666,
    "cording": 3667,
    "core": 3668,
    "corollary": 3669,
    "corpor": 3670,
    "correct": 3671,
    "correct,": 3672,
    "correct.": 3673,
    "correctly": 3674,
    "correctly.": 3675,
    "correctness": 3676,
    "correspon": 3677,
    "correspond": 3678,
    "correspondence": 3679,
    "corresponding": 3680,
    "corresponds": 3681,
    "cost": 3682,
    "cost,": 3683,
    "cost.": 3684,
    "costs": 3685,
    "costs.": 3686,
    "cou": 3687,
    "could": 3688,
    "coun": 3689,
    "count": 3690,
    "counte": 3691,
    "counter": 3692,
    "countere": 3693,
    "counterexa": 3694,
    "counterexample": 3695,
    "counting": 3696,
    "counts": 3697,
    "cour": 3698,
    "course": 3699,
    "course,": 3700,
    "cove": 3701,
    "cover": 3702,
    "cover,": 3703,
    "cover.": 3704,
    "covered": 3705,
    "covering": 3706,
    "covers": 3707,
    "cr": 3708,
    "crates": 3709,
    "cre": 3710,
    "create": 3711,
    "created": 3712,
    "creates": 3713,
    "creating": 3714,
    "cred": 3715,
    "credit": 3716,
    "crete": 3717,
    "cri": 3718,
    "crip": 3719,
    "critical": 3720,
    "cro": 3721,
    "cros": 3722,
    "cross": 3723,
    "crosses": 3724,
    "crossing": 3725,
    "cryp": 3726,
    "crypto": 3727,
    "cryptograph": 3728,
    "cryptographic": 3729,
    "cryptosystem": 3730,
    "ct": 3731,
    "cted": 3732,
    "cti": 3733,
    "cting": 3734,
    "ction": 3735,
    "ctions": 3736,
    "ctive": 3737,
    "ctivity": 3738,
    "ctly": 3739,
    "ctor": 3740,
    "ctors": 3741,
    "cts": 3742,
    "cture": 3743,
    "ctures": 3744,
    "cu": 3745,
    "cul": 3746,
    "cular": 3747,
    "cum": 3748,
    "cumul": 3749,
    "cur": 3750,
    "curren": 3751,
    "current": 3752,
    "currently": 3753,
    "curve": 3754,
    "cus": 3755,
    "cut": 3756,
    "cut.": 3757,
    "cuts": 3758,
    "cutting": 3759,
    "cy": 3760,
    "cycl": 3761,
    "cycle": 3762,
    "cycle,": 3763,
    "cycle.": 3764,
    "cycles": 3765,
    "cycles,": 3766,
    "cycles.": 3767,
    "cyclic": 3768,
    "d": 3769,
    "d)": 3770,
    "d,": 3771,
    "d-": 3772,
    "d-ary": 3773,
    "d-dimensional": 3774,
    "d.": 3775,
    "dT": 3776,
    "da": 3777,
    "dag": 3778,
    "dat": 3779,
    "data": 3780,
    "data,": 3781,
    "data.": 3782,
    "datab": 3783,
    "date": 3784,
    "dating": 3785,
    "day": 3786,
    "day,": 3787,
    "day.": 3788,
    "days": 3789,
    "de": 3790,
    "deal": 3791,
    "dec": 3792,
    "decess": 3793,
    "deci": 3794,
    "decide": 3795,
    "decides": 3796,
    "decimal": 3797,
    "decision": 3798,
    "decisions": 3799,
    "deck": 3800,
    "decompose": 3801,
    "decomposition": 3802,
    "decomposition.": 3803,
    "decre": 3804,
    "decreas": 3805,
    "decrease": 3806,
    "decreases": 3807,
    "decreases.": 3808,
    "decreasing": 3809,
    "decryp": 3810,
    "ded": 3811,
    "defin": 3812,
    "define": 3813,
    "defined": 3814,
    "defined,": 3815,
    "defined.": 3816,
    "defines": 3817,
    "defining": 3818,
    "definite": 3819,
    "definition": 3820,
    "definition,": 3821,
    "definitions": 3822,
    "degree": 3823,
    "degree-bound": 3824,
    "del": 3825,
    "delet": 3826,
    "delete": 3827,
    "deleted": 3828,
    "deletes": 3829,
    "deleting": 3830,
    "deletion": 3831,
    "deletions": 3832,
    "dem": 3833,
    "demand": 3834,
    "demon": 3835,
    "demonstr": 3836,
    "demonstrates": 3837,
    "demonstrating": 3838,
    "den": 3839,
    "dence": 3840,
    "deno": 3841,
    "denomin": 3842,
    "denot": 3843,
    "denote": 3844,
    "denoted": 3845,
    "denotes": 3846,
    "denoting": 3847,
    "dens": 3848,
    "dense": 3849,
    "dent": 3850,
    "dep": 3851,
    "depend": 3852,
    "dependent": 3853,
    "depending": 3854,
    "depends": 3855,
    "depth": 3856,
    "depth-first": 3857,
    "dequeu": 3858,
    "der": 3859,
    "dered": 3860,
    "deriv": 3861,
    "derivative": 3862,
    "derive": 3863,
    "derived": 3864,
    "dern": 3865,
    "ders": 3866,
    "des": 3867,
    "descend": 3868,
    "descendant": 3869,
    "descent": 3870,
    "descent.": 3871,
    "descri": 3872,
    "describ": 3873,
    "describe": 3874,
    "described": 3875,
    "describes": 3876,
    "describing": 3877,
    "description": 3878,
    "desi": 3879,
    "desig": 3880,
    "design": 3881,
    "designed": 3882,
    "designing": 3883,
    "desira": 3884,
    "desirable": 3885,
    "desired": 3886,
    "dest": 3887,
    "destro": 3888,
    "det": 3889,
    "detail": 3890,
    "details": 3891,
    "dete": 3892,
    "determin": 3893,
    "determinacy": 3894,
    "determinant": 3895,
    "determine": 3896,
    "determined": 3897,
    "determines": 3898,
    "determining": 3899,
    "deterministic": 3900,
    "dev": 3901,
    "develop": 3902,
    "developed": 3903,
    "developing": 3904,
    "di": 3905,
    "dia": 3906,
    "diag": 3907,
    "diagonal": 3908,
    "diagra": 3909,
    "diagram": 3910,
    "dic": 3911,
    "dice": 3912,
    "diction": 3913,
    "dictionary": 3914,
    "did": 3915,
    "dient": 3916,
    "dif": 3917,
    "diffe": 3918,
    "differ": 3919,
    "difference": 3920,
    "differences": 3921,
    "different": 3922,
    "differently": 3923,
    "differs": 3924,
    "diffic": 3925,
    "difficul": 3926,
    "difficult": 3927,
    "dig": 3928,
    "digit": 3929,
    "digital": 3930,
    "digits": 3931,
    "dimen": 3932,
    "dimension": 3933,
    "dimensional": 3934,
    "dimensions": 3935,
    "ding": 3936,
    "dire": 3937,
    "direct": 3938,
    "direct-address": 3939,
    "directed": 3940,
    "direction": 3941,
    "directions": 3942,
    "directly": 3943,
    "dis": 3944,
    "discover": 3945,
    "discovered": 3946,
    "discovered,": 3947,
    "discovered.": 3948,
    "discovers": 3949,
    "discovery": 3950,
    "discrete": 3951,
    "discus": 3952,
    "discuss": 3953,
    "discussed": 3954,
    "discusses": 3955,
    "discussion": 3956,
    "disjoint": 3957,
    "disjoint,": 3958,
    "disjoint-set": 3959,
    "disk": 3960,
    "dist": 3961,
    "distance": 3962,
    "distances": 3963,
    "distin": 3964,
    "distinct": 3965,
    "distinct,": 3966,
    "distinct.": 3967,
    "distingu": 3968,
    "distinguish": 3969,
    "distinguished": 3970,
    "distri": 3971,
    "distribut": 3972,
    "distributed": 3973,
    "distribution": 3974,
    "distribution.": 3975,
    "dition": 3976,
    "divi": 3977,
    "divide": 3978,
    "divide-": 3979,
    "divide-and-": 3980,
    "divide-and-conquer": 3981,
    "divided": 3982,
    "divides": 3983,
    "dividing": 3984,
    "divis": 3985,
    "divisible": 3986,
    "division": 3987,
    "divisor": 3988,
    "divisors": 3989,
    "dix": 3990,
    "dle": 3991,
    "do": 3992,
    "do,": 3993,
    "do.": 3994,
    "doc": 3995,
    "document": 3996,
    "does": 3997,
    "does,": 3998,
    "doesn't": 3999,
    "doing": 4000,
    "doll": 4001,
    "dollar": 4002,
    "dollars": 4003,
    "domain": 4004,
    "domin": 4005,
    "dominates": 4006,
    "don't": 4007,
    "done": 4008,
    "done.": 4009,
    "door": 4010,
    "dou": 4011,
    "double": 4012,
    "doubly": 4013,
    "dow": 4014,
    "down": 4015,
    "down,": 4016,
    "downto": 4017,
    "downward": 4018,
    "dra": 4019,
    "dramat": 4020,
    "draw": 4021,
    "drawn": 4022,
    "dri": 4023,
    "drive": 4024,
    "drives": 4025,
    "driving": 4026,
    "dro": 4027,
    "drop": 4028,
    "drops": 4029,
    "ds": 4030,
    "du": 4031,
    "dual": 4032,
    "duality": 4033,
    "due": 4034,
    "dum": 4035,
    "dummy": 4036,
    "during": 4037,
    "dynam": 4038,
    "dynamic": 4039,
    "dynamic-programming": 4040,
    "dynamic-set": 4041,
    "e": 4042,
    "e,": 4043,
    "e.": 4044,
    "e1": 4045,
    "e2": 4046,
    "e[i,": 4047,
    "each": 4048,
    "each.": 4049,
    "ear": 4050,
    "earli": 4051,
    "earlier": 4052,
    "earlier.": 4053,
    "earliest": 4054,
    "early": 4055,
    "eas": 4056,
    "ease": 4057,
    "easi": 4058,
    "easier": 4059,
    "easily": 4060,
    "easy": 4061,
    "ech": 4062,
    "ed": 4063,
    "ed,": 4064,
    "ed.": 4065,
    "edge": 4066,
    "edge,": 4067,
    "edge.": 4068,
    "edges": 4069,
    "edges,": 4070,
    "edges.": 4071,
    "edi": 4072,
    "edit": 4073,
    "edition": 4074,
    "edition,": 4075,
    "editor": 4076,
    "editors,": 4077,
    "editors.": 4078,
    "edy": 4079,
    "ef": 4080,
    "effe": 4081,
    "effect": 4082,
    "effective": 4083,
    "efficiency": 4084,
    "efficient": 4085,
    "efficiently": 4086,
    "efficiently.": 4087,
    "eight": 4088,
    "either": 4089,
    "el": 4090,
    "eld": 4091,
    "ele": 4092,
    "elect": 4093,
    "electronic": 4094,
    "element": 4095,
    "element,": 4096,
    "element.": 4097,
    "elementary": 4098,
    "elements": 4099,
    "elements,": 4100,
    "elements.": 4101,
    "elev": 4102,
    "elevator": 4103,
    "elic": 4104,
    "elim": 4105,
    "elimin": 4106,
    "ell": 4107,
    "else": 4108,
    "elseif": 4109,
    "em": 4110,
    "emp": 4111,
    "employ": 4112,
    "empty": 4113,
    "empty,": 4114,
    "empty.": 4115,
    "en": 4116,
    "en,": 4117,
    "ence": 4118,
    "ence,": 4119,
    "ences": 4120,
    "enci": 4121,
    "enco": 4122,
    "encoded": 4123,
    "encoding": 4124,
    "encoding,": 4125,
    "encodings": 4126,
    "encounte": 4127,
    "encounter": 4128,
    "encountered": 4129,
    "encryp": 4130,
    "encryption": 4131,
    "ency": 4132,
    "end": 4133,
    "end,": 4134,
    "ending": 4135,
    "endpoint": 4136,
    "endpoints": 4137,
    "ends": 4138,
    "ene": 4139,
    "ener": 4140,
    "eness": 4141,
    "enforce": 4142,
    "eng": 4143,
    "engag": 4144,
    "engaged": 4145,
    "engaged,": 4146,
    "engagement": 4147,
    "engine": 4148,
    "enough": 4149,
    "enqueu": 4150,
    "enqueued": 4151,
    "ens": 4152,
    "ensive": 4153,
    "ensu": 4154,
    "ensure": 4155,
    "ensures": 4156,
    "ent": 4157,
    "entail": 4158,
    "enter": 4159,
    "entering": 4160,
    "enters": 4161,
    "enti": 4162,
    "ential": 4163,
    "entially": 4164,
    "entire": 4165,
    "entirely": 4166,
    "entri": 4167,
    "entries": 4168,
    "entry": 4169,
    "ents": 4170,
    "enum": 4171,
    "enumer": 4172,
    "envir": 4173,
    "environ": 4174,
    "environment": 4175,
    "ep": 4176,
    "epoch": 4177,
    "epoch,": 4178,
    "equ": 4179,
    "equal": 4180,
    "equal.": 4181,
    "equality": 4182,
    "equally": 4183,
    "equals": 4184,
    "equation": 4185,
    "equations": 4186,
    "equations.": 4187,
    "equi": 4188,
    "equival": 4189,
    "equivalence": 4190,
    "equivalent": 4191,
    "equivalently,": 4192,
    "er": 4193,
    "er,": 4194,
    "er.": 4195,
    "ercis": 4196,
    "ered": 4197,
    "erge": 4198,
    "ering": 4199,
    "erman": 4200,
    "ero": 4201,
    "err": 4202,
    "error": 4203,
    "errors": 4204,
    "ers": 4205,
    "ers,": 4206,
    "erson": 4207,
    "es": 4208,
    "es,": 4209,
    "es.": 4210,
    "ese": 4211,
    "esley,": 4212,
    "espe": 4213,
    "especi": 4214,
    "especially": 4215,
    "ess": 4216,
    "ess,": 4217,
    "ess.": 4218,
    "essential": 4219,
    "est": 4220,
    "establ": 4221,
    "establish": 4222,
    "established": 4223,
    "esti": 4224,
    "estimat": 4225,
    "estimate": 4226,
    "estimates": 4227,
    "et": 4228,
    "etti": 4229,
    "ety": 4230,
    "euclidean": 4231,
    "ev": 4232,
    "evalu": 4233,
    "evaluate": 4234,
    "evaluates": 4235,
    "evaluating": 4236,
    "evaluation": 4237,
    "eve": 4238,
    "even": 4239,
    "even,": 4240,
    "event": 4241,
    "events": 4242,
    "events.": 4243,
    "eventually": 4244,
    "ever": 4245,
    "every": 4246,
    "everyone": 4247,
    "evi": 4248,
    "evict": 4249,
    "evicted": 4250,
    "evicted.": 4251,
    "evicts": 4252,
    "ew": 4253,
    "ex": 4254,
    "exa": 4255,
    "exact": 4256,
    "exactly": 4257,
    "examin": 4258,
    "examine": 4259,
    "examined": 4260,
    "examines": 4261,
    "examining": 4262,
    "examp": 4263,
    "example": 4264,
    "example,": 4265,
    "example.": 4266,
    "examples": 4267,
    "examples.": 4268,
    "exceed": 4269,
    "exceeds": 4270,
    "excell": 4271,
    "excellent": 4272,
    "except": 4273,
    "exception": 4274,
    "exchange": 4275,
    "exchanging": 4276,
    "exclu": 4277,
    "exclusive": 4278,
    "exe": 4279,
    "exec": 4280,
    "execut": 4281,
    "execute": 4282,
    "executed": 4283,
    "executed.": 4284,
    "executes": 4285,
    "executes,": 4286,
    "executing": 4287,
    "execution": 4288,
    "exercis": 4289,
    "exha": 4290,
    "exhi": 4291,
    "exhibits": 4292,
    "exist": 4293,
    "exist,": 4294,
    "exist.": 4295,
    "existence": 4296,
    "existing": 4297,
    "exists": 4298,
    "exists,": 4299,
    "exists.": 4300,
    "exit": 4301,
    "exp": 4302,
    "expan": 4303,
    "expand": 4304,
    "expands": 4305,
    "expansion": 4306,
    "expe": 4307,
    "expect": 4308,
    "expectation": 4309,
    "expectation,": 4310,
    "expected": 4311,
    "expensive": 4312,
    "exper": 4313,
    "experim": 4314,
    "experiment": 4315,
    "expert": 4316,
    "experts": 4317,
    "explain": 4318,
    "explic": 4319,
    "explicit": 4320,
    "explicitly": 4321,
    "explo": 4322,
    "explore": 4323,
    "explores": 4324,
    "expon": 4325,
    "exponential": 4326,
    "exponential-time": 4327,
    "expres": 4328,
    "express": 4329,
    "expressed": 4330,
    "expression": 4331,
    "expressions": 4332,
    "ext": 4333,
    "exten": 4334,
    "extend": 4335,
    "extended": 4336,
    "extends": 4337,
    "extension": 4338,
    "extensive": 4339,
    "extra": 4340,
    "extracted": 4341,
    "extre": 4342,
    "extreme": 4343,
    "extremely": 4344,
    "f": 4345,
    "f(": 4346,
    "f(C)": 4347,
    "f(S,": 4348,
    "f(x": 4349,
    "f(x)": 4350,
    "f(x*)": 4351,
    "f)": 4352,
    "f,": 4353,
    "f.": 4354,
    "fa": 4355,
    "fac": 4356,
    "face": 4357,
    "facing": 4358,
    "fact": 4359,
    "fact,": 4360,
    "factor": 4361,
    "factor,": 4362,
    "factor.": 4363,
    "factoring": 4364,
    "factorization": 4365,
    "factors": 4366,
    "fail": 4367,
    "fails": 4368,
    "failure": 4369,
    "fair": 4370,
    "fall": 4371,
    "falls": 4372,
    "fam": 4373,
    "fami": 4374,
    "famili": 4375,
    "familiar": 4376,
    "family": 4377,
    "far": 4378,
    "far.": 4379,
    "fash": 4380,
    "fashion": 4381,
    "fast": 4382,
    "faster": 4383,
    "faster.": 4384,
    "fastest": 4385,
    "fav": 4386,
    "favor": 4387,
    "fe": 4388,
    "feas": 4389,
    "feasible": 4390,
    "feature": 4391,
    "fect": 4392,
    "fee": 4393,
    "feed": 4394,
    "fer": 4395,
    "ference": 4396,
    "fers": 4397,
    "few": 4398,
    "fewer": 4399,
    "fewest": 4400,
    "ff": 4401,
    "fficient": 4402,
    "ffman": 4403,
    "fi": 4404,
    "fic": 4405,
    "fici": 4406,
    "ficiency": 4407,
    "ficient": 4408,
    "field": 4409,
    "fies": 4410,
    "figure": 4411,
    "figure,": 4412,
    "fil": 4413,
    "file": 4414,
    "fill": 4415,
    "filled": 4416,
    "fills": 4417,
    "fin": 4418,
    "final": 4419,
    "finally": 4420,
    "find": 4421,
    "finding": 4422,
    "finds": 4423,
    "fine": 4424,
    "finish": 4425,
    "finished,": 4426,
    "finishes": 4427,
    "finite": 4428,
    "first": 4429,
    "first,": 4430,
    "first-": 4431,
    "first-out": 4432,
    "fit": 4433,
    "fits": 4434,
    "fitting": 4435,
    "five": 4436,
    "fix": 4437,
    "fixed": 4438,
    "fl": 4439,
    "fli": 4440,
    "flip": 4441,
    "flipping": 4442,
    "flips": 4443,
    "flo": 4444,
    "floor": 4445,
    "floors": 4446,
    "flow": 4447,
    "flow,": 4448,
    "flow.": 4449,
    "flows": 4450,
    "fo": 4451,
    "foc": 4452,
    "focus": 4453,
    "focuses": 4454,
    "follow": 4455,
    "followed": 4456,
    "following": 4457,
    "following:": 4458,
    "follows": 4459,
    "follows.": 4460,
    "follows:": 4461,
    "for": 4462,
    "force": 4463,
    "fore": 4464,
    "fore,": 4465,
    "forest": 4466,
    "forest,": 4467,
    "forest.": 4468,
    "fork-join": 4469,
    "form": 4470,
    "form,": 4471,
    "form.": 4472,
    "formal": 4473,
    "formally": 4474,
    "formally,": 4475,
    "format": 4476,
    "formation": 4477,
    "formed": 4478,
    "forms": 4479,
    "formul": 4480,
    "formula": 4481,
    "formulas": 4482,
    "formulas.": 4483,
    "formulate": 4484,
    "formulation": 4485,
    "fort": 4486,
    "forth": 4487,
    "fortunately,": 4488,
    "forward": 4489,
    "found": 4490,
    "found.": 4491,
    "four": 4492,
    "fourth": 4493,
    "fp": 4494,
    "fra": 4495,
    "fraction": 4496,
    "fractional": 4497,
    "frame": 4498,
    "framework": 4499,
    "fre": 4500,
    "free": 4501,
    "free,": 4502,
    "free.": 4503,
    "freq": 4504,
    "frequ": 4505,
    "frequenci": 4506,
    "frequencies": 4507,
    "frequency": 4508,
    "frequent": 4509,
    "frequently": 4510,
    "fri": 4511,
    "from": 4512,
    "fron": 4513,
    "front": 4514,
    "fronti": 4515,
    "ft": 4516,
    "fter": 4517,
    "fu": 4518,
    "ful": 4519,
    "full": 4520,
    "full,": 4521,
    "fully": 4522,
    "fun": 4523,
    "function": 4524,
    "function,": 4525,
    "function.": 4526,
    "functions": 4527,
    "functions,": 4528,
    "functions.": 4529,
    "fund": 4530,
    "fundamental": 4531,
    "fur": 4532,
    "furthe": 4533,
    "further": 4534,
    "furthest": 4535,
    "furthest-in": 4536,
    "furthest-in-": 4537,
    "furthest-in-future": 4538,
    "future": 4539,
    "future.": 4540,
    "fy": 4541,
    "g": 4542,
    "g(n)": 4543,
    "g(n))": 4544,
    "g(n)).": 4545,
    "g(n),": 4546,
    "g,": 4547,
    "g.": 4548,
    "g],": 4549,
    "ga": 4550,
    "gad": 4551,
    "gadget": 4552,
    "gadgets": 4553,
    "gain": 4554,
    "gain,": 4555,
    "gal": 4556,
    "game": 4557,
    "gar": 4558,
    "gate": 4559,
    "gate.": 4560,
    "gates": 4561,
    "gave": 4562,
    "gc": 4563,
    "gcd": 4564,
    "gcd(": 4565,
    "gcd(a,": 4566,
    "gcd(b,": 4567,
    "ge": 4568,
    "ge.": 4569,
    "gebra": 4570,
    "ged": 4571,
    "gener": 4572,
    "general": 4573,
    "general,": 4574,
    "generality": 4575,
    "generality,": 4576,
    "generalization": 4577,
    "generalize": 4578,
    "generalizes": 4579,
    "generally": 4580,
    "generally,": 4581,
    "generate": 4582,
    "generated": 4583,
    "generates": 4584,
    "generating": 4585,
    "generation": 4586,
    "generator": 4587,
    "geometric": 4588,
    "ger": 4589,
    "ger,": 4590,
    "gers": 4591,
    "ges": 4592,
    "gest": 4593,
    "get": 4594,
    "gether": 4595,
    "gets": 4596,
    "getting": 4597,
    "ggest": 4598,
    "gh": 4599,
    "gin": 4600,
    "gine": 4601,
    "ging": 4602,
    "giv": 4603,
    "give": 4604,
    "given": 4605,
    "gives": 4606,
    "giving": 4607,
    "gl": 4608,
    "glo": 4609,
    "global": 4610,
    "gment": 4611,
    "gn": 4612,
    "gning": 4613,
    "go": 4614,
    "goal": 4615,
    "goes": 4616,
    "going": 4617,
    "gold": 4618,
    "good": 4619,
    "gor": 4620,
    "gorithm": 4621,
    "gr": 4622,
    "gra": 4623,
    "gradient": 4624,
    "grand": 4625,
    "grandparent": 4626,
    "graph": 4627,
    "graph,": 4628,
    "graph.": 4629,
    "graphical": 4630,
    "graphs": 4631,
    "graphs,": 4632,
    "graphs.": 4633,
    "gray": 4634,
    "gray,": 4635,
    "gre": 4636,
    "great": 4637,
    "greater": 4638,
    "greatest": 4639,
    "gree": 4640,
    "greedy": 4641,
    "greedy-choice": 4642,
    "gregate": 4643,
    "gri": 4644,
    "gro": 4645,
    "ground": 4646,
    "group": 4647,
    "groups": 4648,
    "grow": 4649,
    "growing": 4650,
    "grows": 4651,
    "growth": 4652,
    "gu": 4653,
    "guar": 4654,
    "guarante": 4655,
    "guarantee": 4656,
    "guaranteed": 4657,
    "guarantees": 4658,
    "gue": 4659,
    "guess": 4660,
    "gy": 4661,
    "h": 4662,
    "h(": 4663,
    "h(k": 4664,
    "h(k)": 4665,
    "h(k,": 4666,
    "h)": 4667,
    "h,": 4668,
    "h.": 4669,
    "h1": 4670,
    "h1(k)": 4671,
    "h2": 4672,
    "h2(k)": 4673,
    "ha": 4674,
    "had": 4675,
    "hal": 4676,
    "half": 4677,
    "half-": 4678,
    "halves": 4679,
    "hamil": 4680,
    "hamiltonian": 4681,
    "hamiltonian-": 4682,
    "hamiltonian-cycle": 4683,
    "hand": 4684,
    "hand,": 4685,
    "hand.": 4686,
    "handle": 4687,
    "happen": 4688,
    "happens": 4689,
    "haps": 4690,
    "har": 4691,
    "hard": 4692,
    "harder": 4693,
    "hardware": 4694,
    "harmonic": 4695,
    "has": 4696,
    "hash": 4697,
    "hash-": 4698,
    "hash-table": 4699,
    "hashing": 4700,
    "hashing,": 4701,
    "hashing.": 4702,
    "have": 4703,
    "have?": 4704,
    "having": 4705,
    "he": 4706,
    "head": 4707,
    "head,": 4708,
    "head.": 4709,
    "heads": 4710,
    "heads,": 4711,
    "heap": 4712,
    "heap,": 4713,
    "heap-size": 4714,
    "heap.": 4715,
    "heaps": 4716,
    "heapsort": 4717,
    "heart": 4718,
    "heel": 4719,
    "height": 4720,
    "height.": 4721,
    "heights": 4722,
    "hel": 4723,
    "help": 4724,
    "helpful": 4725,
    "helps": 4726,
    "hence": 4727,
    "her": 4728,
    "here": 4729,
    "here,": 4730,
    "here.": 4731,
    "heuristic": 4732,
    "heuristic,": 4733,
    "hi": 4734,
    "hidden": 4735,
    "hier": 4736,
    "hierarch": 4737,
    "high": 4738,
    "high-order": 4739,
    "higher": 4740,
    "highest": 4741,
    "highest-order": 4742,
    "highlight": 4743,
    "highlighted": 4744,
    "hill": 4745,
    "hind": 4746,
    "hire": 4747,
    "hiring": 4748,
    "his": 4749,
    "hist": 4750,
    "history": 4751,
    "hit": 4752,
    "hit,": 4753,
    "hl": 4754,
    "hn": 4755,
    "ho": 4756,
    "hold": 4757,
    "hold.": 4758,
    "holds": 4759,
    "holds,": 4760,
    "holds.": 4761,
    "hop": 4762,
    "hope": 4763,
    "hor": 4764,
    "horiz": 4765,
    "horizon": 4766,
    "hospital": 4767,
    "hou": 4768,
    "how": 4769,
    "however": 4770,
    "however,": 4771,
    "however.": 4772,
    "hu": 4773,
    "hy": 4774,
    "hypothe": 4775,
    "hypothes": 4776,
    "hypothesis": 4777,
    "hypothesis,": 4778,
    "i": 4779,
    "i)": 4780,
    "i),": 4781,
    "i).": 4782,
    "i+1": 4783,
    "i,": 4784,
    "i-1": 4785,
    "i.": 4786,
    "i.e.": 4787,
    "i.e.,": 4788,
    "i.high": 4789,
    "i.low": 4790,
    "i.low.": 4791,
    "i=": 4792,
    "i=i+1": 4793,
    "i]": 4794,
    "ia": 4795,
    "ial": 4796,
    "ian": 4797,
    "ib": 4798,
    "ibil": 4799,
    "ibility": 4800,
    "ible": 4801,
    "ic": 4802,
    "ica,": 4803,
    "ical": 4804,
    "ically": 4805,
    "ically,": 4806,
    "ication": 4807,
    "ications": 4808,
    "ice": 4809,
    "ich": 4810,
    "ick": 4811,
    "ick.": 4812,
    "ics": 4813,
    "iction": 4814,
    "id": 4815,
    "idden": 4816,
    "iddle": 4817,
    "ide": 4818,
    "idea": 4819,
    "ideal": 4820,
    "idean": 4821,
    "ideas": 4822,
    "iden": 4823,
    "identi": 4824,
    "identical": 4825,
    "identifies": 4826,
    "identify": 4827,
    "identity": 4828,
    "ie": 4829,
    "ied": 4830,
    "iel": 4831,
    "ield": 4832,
    "ient": 4833,
    "ies": 4834,
    "ies,": 4835,
    "ies.": 4836,
    "ieve": 4837,
    "if": 4838,
    "if,": 4839,
    "ific": 4840,
    "ifically,": 4841,
    "ification": 4842,
    "ified": 4843,
    "ifies": 4844,
    "ify": 4845,
    "ig": 4846,
    "igh": 4847,
    "ight": 4848,
    "ign": 4849,
    "igno": 4850,
    "ignore": 4851,
    "ignoring": 4852,
    "igure": 4853,
    "ij": 4854,
    "ij)": 4855,
    "ij),": 4856,
    "ijk": 4857,
    "ik": 4858,
    "il": 4859,
    "ild": 4860,
    "iled": 4861,
    "ili": 4862,
    "ill": 4863,
    "iller": 4864,
    "illu": 4865,
    "illustr": 4866,
    "illustrate": 4867,
    "illustrated": 4868,
    "illustrates": 4869,
    "illustration": 4870,
    "im": 4871,
    "ima": 4872,
    "image": 4873,
    "imagine": 4874,
    "imal": 4875,
    "imation": 4876,
    "immediate": 4877,
    "immediately": 4878,
    "imp": 4879,
    "implement": 4880,
    "implementation": 4881,
    "implementations": 4882,
    "implemented": 4883,
    "implementing": 4884,
    "implements": 4885,
    "implic": 4886,
    "implicit": 4887,
    "implicitly": 4888,
    "implies": 4889,
    "imply": 4890,
    "import": 4891,
    "important": 4892,
    "impossible": 4893,
    "improve": 4894,
    "improved": 4895,
    "imum": 4896,
    "in": 4897,
    "in,": 4898,
    "in-": 4899,
    "in.": 4900,
    "inary": 4901,
    "ince": 4902,
    "inci": 4903,
    "incident": 4904,
    "inclu": 4905,
    "include": 4906,
    "included": 4907,
    "includes": 4908,
    "including": 4909,
    "inclusive": 4910,
    "incomplete": 4911,
    "incorpor": 4912,
    "incorporating": 4913,
    "incorrect": 4914,
    "incre": 4915,
    "increas": 4916,
    "increase": 4917,
    "increased": 4918,
    "increases": 4919,
    "increases.": 4920,
    "increasing": 4921,
    "increment": 4922,
    "incrementing": 4923,
    "increments": 4924,
    "incur": 4925,
    "incurred": 4926,
    "incurs": 4927,
    "ind": 4928,
    "inde": 4929,
    "indeed": 4930,
    "independ": 4931,
    "independence": 4932,
    "independent": 4933,
    "independent,": 4934,
    "independent.": 4935,
    "independently": 4936,
    "index": 4937,
    "indexed": 4938,
    "indexes": 4939,
    "indexing": 4940,
    "indic": 4941,
    "indicate": 4942,
    "indicated": 4943,
    "indicates": 4944,
    "indicating": 4945,
    "indicator": 4946,
    "indices": 4947,
    "indices.": 4948,
    "indivi": 4949,
    "individual": 4950,
    "indu": 4951,
    "induced": 4952,
    "induction": 4953,
    "inductive": 4954,
    "ine": 4955,
    "ine,": 4956,
    "inefficient": 4957,
    "inel": 4958,
    "inequ": 4959,
    "inequal": 4960,
    "inequalities": 4961,
    "inequality": 4962,
    "inequality.": 4963,
    "ines": 4964,
    "infeasible": 4965,
    "infer": 4966,
    "infinite": 4967,
    "infinitely": 4968,
    "information": 4969,
    "information,": 4970,
    "information.": 4971,
    "ing": 4972,
    "ing,": 4973,
    "ing.": 4974,
    "inger": 4975,
    "inger,": 4976,
    "ings": 4977,
    "ingu": 4978,
    "ining": 4979,
    "initi": 4980,
    "initial": 4981,
    "initialization": 4982,
    "initialize": 4983,
    "initialized": 4984,
    "initializes": 4985,
    "initially": 4986,
    "ink": 4987,
    "inner": 4988,
    "inorder": 4989,
    "input": 4990,
    "input,": 4991,
    "input.": 4992,
    "inputs": 4993,
    "inputs,": 4994,
    "inputs.": 4995,
    "inser": 4996,
    "insert": 4997,
    "insert,": 4998,
    "inserted": 4999,
    "inserted.": 5000,
    "inserting": 5001,
    "insertion": 5002,
    "insertion.": 5003,
    "insertions": 5004,
    "insertions,": 5005,
    "inserts": 5006,
    "inside": 5007,
    "inspe": 5008,
    "inst": 5009,
    "instance": 5010,
    "instances": 5011,
    "instead": 5012,
    "instru": 5013,
    "instruction": 5014,
    "instructions": 5015,
    "int": 5016,
    "int:": 5017,
    "inte": 5018,
    "integer": 5019,
    "integer,": 5020,
    "integer-": 5021,
    "integer.": 5022,
    "integers": 5023,
    "integers,": 5024,
    "integers.": 5025,
    "integr": 5026,
    "integral": 5027,
    "inten": 5028,
    "intenance": 5029,
    "inter": 5030,
    "interest": 5031,
    "interesting": 5032,
    "intermediate": 5033,
    "internal": 5034,
    "interpol": 5035,
    "interpre": 5036,
    "interpret": 5037,
    "intersection": 5038,
    "interval": 5039,
    "intervals": 5040,
    "interview": 5041,
    "into": 5042,
    "introdu": 5043,
    "introduce": 5044,
    "introduced": 5045,
    "introduces": 5046,
    "introduction": 5047,
    "intu": 5048,
    "intuition": 5049,
    "intuitive": 5050,
    "inv": 5051,
    "invalid": 5052,
    "invariant": 5053,
    "invariant,": 5054,
    "invariant.": 5055,
    "invariant:": 5056,
    "invent": 5057,
    "invented": 5058,
    "inver": 5059,
    "inverse": 5060,
    "inversion": 5061,
    "inverti": 5062,
    "invertible": 5063,
    "inves": 5064,
    "invest": 5065,
    "investi": 5066,
    "investigate": 5067,
    "investigates": 5068,
    "investment": 5069,
    "invoc": 5070,
    "invocation": 5071,
    "invol": 5072,
    "involve": 5073,
    "involved": 5074,
    "involves": 5075,
    "io": 5076,
    "ion": 5077,
    "ior": 5078,
    "ious": 5079,
    "ip": 5080,
    "ips": 5081,
    "ipul": 5082,
    "ir": 5083,
    "iring": 5084,
    "irst": 5085,
    "irth": 5086,
    "is": 5087,
    "is,": 5088,
    "is.": 5089,
    "ise": 5090,
    "ish": 5091,
    "ished": 5092,
    "ision": 5093,
    "ism": 5094,
    "ism,": 5095,
    "isol": 5096,
    "isolated": 5097,
    "isom": 5098,
    "isomor": 5099,
    "isomorph": 5100,
    "isomorphic": 5101,
    "issu": 5102,
    "ist": 5103,
    "istant": 5104,
    "istic": 5105,
    "ists": 5106,
    "it": 5107,
    "it's": 5108,
    "it,": 5109,
    "it.": 5110,
    "ital": 5111,
    "itch": 5112,
    "ite": 5113,
    "ited": 5114,
    "item": 5115,
    "items": 5116,
    "iter": 5117,
    "iter(x)": 5118,
    "iterates": 5119,
    "iteration": 5120,
    "iteration,": 5121,
    "iteration.": 5122,
    "iterations": 5123,
    "iterations,": 5124,
    "iterations.": 5125,
    "iterative": 5126,
    "ith": 5127,
    "ither": 5128,
    "ithm": 5129,
    "ithmetic": 5130,
    "iti": 5131,
    "ities": 5132,
    "ities,": 5133,
    "ities.": 5134,
    "ition": 5135,
    "itive": 5136,
    "itively,": 5137,
    "itly": 5138,
    "its": 5139,
    "itsel": 5140,
    "itself": 5141,
    "itself,": 5142,
    "itself.": 5143,
    "itt": 5144,
    "itu": 5145,
    "itude": 5146,
    "ity": 5147,
    "ity,": 5148,
    "ity.": 5149,
    "itz": 5150,
    "iv": 5151,
    "ive": 5152,
    "iven": 5153,
    "iz": 5154,
    "ization": 5155,
    "ize": 5156,
    "ized": 5157,
    "izes": 5158,
    "izing": 5159,
    "i}": 5160,
    "j": 5161,
    "j)": 5162,
    "j),": 5163,
    "j,": 5164,
    "j.": 5165,
    "j=": 5166,
    "j]": 5167,
    "j],": 5168,
    "j].": 5169,
    "jac": 5170,
    "jan": 5171,
    "je": 5172,
    "ject": 5173,
    "jection": 5174,
    "jective": 5175,
    "jeev": 5176,
    "jo": 5177,
    "job": 5178,
    "jobs": 5179,
    "join": 5180,
    "joint": 5181,
    "jth": 5182,
    "ju": 5183,
    "jug": 5184,
    "jun": 5185,
    "just": 5186,
    "k": 5187,
    "k)": 5188,
    "k),": 5189,
    "k).": 5190,
    "k+1": 5191,
    "k,": 5192,
    "k-": 5193,
    "k-1,": 5194,
    "k-join": 5195,
    "k-means": 5196,
    "k-parallel": 5197,
    "k.": 5198,
    "k1": 5199,
    "k1,": 5200,
    "k2": 5201,
    "k2,": 5202,
    "k]": 5203,
    "ke": 5204,
    "ked": 5205,
    "kee": 5206,
    "keep": 5207,
    "keeping": 5208,
    "keeps": 5209,
    "kel": 5210,
    "ken": 5211,
    "kes": 5212,
    "ket": 5213,
    "kets": 5214,
    "key": 5215,
    "key,": 5216,
    "key.": 5217,
    "key[i]": 5218,
    "keys": 5219,
    "keys,": 5220,
    "keys.": 5221,
    "keyword": 5222,
    "keywords": 5223,
    "ki": 5224,
    "ki,": 5225,
    "kind": 5226,
    "kinds": 5227,
    "king": 5228,
    "kj": 5229,
    "kj,": 5230,
    "kn": 5231,
    "knaps": 5232,
    "knapsack": 5233,
    "know": 5234,
    "knowing": 5235,
    "knowledge": 5236,
    "known": 5237,
    "knows": 5238,
    "kr": 5239,
    "ks": 5240,
    "kth": 5241,
    "k}": 5242,
    "k}.": 5243,
    "l": 5244,
    "l)": 5245,
    "l,": 5246,
    "l.": 5247,
    "l.h": 5248,
    "l]": 5249,
    "la": 5250,
    "labe": 5251,
    "label": 5252,
    "labeled": 5253,
    "labeling": 5254,
    "labels": 5255,
    "lad": 5256,
    "lan": 5257,
    "langu": 5258,
    "language": 5259,
    "language,": 5260,
    "languages": 5261,
    "lar": 5262,
    "large": 5263,
    "large,": 5264,
    "large.": 5265,
    "larger": 5266,
    "largest": 5267,
    "last": 5268,
    "lat": 5269,
    "late": 5270,
    "later": 5271,
    "latter": 5272,
    "law": 5273,
    "laws:": 5274,
    "lay": 5275,
    "layer": 5276,
    "ld": 5277,
    "le": 5278,
    "lea": 5279,
    "lead": 5280,
    "leading": 5281,
    "leads": 5282,
    "leaf": 5283,
    "leaf,": 5284,
    "leaf.": 5285,
    "lean": 5286,
    "lear": 5287,
    "learn": 5288,
    "learning": 5289,
    "learning,": 5290,
    "least": 5291,
    "least-": 5292,
    "least-squares": 5293,
    "leav": 5294,
    "leave": 5295,
    "leaves": 5296,
    "leaves,": 5297,
    "leaves.": 5298,
    "leaving": 5299,
    "led": 5300,
    "ledge": 5301,
    "left": 5302,
    "left,": 5303,
    "left-": 5304,
    "left-hand": 5305,
    "left-rank": 5306,
    "left.": 5307,
    "leftmost": 5308,
    "legal": 5309,
    "lem": 5310,
    "lement": 5311,
    "lemma": 5312,
    "lemma,": 5313,
    "leng": 5314,
    "length": 5315,
    "length,": 5316,
    "length-": 5317,
    "length-n": 5318,
    "lengths": 5319,
    "ler": 5320,
    "les": 5321,
    "les,": 5322,
    "les.": 5323,
    "less": 5324,
    "less,": 5325,
    "let": 5326,
    "let's": 5327,
    "letion": 5328,
    "letter": 5329,
    "letters": 5330,
    "letting": 5331,
    "level": 5332,
    "level(x)": 5333,
    "level,": 5334,
    "levels": 5335,
    "lex": 5336,
    "lexi": 5337,
    "lexico": 5338,
    "lexicograph": 5339,
    "lexicographically": 5340,
    "ley": 5341,
    "ley,": 5342,
    "lg": 5343,
    "lg(n": 5344,
    "lg*": 5345,
    "lg2": 5346,
    "li": 5347,
    "lic": 5348,
    "lie": 5349,
    "lies": 5350,
    "light": 5351,
    "like": 5352,
    "likely": 5353,
    "likely.": 5354,
    "lim": 5355,
    "limit": 5356,
    "limited": 5357,
    "lin": 5358,
    "line": 5359,
    "line,": 5360,
    "line.": 5361,
    "linear": 5362,
    "linear-": 5363,
    "linear-programming": 5364,
    "linear-time": 5365,
    "linearity": 5366,
    "linearly": 5367,
    "lines": 5368,
    "ling": 5369,
    "link": 5370,
    "linked": 5371,
    "linked-list": 5372,
    "list": 5373,
    "list,": 5374,
    "list.": 5375,
    "listed": 5376,
    "lists": 5377,
    "lists,": 5378,
    "lists.": 5379,
    "liter": 5380,
    "literal": 5381,
    "literals": 5382,
    "literals,": 5383,
    "literals.": 5384,
    "literature": 5385,
    "litt": 5386,
    "little": 5387,
    "ll": 5388,
    "lling": 5389,
    "llman": 5390,
    "ln": 5391,
    "lo": 5392,
    "load": 5393,
    "loc": 5394,
    "local": 5395,
    "locally": 5396,
    "location": 5397,
    "locations": 5398,
    "lock": 5399,
    "log": 5400,
    "logarithm": 5401,
    "logarithmic": 5402,
    "logic": 5403,
    "logical": 5404,
    "logy": 5405,
    "long": 5406,
    "longer": 5407,
    "longest": 5408,
    "loo": 5409,
    "look": 5410,
    "looking": 5411,
    "looks": 5412,
    "loop": 5413,
    "loop,": 5414,
    "loop.": 5415,
    "loops": 5416,
    "loops,": 5417,
    "loops.": 5418,
    "lor": 5419,
    "loss": 5420,
    "lot": 5421,
    "low": 5422,
    "low-order": 5423,
    "lower": 5424,
    "lower-order": 5425,
    "lower-triangular": 5426,
    "lowest": 5427,
    "loy": 5428,
    "ly": 5429,
    "ly,": 5430,
    "ly.": 5431,
    "lying": 5432,
    "lyno": 5433,
    "ló": 5434,
    "m": 5435,
    "m)": 5436,
    "m),": 5437,
    "m).": 5438,
    "m,": 5439,
    "m-": 5440,
    "m-1": 5441,
    "m.": 5442,
    "m[": 5443,
    "m[i,": 5444,
    "m]": 5445,
    "m],": 5446,
    "ma": 5447,
    "mach": 5448,
    "machin": 5449,
    "machine": 5450,
    "machine-": 5451,
    "machine-learning": 5452,
    "machines": 5453,
    "made": 5454,
    "magn": 5455,
    "magnitude": 5456,
    "main": 5457,
    "maintain": 5458,
    "maintained": 5459,
    "maintaining": 5460,
    "maintains": 5461,
    "maj": 5462,
    "major": 5463,
    "mak": 5464,
    "make": 5465,
    "makes": 5466,
    "making": 5467,
    "man": 5468,
    "man,": 5469,
    "manipul": 5470,
    "manner": 5471,
    "manner,": 5472,
    "manner.": 5473,
    "manufact": 5474,
    "manufacture": 5475,
    "many": 5476,
    "map": 5477,
    "mapping": 5478,
    "maps": 5479,
    "mar": 5480,
    "mark": 5481,
    "marked": 5482,
    "marriage": 5483,
    "mas": 5484,
    "master": 5485,
    "mat": 5486,
    "match": 5487,
    "matched": 5488,
    "matched.": 5489,
    "matches": 5490,
    "matching": 5491,
    "matching,": 5492,
    "matching.": 5493,
    "matchings": 5494,
    "mate": 5495,
    "mater": 5496,
    "material": 5497,
    "math": 5498,
    "mathemat": 5499,
    "mathematic": 5500,
    "mathematical": 5501,
    "mathematically": 5502,
    "mathematics": 5503,
    "matric": 5504,
    "matrices": 5505,
    "matrices,": 5506,
    "matrices.": 5507,
    "matrix": 5508,
    "matrix,": 5509,
    "matrix-": 5510,
    "matrix-chain": 5511,
    "matrix-multiplication": 5512,
    "matrix-vector": 5513,
    "matrix.": 5514,
    "matter": 5515,
    "max": 5516,
    "max-": 5517,
    "max-heap": 5518,
    "max-heap.": 5519,
    "maxim": 5520,
    "maximal": 5521,
    "maximization": 5522,
    "maximize": 5523,
    "maximizes": 5524,
    "maximizing": 5525,
    "maximum": 5526,
    "maximum-": 5527,
    "maximum-flow": 5528,
    "maximum-size": 5529,
    "maximum-weight": 5530,
    "may": 5531,
    "me": 5532,
    "mean": 5533,
    "meaning": 5534,
    "means": 5535,
    "meas": 5536,
    "measure": 5537,
    "measured": 5538,
    "measures": 5539,
    "mechan": 5540,
    "mechanical": 5541,
    "med": 5542,
    "medi": 5543,
    "median": 5544,
    "medians": 5545,
    "mediate": 5546,
    "mem": 5547,
    "member": 5548,
    "members": 5549,
    "membership": 5550,
    "memo": 5551,
    "memoization": 5552,
    "memoized": 5553,
    "memor": 5554,
    "memory": 5555,
    "memory,": 5556,
    "memory.": 5557,
    "men": 5558,
    "ment": 5559,
    "ment.": 5560,
    "menting": 5561,
    "mention": 5562,
    "mentioned": 5563,
    "ments": 5564,
    "mer": 5565,
    "merge": 5566,
    "merged": 5567,
    "merges": 5568,
    "merging": 5569,
    "mes": 5570,
    "messa": 5571,
    "message": 5572,
    "messages": 5573,
    "met": 5574,
    "metach": 5575,
    "metachar": 5576,
    "metacharact": 5577,
    "meth": 5578,
    "method": 5579,
    "method,": 5580,
    "method.": 5581,
    "methodo": 5582,
    "methodology": 5583,
    "methods": 5584,
    "methods.": 5585,
    "metic": 5586,
    "metric": 5587,
    "metry": 5588,
    "mi": 5589,
    "mial": 5590,
    "mid": 5591,
    "middle": 5592,
    "might": 5593,
    "mil": 5594,
    "mill": 5595,
    "million": 5596,
    "min": 5597,
    "min-": 5598,
    "min-heap": 5599,
    "min-priority": 5600,
    "mind": 5601,
    "mine": 5602,
    "ming": 5603,
    "minim": 5604,
    "minimiz": 5605,
    "minimization": 5606,
    "minimize": 5607,
    "minimizer": 5608,
    "minimizes": 5609,
    "minimizing": 5610,
    "minimum": 5611,
    "minimum-": 5612,
    "minimum-cost": 5613,
    "minimum-cost-flow": 5614,
    "minimum-spanning-tree": 5615,
    "minimum-weight": 5616,
    "minimum.": 5617,
    "minus": 5618,
    "minut": 5619,
    "minutes": 5620,
    "mir": 5621,
    "mis": 5622,
    "miss": 5623,
    "miss,": 5624,
    "miss.": 5625,
    "misses": 5626,
    "misses.": 5627,
    "missing": 5628,
    "mistake": 5629,
    "mistake,": 5630,
    "mistake.": 5631,
    "mistakes": 5632,
    "mit": 5633,
    "mix": 5634,
    "mm": 5635,
    "mma": 5636,
    "mming": 5637,
    "mo": 5638,
    "mobi": 5639,
    "mobile": 5640,
    "mod": 5641,
    "model": 5642,
    "model,": 5643,
    "model.": 5644,
    "models": 5645,
    "modern": 5646,
    "modif": 5647,
    "modifications": 5648,
    "modified": 5649,
    "modifies": 5650,
    "modify": 5651,
    "modifying": 5652,
    "modu": 5653,
    "modul": 5654,
    "modular": 5655,
    "modulo": 5656,
    "moment": 5657,
    "mon": 5658,
    "mone": 5659,
    "money": 5660,
    "monic": 5661,
    "monot": 5662,
    "monotonically": 5663,
    "month": 5664,
    "more": 5665,
    "more,": 5666,
    "most": 5667,
    "move": 5668,
    "moved": 5669,
    "moves": 5670,
    "moving": 5671,
    "mp": 5672,
    "mple": 5673,
    "mption": 5674,
    "mpty": 5675,
    "much": 5676,
    "mul": 5677,
    "multi": 5678,
    "multicore": 5679,
    "multigraph": 5680,
    "multipl": 5681,
    "multiple": 5682,
    "multiple-": 5683,
    "multiples": 5684,
    "multiplication": 5685,
    "multiplication,": 5686,
    "multiplication.": 5687,
    "multiplications": 5688,
    "multiplications.": 5689,
    "multiplicative": 5690,
    "multiplied": 5691,
    "multiply": 5692,
    "multiply-": 5693,
    "multiply-shift": 5694,
    "multiplying": 5695,
    "must": 5696,
    "mut": 5697,
    "mutually": 5698,
    "my": 5699,
    "n": 5700,
    "n!": 5701,
    "n's": 5702,
    "n't": 5703,
    "n)": 5704,
    "n),": 5705,
    "n)-time": 5706,
    "n).": 5707,
    "n,": 5708,
    "n-": 5709,
    "n-1": 5710,
    "n-1,": 5711,
    "n-1.": 5712,
    "n-bit": 5713,
    "n-element": 5714,
    "n-node": 5715,
    "n-vector": 5716,
    "n.": 5717,
    "n/": 5718,
    "n/2": 5719,
    "n/2)": 5720,
    "n/2,": 5721,
    "n/2.": 5722,
    "n/3": 5723,
    "n/4": 5724,
    "n/lg": 5725,
    "n0": 5726,
    "n0,": 5727,
    "n0.": 5728,
    "n1": 5729,
    "n2": 5730,
    "n2,": 5731,
    "n2.": 5732,
    "n3": 5733,
    "nL": 5734,
    "nR": 5735,
    "n]": 5736,
    "n],": 5737,
    "n].": 5738,
    "na": 5739,
    "naive": 5740,
    "nal": 5741,
    "nam": 5742,
    "name": 5743,
    "namely": 5744,
    "nat": 5745,
    "natural": 5746,
    "ne": 5747,
    "near": 5748,
    "nearest": 5749,
    "nearly": 5750,
    "necess": 5751,
    "necessarily": 5752,
    "necessary": 5753,
    "necessary,": 5754,
    "need": 5755,
    "needed": 5756,
    "needs": 5757,
    "neg": 5758,
    "negative": 5759,
    "negative-": 5760,
    "negative-weight": 5761,
    "negative.": 5762,
    "neigh": 5763,
    "neighb": 5764,
    "neighbor": 5765,
    "neighbors": 5766,
    "neither": 5767,
    "ner": 5768,
    "ness": 5769,
    "ness,": 5770,
    "nest": 5771,
    "nested": 5772,
    "net": 5773,
    "networ": 5774,
    "network": 5775,
    "network,": 5776,
    "network.": 5777,
    "networks": 5778,
    "never": 5779,
    "new": 5780,
    "newly": 5781,
    "next": 5782,
    "next,": 5783,
    "ni": 5784,
    "ni,": 5785,
    "nical": 5786,
    "nice": 5787,
    "nie": 5788,
    "nil": 5789,
    "ning": 5790,
    "no": 5791,
    "node": 5792,
    "node's": 5793,
    "node,": 5794,
    "node.": 5795,
    "nodes": 5796,
    "nodes,": 5797,
    "nodes.": 5798,
    "non": 5799,
    "non-": 5800,
    "nondeterministic": 5801,
    "none": 5802,
    "nonempty": 5803,
    "nonempty,": 5804,
    "nonnegative": 5805,
    "nonnegative,": 5806,
    "nonnegative.": 5807,
    "nonrecursive": 5808,
    "nonsample": 5809,
    "nonsingular": 5810,
    "nonsingular,": 5811,
    "nontrivial": 5812,
    "nonwitness": 5813,
    "nonzero": 5814,
    "nor": 5815,
    "norm": 5816,
    "normal": 5817,
    "not": 5818,
    "not,": 5819,
    "not.": 5820,
    "notation": 5821,
    "notation,": 5822,
    "notation.": 5823,
    "notations": 5824,
    "note": 5825,
    "noted": 5826,
    "notes": 5827,
    "nothing": 5828,
    "notion": 5829,
    "notions": 5830,
    "now": 5831,
    "nth": 5832,
    "nu": 5833,
    "nual": 5834,
    "null": 5835,
    "num": 5836,
    "numbe": 5837,
    "number": 5838,
    "number,": 5839,
    "number.": 5840,
    "numbered": 5841,
    "numbers": 5842,
    "numbers,": 5843,
    "numbers.": 5844,
    "numer": 5845,
    "numerical": 5846,
    "numi": 5847,
    "n}": 5848,
    "n},": 5849,
    "n×n": 5850,
    "o": 5851,
    "o,": 5852,
    "ob": 5853,
    "obje": 5854,
    "object": 5855,
    "object.": 5856,
    "objective": 5857,
    "objects": 5858,
    "objects,": 5859,
    "obl": 5860,
    "obli": 5861,
    "oblivious": 5862,
    "obser": 5863,
    "observ": 5864,
    "observation": 5865,
    "observe": 5866,
    "obtain": 5867,
    "obtained": 5868,
    "obtaining": 5869,
    "obtains": 5870,
    "obvious": 5871,
    "oc": 5872,
    "occ": 5873,
    "occup": 5874,
    "occupied": 5875,
    "occupies": 5876,
    "occur": 5877,
    "occur,": 5878,
    "occur.": 5879,
    "occurrence": 5880,
    "occurrences": 5881,
    "occurring": 5882,
    "occurs": 5883,
    "occurs,": 5884,
    "occurs.": 5885,
    "och": 5886,
    "ochba": 5887,
    "ochbaum": 5888,
    "od": 5889,
    "odd": 5890,
    "odd,": 5891,
    "odo": 5892,
    "of": 5893,
    "ofess": 5894,
    "ofessor": 5895,
    "off": 5896,
    "offers": 5897,
    "offic": 5898,
    "office": 5899,
    "offline": 5900,
    "often": 5901,
    "og": 5902,
    "oil": 5903,
    "ok": 5904,
    "ol": 5905,
    "old": 5906,
    "oll": 5907,
    "ollary": 5908,
    "ollow": 5909,
    "om": 5910,
    "ometric": 5911,
    "omi": 5912,
    "omial": 5913,
    "omit": 5914,
    "on": 5915,
    "on't": 5916,
    "on,": 5917,
    "on.": 5918,
    "onacci": 5919,
    "onal": 5920,
    "onald": 5921,
    "once": 5922,
    "once,": 5923,
    "once.": 5924,
    "ond": 5925,
    "one": 5926,
    "one,": 5927,
    "one-": 5928,
    "one-to-": 5929,
    "one-to-one": 5930,
    "one.": 5931,
    "onent": 5932,
    "ones": 5933,
    "ong": 5934,
    "onic": 5935,
    "onically": 5936,
    "online": 5937,
    "only": 5938,
    "onne": 5939,
    "onor": 5940,
    "ons,": 5941,
    "onto": 5942,
    "op": 5943,
    "open": 5944,
    "open-address": 5945,
    "oper": 5946,
    "operate": 5947,
    "operates": 5948,
    "operating": 5949,
    "operation": 5950,
    "operation,": 5951,
    "operation.": 5952,
    "operations": 5953,
    "operations,": 5954,
    "operations.": 5955,
    "operations:": 5956,
    "operator": 5957,
    "ople": 5958,
    "opport": 5959,
    "opportunity": 5960,
    "oppos": 5961,
    "opposite": 5962,
    "opri": 5963,
    "optim": 5964,
    "optimal": 5965,
    "optimal-": 5966,
    "optimal-substructure": 5967,
    "optimal.": 5968,
    "optimally": 5969,
    "optimization": 5970,
    "option": 5971,
    "or": 5972,
    "or,": 5973,
    "orac": 5974,
    "oracle": 5975,
    "orange": 5976,
    "ord": 5977,
    "order": 5978,
    "order,": 5979,
    "order-": 5980,
    "order-statistic": 5981,
    "order.": 5982,
    "ordered": 5983,
    "ordering": 5984,
    "orders": 5985,
    "ordin": 5986,
    "ordinary": 5987,
    "ore": 5988,
    "orem": 5989,
    "org": 5990,
    "organ": 5991,
    "orient": 5992,
    "oriented": 5993,
    "orig": 5994,
    "origin": 5995,
    "original": 5996,
    "originally": 5997,
    "oring": 5998,
    "ors": 5999,
    "ort": 6000,
    "orti": 6001,
    "ortized": 6002,
    "ory": 6003,
    "os": 6004,
    "ose": 6005,
    "osi": 6006,
    "ossible": 6007,
    "ot": 6008,
    "other": 6009,
    "other,": 6010,
    "other.": 6011,
    "others": 6012,
    "otherwise": 6013,
    "otherwise,": 6014,
    "otherwise.": 6015,
    "ou": 6016,
    "ough": 6017,
    "ould": 6018,
    "oun": 6019,
    "ound": 6020,
    "our": 6021,
    "ouri": 6022,
    "ourselves": 6023,
    "ous": 6024,
    "ous.": 6025,
    "out": 6026,
    "outcome": 6027,
    "outcomes": 6028,
    "outer": 6029,
    "outline": 6030,
    "output": 6031,
    "output.": 6032,
    "outputs": 6033,
    "outside": 6034,
    "ove": 6035,
    "over": 6036,
    "over,": 6037,
    "overall": 6038,
    "overflow": 6039,
    "overhead": 6040,
    "overl": 6041,
    "overlap": 6042,
    "overlapping": 6043,
    "overlaps": 6044,
    "ow": 6045,
    "own": 6046,
    "p": 6047,
    "p(n)": 6048,
    "p(t)": 6049,
    "p)": 6050,
    "p,": 6051,
    "p.": 6052,
    "p1": 6053,
    "p1,": 6054,
    "p2": 6055,
    "p2,": 6056,
    "p3": 6057,
    "pa": 6058,
    "pack": 6059,
    "page": 6060,
    "page,": 6061,
    "page.": 6062,
    "pages": 6063,
    "paid": 6064,
    "paint": 6065,
    "pair": 6066,
    "pairs": 6067,
    "pairs,": 6068,
    "pairs.": 6069,
    "pairwise": 6070,
    "pal": 6071,
    "palind": 6072,
    "palindro": 6073,
    "palindrome": 6074,
    "paper": 6075,
    "par": 6076,
    "parad": 6077,
    "parallel": 6078,
    "parallel,": 6079,
    "parallel.": 6080,
    "paralleli": 6081,
    "parallelism": 6082,
    "parallelism.": 6083,
    "parameter": 6084,
    "parameters": 6085,
    "paren": 6086,
    "parent": 6087,
    "parent,": 6088,
    "parent.": 6089,
    "parenthe": 6090,
    "parenthes": 6091,
    "parenthesiz": 6092,
    "parenthesization": 6093,
    "parenthesize": 6094,
    "parenthesizing": 6095,
    "parse": 6096,
    "part": 6097,
    "part,": 6098,
    "parti": 6099,
    "partial": 6100,
    "partic": 6101,
    "particip": 6102,
    "participant": 6103,
    "particular": 6104,
    "particular,": 6105,
    "particularly": 6106,
    "partite": 6107,
    "partition": 6108,
    "partitioned": 6109,
    "partitioning": 6110,
    "partitioning.": 6111,
    "partitions": 6112,
    "partner": 6113,
    "parts": 6114,
    "parts,": 6115,
    "parts.": 6116,
    "party": 6117,
    "pas": 6118,
    "pass": 6119,
    "passed": 6120,
    "passes": 6121,
    "passing": 6122,
    "past": 6123,
    "paste": 6124,
    "pat": 6125,
    "path": 6126,
    "path,": 6127,
    "path-": 6128,
    "path.": 6129,
    "paths": 6130,
    "paths,": 6131,
    "paths.": 6132,
    "patient": 6133,
    "patter": 6134,
    "pattern": 6135,
    "pattern.": 6136,
    "patterns": 6137,
    "pay": 6138,
    "pays": 6139,
    "pe": 6140,
    "pec": 6141,
    "pen": 6142,
    "people": 6143,
    "per": 6144,
    "perfect": 6145,
    "perform": 6146,
    "performance": 6147,
    "performance.": 6148,
    "performed": 6149,
    "performed.": 6150,
    "performing": 6151,
    "performs": 6152,
    "perhaps": 6153,
    "peri": 6154,
    "period": 6155,
    "permut": 6156,
    "permutation": 6157,
    "permutation.": 6158,
    "permutations": 6159,
    "persistent": 6160,
    "person": 6161,
    "ph": 6162,
    "pha": 6163,
    "phas": 6164,
    "phase": 6165,
    "phases": 6166,
    "pho": 6167,
    "pi": 6168,
    "pi-1": 6169,
    "pic": 6170,
    "pick": 6171,
    "picked": 6172,
    "picking": 6173,
    "picks": 6174,
    "picture": 6175,
    "pie": 6176,
    "piece": 6177,
    "pieces": 6178,
    "pile": 6179,
    "pin": 6180,
    "pitch": 6181,
    "piv": 6182,
    "pivot": 6183,
    "pivot,": 6184,
    "pix": 6185,
    "pixel": 6186,
    "pk": 6187,
    "pl": 6188,
    "pla": 6189,
    "plac": 6190,
    "place": 6191,
    "place.": 6192,
    "placed": 6193,
    "places": 6194,
    "placing": 6195,
    "plain": 6196,
    "plan": 6197,
    "plat": 6198,
    "plate": 6199,
    "play": 6200,
    "player": 6201,
    "players": 6202,
    "ple": 6203,
    "ples": 6204,
    "plic": 6205,
    "plication": 6206,
    "plications": 6207,
    "plicative": 6208,
    "plied": 6209,
    "plus": 6210,
    "ply": 6211,
    "plying": 6212,
    "po": 6213,
    "poch": 6214,
    "point": 6215,
    "point,": 6216,
    "point-": 6217,
    "point-value": 6218,
    "point.": 6219,
    "pointer": 6220,
    "pointers": 6221,
    "pointers.": 6222,
    "points": 6223,
    "points,": 6224,
    "points.": 6225,
    "pol": 6226,
    "poli": 6227,
    "polic": 6228,
    "polog": 6229,
    "polyno": 6230,
    "polynomi": 6231,
    "polynomial": 6232,
    "polynomial-": 6233,
    "polynomial-growth": 6234,
    "polynomial-time": 6235,
    "polynomial.": 6236,
    "polynomially": 6237,
    "polynomials": 6238,
    "pon": 6239,
    "poor": 6240,
    "pop": 6241,
    "popular": 6242,
    "por": 6243,
    "port": 6244,
    "portion": 6245,
    "pos": 6246,
    "pose": 6247,
    "posi": 6248,
    "posing": 6249,
    "position": 6250,
    "position,": 6251,
    "position.": 6252,
    "positions": 6253,
    "positions,": 6254,
    "positions.": 6255,
    "positive": 6256,
    "positive,": 6257,
    "positive-": 6258,
    "positive-definite": 6259,
    "positive-definite.": 6260,
    "positive.": 6261,
    "possi": 6262,
    "possibil": 6263,
    "possibilities": 6264,
    "possibility": 6265,
    "possible": 6266,
    "possible,": 6267,
    "possible.": 6268,
    "possibly": 6269,
    "pot": 6270,
    "potential": 6271,
    "potentially": 6272,
    "pothe": 6273,
    "pound": 6274,
    "pounds": 6275,
    "pow": 6276,
    "power": 6277,
    "powerful": 6278,
    "powers": 6279,
    "pp": 6280,
    "pped": 6281,
    "ppen": 6282,
    "pping": 6283,
    "pr": 6284,
    "prac": 6285,
    "practical": 6286,
    "practice": 6287,
    "practice,": 6288,
    "practice.": 6289,
    "pre": 6290,
    "preced": 6291,
    "precede": 6292,
    "precedes": 6293,
    "preceding": 6294,
    "precise": 6295,
    "precisely": 6296,
    "precisely,": 6297,
    "pred": 6298,
    "predecess": 6299,
    "predecessor": 6300,
    "predecessors": 6301,
    "predi": 6302,
    "predict": 6303,
    "prediction": 6304,
    "predictions": 6305,
    "pree": 6306,
    "preemp": 6307,
    "preemptive": 6308,
    "prefer": 6309,
    "prefers": 6310,
    "prefix": 6311,
    "prefix-free": 6312,
    "prefixes": 6313,
    "preorder": 6314,
    "preprocessing": 6315,
    "pres": 6316,
    "present": 6317,
    "presented": 6318,
    "presenting": 6319,
    "presents": 6320,
    "preser": 6321,
    "preserves": 6322,
    "pret": 6323,
    "prev": 6324,
    "previous": 6325,
    "previously": 6326,
    "pri": 6327,
    "pric": 6328,
    "price": 6329,
    "pright": 6330,
    "prim": 6331,
    "primal": 6332,
    "primality": 6333,
    "primary": 6334,
    "prime": 6335,
    "prime,": 6336,
    "prime.": 6337,
    "primes": 6338,
    "primi": 6339,
    "primitive": 6340,
    "princi": 6341,
    "print": 6342,
    "prints": 6343,
    "prior": 6344,
    "priority": 6345,
    "pris": 6346,
    "pro": 6347,
    "prob": 6348,
    "probabil": 6349,
    "probabilistic": 6350,
    "probabilities": 6351,
    "probability": 6352,
    "probably": 6353,
    "probe": 6354,
    "probes": 6355,
    "probing": 6356,
    "problem": 6357,
    "problem,": 6358,
    "problem.": 6359,
    "problem:": 6360,
    "problem?": 6361,
    "problems": 6362,
    "problems,": 6363,
    "problems.": 6364,
    "proced": 6365,
    "procedure": 6366,
    "procedure,": 6367,
    "procedure.": 6368,
    "procedures": 6369,
    "proceed": 6370,
    "proceeds": 6371,
    "proces": 6372,
    "process": 6373,
    "process.": 6374,
    "processing": 6375,
    "processor": 6376,
    "processors": 6377,
    "processors,": 6378,
    "processors.": 6379,
    "produ": 6380,
    "produce": 6381,
    "produced": 6382,
    "produces": 6383,
    "producing": 6384,
    "product": 6385,
    "product,": 6386,
    "product.": 6387,
    "products": 6388,
    "prof": 6389,
    "professor": 6390,
    "professor's": 6391,
    "prog": 6392,
    "progra": 6393,
    "program": 6394,
    "program,": 6395,
    "program.": 6396,
    "programm": 6397,
    "programmer": 6398,
    "programming": 6399,
    "programming,": 6400,
    "programming.": 6401,
    "programs": 6402,
    "programs.": 6403,
    "progres": 6404,
    "progress": 6405,
    "projection": 6406,
    "proof": 6407,
    "proof,": 6408,
    "proof.": 6409,
    "proofs": 6410,
    "proper": 6411,
    "properties": 6412,
    "properties,": 6413,
    "properties.": 6414,
    "properties:": 6415,
    "property": 6416,
    "property)": 6417,
    "property,": 6418,
    "property.": 6419,
    "proportion": 6420,
    "proportional": 6421,
    "propos": 6422,
    "proposed": 6423,
    "proposes": 6424,
    "provably": 6425,
    "prove": 6426,
    "proved": 6427,
    "proven": 6428,
    "proves": 6429,
    "provi": 6430,
    "provide": 6431,
    "provided": 6432,
    "provides": 6433,
    "proving": 6434,
    "ps": 6435,
    "pse": 6436,
    "pseu": 6437,
    "pseud": 6438,
    "pseudo": 6439,
    "pseudocode": 6440,
    "pseudocode,": 6441,
    "pseudocode.": 6442,
    "pswitch": 6443,
    "ption": 6444,
    "publ": 6445,
    "public": 6446,
    "public-key": 6447,
    "published": 6448,
    "pur": 6449,
    "purpos": 6450,
    "purpose": 6451,
    "push": 6452,
    "put": 6453,
    "put:": 6454,
    "puts": 6455,
    "pwrong": 6456,
    "q": 6457,
    "q(x)": 6458,
    "q)": 6459,
    "q,": 6460,
    "q-1": 6461,
    "q.": 6462,
    "q1": 6463,
    "q2": 6464,
    "q]": 6465,
    "qi": 6466,
    "qth": 6467,
    "qu": 6468,
    "quadrat": 6469,
    "quadratic": 6470,
    "qual": 6471,
    "qualified": 6472,
    "quality": 6473,
    "quanti": 6474,
    "quantity": 6475,
    "que": 6476,
    "quer": 6477,
    "queries": 6478,
    "query": 6479,
    "ques": 6480,
    "question": 6481,
    "questions": 6482,
    "queu": 6483,
    "queue": 6484,
    "queue,": 6485,
    "queue.": 6486,
    "queues": 6487,
    "quick": 6488,
    "quickly": 6489,
    "quicksort": 6490,
    "quicksort,": 6491,
    "quicksort.": 6492,
    "quite": 6493,
    "r": 6494,
    "r)": 6495,
    "r),": 6496,
    "r,": 6497,
    "r.": 6498,
    "r.h": 6499,
    "r1": 6500,
    "r1,": 6501,
    "r1]": 6502,
    "r2": 6503,
    "r2.": 6504,
    "r2]": 6505,
    "r3),": 6506,
    "r[": 6507,
    "r]": 6508,
    "r],": 6509,
    "r].": 6510,
    "ra": 6511,
    "rac": 6512,
    "race": 6513,
    "races": 6514,
    "ractical": 6515,
    "radix": 6516,
    "ran": 6517,
    "rand": 6518,
    "random": 6519,
    "random-": 6520,
    "randomi": 6521,
    "randomization": 6522,
    "randomized": 6523,
    "randomly": 6524,
    "range": 6525,
    "rank": 6526,
    "rank)": 6527,
    "rank,": 6528,
    "rank.": 6529,
    "rank[": 6530,
    "rank[i": 6531,
    "rank[i]": 6532,
    "ranks": 6533,
    "ranks.": 6534,
    "rarely": 6535,
    "rat": 6536,
    "rate": 6537,
    "rather": 6538,
    "ratio": 6539,
    "ratio,": 6540,
    "ratio.": 6541,
    "raw": 6542,
    "re": 6543,
    "rea": 6544,
    "reach": 6545,
    "reachable": 6546,
    "reaches": 6547,
    "reaching": 6548,
    "read": 6549,
    "reading": 6550,
    "reads": 6551,
    "ready": 6552,
    "reak": 6553,
    "real": 6554,
    "real-": 6555,
    "real-valued": 6556,
    "real-world": 6557,
    "really": 6558,
    "reals": 6559,
    "reason": 6560,
    "reasonable": 6561,
    "reasonably": 6562,
    "rece": 6563,
    "receiv": 6564,
    "receive": 6565,
    "receives": 6566,
    "recent": 6567,
    "recently": 6568,
    "reco": 6569,
    "recogn": 6570,
    "recomm": 6571,
    "recommend": 6572,
    "reconstruct": 6573,
    "recor": 6574,
    "record": 6575,
    "records": 6576,
    "rect": 6577,
    "rectang": 6578,
    "rectangle": 6579,
    "recur": 6580,
    "recurrence": 6581,
    "recurrence,": 6582,
    "recurrence.": 6583,
    "recurrences": 6584,
    "recurrences,": 6585,
    "recurrences.": 6586,
    "recurses": 6587,
    "recursing": 6588,
    "recursion": 6589,
    "recursion,": 6590,
    "recursion.": 6591,
    "recursive": 6592,
    "recursively": 6593,
    "recursively,": 6594,
    "recursively.": 6595,
    "red": 6596,
    "red,": 6597,
    "red-": 6598,
    "red-black": 6599,
    "red.": 6600,
    "redu": 6601,
    "reduce": 6602,
    "reduced": 6603,
    "reduces": 6604,
    "reducing": 6605,
    "reduction": 6606,
    "reductions": 6607,
    "ree": 6608,
    "ref": 6609,
    "refe": 6610,
    "refer": 6611,
    "reference": 6612,
    "references": 6613,
    "refers": 6614,
    "refle": 6615,
    "reflected": 6616,
    "reflex": 6617,
    "reflexive": 6618,
    "reg": 6619,
    "regardless": 6620,
    "region": 6621,
    "regions": 6622,
    "regis": 6623,
    "register": 6624,
    "regular": 6625,
    "regularity": 6626,
    "reje": 6627,
    "rejected": 6628,
    "rel": 6629,
    "relate": 6630,
    "related": 6631,
    "relation": 6632,
    "relationship": 6633,
    "relationships": 6634,
    "relative": 6635,
    "relatively": 6636,
    "relax": 6637,
    "relaxation": 6638,
    "relaxed": 6639,
    "relaxes": 6640,
    "relaxing": 6641,
    "rele": 6642,
    "release": 6643,
    "relev": 6644,
    "relevant": 6645,
    "reli": 6646,
    "relies": 6647,
    "rely": 6648,
    "remain": 6649,
    "remainder": 6650,
    "remaining": 6651,
    "remains": 6652,
    "remark": 6653,
    "remarkable": 6654,
    "remember": 6655,
    "remo": 6656,
    "remove": 6657,
    "removed": 6658,
    "removed.": 6659,
    "removes": 6660,
    "removing": 6661,
    "ren": 6662,
    "rence": 6663,
    "rences": 6664,
    "rent": 6665,
    "repe": 6666,
    "repeat": 6667,
    "repeated": 6668,
    "repeatedly": 6669,
    "repeats": 6670,
    "replace": 6671,
    "replaced": 6672,
    "replaces": 6673,
    "replacing": 6674,
    "report": 6675,
    "reports": 6676,
    "represent": 6677,
    "representation": 6678,
    "representation,": 6679,
    "representation.": 6680,
    "representations": 6681,
    "representative": 6682,
    "represented": 6683,
    "representing": 6684,
    "represents": 6685,
    "requ": 6686,
    "request": 6687,
    "request,": 6688,
    "request.": 6689,
    "requested": 6690,
    "requested,": 6691,
    "requested.": 6692,
    "requests": 6693,
    "requests,": 6694,
    "requests.": 6695,
    "requi": 6696,
    "require": 6697,
    "required": 6698,
    "requirement": 6699,
    "requirements": 6700,
    "requires": 6701,
    "requiring": 6702,
    "res": 6703,
    "research": 6704,
    "researchers": 6705,
    "resi": 6706,
    "resides": 6707,
    "residual": 6708,
    "residue": 6709,
    "resolved": 6710,
    "resour": 6711,
    "resources": 6712,
    "respe": 6713,
    "respect": 6714,
    "respective": 6715,
    "respectively,": 6716,
    "respectively.": 6717,
    "respects": 6718,
    "respon": 6719,
    "ress,": 6720,
    "rest": 6721,
    "resto": 6722,
    "restr": 6723,
    "restri": 6724,
    "restrict": 6725,
    "restricted": 6726,
    "restriction": 6727,
    "resul": 6728,
    "result": 6729,
    "result,": 6730,
    "result.": 6731,
    "resulting": 6732,
    "results": 6733,
    "results.": 6734,
    "retri": 6735,
    "return": 6736,
    "returned": 6737,
    "returning": 6738,
    "returns": 6739,
    "returns.": 6740,
    "reve": 6741,
    "reveal": 6742,
    "revenue": 6743,
    "reverse": 6744,
    "review": 6745,
    "reviews": 6746,
    "revisit": 6747,
    "rewrite": 6748,
    "ri": 6749,
    "ric": 6750,
    "rical": 6751,
    "rich": 6752,
    "rig": 6753,
    "right": 6754,
    "right,": 6755,
    "right-": 6756,
    "right-hand": 6757,
    "right-rank": 6758,
    "right-sibling": 6759,
    "right.": 6760,
    "rightmost": 6761,
    "ring": 6762,
    "ris": 6763,
    "rix": 6764,
    "ro": 6765,
    "road": 6766,
    "rod": 6767,
    "rod-": 6768,
    "rod-cutting": 6769,
    "rodu": 6770,
    "roid": 6771,
    "rol": 6772,
    "roles": 6773,
    "rom": 6774,
    "ron": 6775,
    "ronic": 6776,
    "room": 6777,
    "root": 6778,
    "root,": 6779,
    "root.": 6780,
    "root[i,": 6781,
    "rooted": 6782,
    "roots": 6783,
    "rot": 6784,
    "rotation": 6785,
    "rotation,": 6786,
    "rotations": 6787,
    "rotations.": 6788,
    "rou": 6789,
    "rough": 6790,
    "roughly": 6791,
    "roun": 6792,
    "round": 6793,
    "rounds": 6794,
    "rout": 6795,
    "route": 6796,
    "routes": 6797,
    "row": 6798,
    "row-major": 6799,
    "rows": 6800,
    "ru": 6801,
    "rul": 6802,
    "rule": 6803,
    "run": 6804,
    "running": 6805,
    "runs": 6806,
    "rup": 6807,
    "rut": 6808,
    "rutab": 6809,
    "ry": 6810,
    "ryp": 6811,
    "s": 6812,
    "s\"": 6813,
    "s)": 6814,
    "s),": 6815,
    "s).": 6816,
    "s,": 6817,
    "s,\"": 6818,
    "s.": 6819,
    "s.)": 6820,
    "s.d": 6821,
    "s1": 6822,
    "s:": 6823,
    "s[i,": 6824,
    "sa": 6825,
    "safe": 6826,
    "same": 6827,
    "same,": 6828,
    "same.": 6829,
    "sample": 6830,
    "sate": 6831,
    "satell": 6832,
    "satellite": 6833,
    "satis": 6834,
    "satisfi": 6835,
    "satisfiability": 6836,
    "satisfiable": 6837,
    "satisfiable.": 6838,
    "satisfied": 6839,
    "satisfies": 6840,
    "satisfy": 6841,
    "satisfying": 6842,
    "save": 6843,
    "saves": 6844,
    "saw": 6845,
    "say": 6846,
    "say,": 6847,
    "saying": 6848,
    "says": 6849,
    "sc": 6850,
    "scal": 6851,
    "scalar": 6852,
    "scale": 6853,
    "scaling": 6854,
    "scan": 6855,
    "scar": 6856,
    "scen": 6857,
    "scenario": 6858,
    "sche": 6859,
    "sched": 6860,
    "schedul": 6861,
    "schedule": 6862,
    "scheduler": 6863,
    "scheduling": 6864,
    "scheme": 6865,
    "schemes": 6866,
    "sci": 6867,
    "science": 6868,
    "scient": 6869,
    "scientists": 6870,
    "sco": 6871,
    "scope": 6872,
    "score": 6873,
    "scrat": 6874,
    "scrip": 6875,
    "se": 6876,
    "se,": 6877,
    "search": 6878,
    "search,": 6879,
    "search.": 6880,
    "searched": 6881,
    "searches": 6882,
    "searching": 6883,
    "second": 6884,
    "secre": 6885,
    "secret": 6886,
    "section": 6887,
    "section,": 6888,
    "section.": 6889,
    "sections": 6890,
    "sed": 6891,
    "see": 6892,
    "see,": 6893,
    "seem": 6894,
    "seems": 6895,
    "seen": 6896,
    "segment": 6897,
    "sel": 6898,
    "sele": 6899,
    "select": 6900,
    "selected": 6901,
    "selecting": 6902,
    "selection": 6903,
    "selector": 6904,
    "selects": 6905,
    "self": 6906,
    "self-": 6907,
    "selves": 6908,
    "sem": 6909,
    "sen": 6910,
    "send": 6911,
    "sense": 6912,
    "sent": 6913,
    "sentinel": 6914,
    "sentinel,": 6915,
    "separ": 6916,
    "separate": 6917,
    "separately": 6918,
    "sequ": 6919,
    "sequence": 6920,
    "sequence,": 6921,
    "sequence.": 6922,
    "sequences": 6923,
    "sequences.": 6924,
    "sequent": 6925,
    "sequential": 6926,
    "sequently,": 6927,
    "ser": 6928,
    "serial": 6929,
    "series": 6930,
    "series,": 6931,
    "series.": 6932,
    "serv": 6933,
    "serve": 6934,
    "serves": 6935,
    "ses": 6936,
    "set": 6937,
    "set,": 6938,
    "set-": 6939,
    "set-covering": 6940,
    "set.": 6941,
    "sets": 6942,
    "sets,": 6943,
    "sets.": 6944,
    "sets:": 6945,
    "setting": 6946,
    "seven": 6947,
    "several": 6948,
    "sh": 6949,
    "shad": 6950,
    "shaded": 6951,
    "shall": 6952,
    "share": 6953,
    "she": 6954,
    "shed": 6955,
    "shif": 6956,
    "shift": 6957,
    "shifting": 6958,
    "shifts": 6959,
    "ship": 6960,
    "ships": 6961,
    "shor": 6962,
    "short": 6963,
    "shorter": 6964,
    "shortest": 6965,
    "shortest-": 6966,
    "shortest-path": 6967,
    "shortest-paths": 6968,
    "should": 6969,
    "show": 6970,
    "show,": 6971,
    "showed": 6972,
    "showing": 6973,
    "shown": 6974,
    "shown.": 6975,
    "shows": 6976,
    "shows,": 6977,
    "si": 6978,
    "si,": 6979,
    "sian": 6980,
    "sibl": 6981,
    "sible": 6982,
    "sibling": 6983,
    "side": 6984,
    "side,": 6985,
    "side.": 6986,
    "sider": 6987,
    "sides": 6988,
    "sign": 6989,
    "signal": 6990,
    "signature": 6991,
    "signed": 6992,
    "signific": 6993,
    "significant": 6994,
    "significantly": 6995,
    "simil": 6996,
    "similar": 6997,
    "similarity": 6998,
    "simp": 6999,
    "simpl": 7000,
    "simple": 7001,
    "simple,": 7002,
    "simple.": 7003,
    "simpler": 7004,
    "simplest": 7005,
    "simplex": 7006,
    "simplify": 7007,
    "simplifying": 7008,
    "simply": 7009,
    "simul": 7010,
    "simultaneous": 7011,
    "sin": 7012,
    "since": 7013,
    "sing": 7014,
    "single": 7015,
    "single-": 7016,
    "single-source": 7017,
    "singly": 7018,
    "singular": 7019,
    "sink": 7020,
    "sion": 7021,
    "sist": 7022,
    "sistent": 7023,
    "sition": 7024,
    "situ": 7025,
    "situation": 7026,
    "situations": 7027,
    "situations,": 7028,
    "sive": 7029,
    "sively": 7030,
    "six": 7031,
    "siz": 7032,
    "size": 7033,
    "size,": 7034,
    "size.": 7035,
    "sized": 7036,
    "sizei": 7037,
    "sizei-1": 7038,
    "sizes": 7039,
    "sizes,": 7040,
    "sj": 7041,
    "sj,": 7042,
    "sk": 7043,
    "ski": 7044,
    "sl": 7045,
    "slack": 7046,
    "slackness": 7047,
    "slight": 7048,
    "slightly": 7049,
    "slo": 7050,
    "slot": 7051,
    "slot,": 7052,
    "slots": 7053,
    "slots,": 7054,
    "slow": 7055,
    "slower": 7056,
    "slowly": 7057,
    "sm": 7058,
    "small": 7059,
    "small,": 7060,
    "small.": 7061,
    "smaller": 7062,
    "smallest": 7063,
    "so": 7064,
    "so,": 7065,
    "soci": 7066,
    "sof": 7067,
    "software": 7068,
    "soid": 7069,
    "sol": 7070,
    "solution": 7071,
    "solution,": 7072,
    "solution.": 7073,
    "solutions": 7074,
    "solutions,": 7075,
    "solutions.": 7076,
    "solv": 7077,
    "solvable": 7078,
    "solve": 7079,
    "solved": 7080,
    "solves": 7081,
    "solving": 7082,
    "some": 7083,
    "something": 7084,
    "sometimes": 7085,
    "somewhat": 7086,
    "somewhere": 7087,
    "son": 7088,
    "soph": 7089,
    "sort": 7090,
    "sort's": 7091,
    "sort,": 7092,
    "sort.": 7093,
    "sorted": 7094,
    "sorted,": 7095,
    "sorted.": 7096,
    "sorting": 7097,
    "sorting.": 7098,
    "sorts": 7099,
    "sour": 7100,
    "source": 7101,
    "source,": 7102,
    "source.": 7103,
    "sources": 7104,
    "sp": 7105,
    "spa": 7106,
    "space": 7107,
    "space,": 7108,
    "space.": 7109,
    "span": 7110,
    "span,": 7111,
    "span.": 7112,
    "spanning": 7113,
    "spanning-tree": 7114,
    "sparse": 7115,
    "spaw": 7116,
    "spawn": 7117,
    "spawned": 7118,
    "spawning": 7119,
    "spawns": 7120,
    "spe": 7121,
    "spec": 7122,
    "special": 7123,
    "specif": 7124,
    "specific": 7125,
    "specifically": 7126,
    "specified": 7127,
    "specifies": 7128,
    "specify": 7129,
    "speed": 7130,
    "speedup": 7131,
    "spend": 7132,
    "spent": 7133,
    "spital": 7134,
    "spl": 7135,
    "split": 7136,
    "split,": 7137,
    "splits": 7138,
    "splitting": 7139,
    "squ": 7140,
    "square": 7141,
    "squares": 7142,
    "squaring": 7143,
    "ss": 7144,
    "st": 7145,
    "sta": 7146,
    "stability": 7147,
    "stable": 7148,
    "stable-": 7149,
    "stable-marriage": 7150,
    "stable.": 7151,
    "stack": 7152,
    "stack,": 7153,
    "stacks": 7154,
    "stage": 7155,
    "stair": 7156,
    "stairs": 7157,
    "stand": 7158,
    "standard": 7159,
    "star": 7160,
    "start": 7161,
    "starting": 7162,
    "starts": 7163,
    "stat": 7164,
    "state": 7165,
    "state,": 7166,
    "stated": 7167,
    "statement": 7168,
    "statement,": 7169,
    "statements": 7170,
    "states": 7171,
    "static": 7172,
    "statistic": 7173,
    "stays": 7174,
    "ste": 7175,
    "stead": 7176,
    "stem": 7177,
    "sten": 7178,
    "step": 7179,
    "step,": 7180,
    "step.": 7181,
    "steps": 7182,
    "steps,": 7183,
    "steps.": 7184,
    "steps:": 7185,
    "ster": 7186,
    "sti": 7187,
    "stic": 7188,
    "still": 7189,
    "stit": 7190,
    "sto": 7191,
    "stock": 7192,
    "stop": 7193,
    "stops": 7194,
    "stor": 7195,
    "storage": 7196,
    "storage.": 7197,
    "store": 7198,
    "stored": 7199,
    "stores": 7200,
    "storing": 7201,
    "str": 7202,
    "stra": 7203,
    "straight": 7204,
    "straightforward": 7205,
    "straightforward,": 7206,
    "strand": 7207,
    "strands": 7208,
    "strate": 7209,
    "strateg": 7210,
    "strategies": 7211,
    "strategy": 7212,
    "strategy,": 7213,
    "strategy.": 7214,
    "strea": 7215,
    "streak": 7216,
    "stri": 7217,
    "strictly": 7218,
    "string": 7219,
    "string-matching": 7220,
    "string.": 7221,
    "strings": 7222,
    "strong": 7223,
    "stronger": 7224,
    "strongly": 7225,
    "stru": 7226,
    "struct": 7227,
    "structural": 7228,
    "structure": 7229,
    "structure,": 7230,
    "structure.": 7231,
    "structures": 7232,
    "structures.": 7233,
    "stu": 7234,
    "stud": 7235,
    "student": 7236,
    "studi": 7237,
    "studied": 7238,
    "studies": 7239,
    "study": 7240,
    "studying": 7241,
    "style": 7242,
    "su": 7243,
    "sub": 7244,
    "subarray": 7245,
    "subarrays": 7246,
    "subgraph": 7247,
    "subgroup": 7248,
    "subject": 7249,
    "submatrices": 7250,
    "submatrix": 7251,
    "subpath": 7252,
    "subproblem": 7253,
    "subproblem,": 7254,
    "subproblem.": 7255,
    "subproblems": 7256,
    "subproblems,": 7257,
    "subproblems.": 7258,
    "subrout": 7259,
    "subroutine": 7260,
    "subscrip": 7261,
    "subsequence": 7262,
    "subsequent": 7263,
    "subset": 7264,
    "subset-": 7265,
    "subset-sum": 7266,
    "subsets": 7267,
    "subst": 7268,
    "substanti": 7269,
    "substit": 7270,
    "substitute": 7271,
    "substitution": 7272,
    "substr": 7273,
    "substr-rank": 7274,
    "substr-rank[i].": 7275,
    "substring": 7276,
    "substrings": 7277,
    "substructure": 7278,
    "substructure.": 7279,
    "subtra": 7280,
    "subtract": 7281,
    "subtracting": 7282,
    "subtraction": 7283,
    "subtree": 7284,
    "subtree,": 7285,
    "subtree.": 7286,
    "subtrees": 7287,
    "suc": 7288,
    "succes": 7289,
    "success": 7290,
    "success,": 7291,
    "successes": 7292,
    "successful": 7293,
    "successive": 7294,
    "successor": 7295,
    "such": 7296,
    "suf": 7297,
    "suffic": 7298,
    "suffice": 7299,
    "suffices": 7300,
    "sufficient": 7301,
    "sufficiently": 7302,
    "suffix": 7303,
    "suffixes": 7304,
    "suffixes.": 7305,
    "suggest": 7306,
    "suggests": 7307,
    "suit": 7308,
    "suitable": 7309,
    "sul": 7310,
    "sum": 7311,
    "sum,": 7312,
    "sume": 7313,
    "summ": 7314,
    "summation": 7315,
    "summations": 7316,
    "sums": 7317,
    "sup": 7318,
    "super": 7319,
    "supp": 7320,
    "support": 7321,
    "supports": 7322,
    "suppose": 7323,
    "sur": 7324,
    "sure": 7325,
    "surface": 7326,
    "surpris": 7327,
    "surprised": 7328,
    "surprising": 7329,
    "surve": 7330,
    "survey": 7331,
    "surveys": 7332,
    "sus": 7333,
    "sw": 7334,
    "swap": 7335,
    "swapp": 7336,
    "swapping": 7337,
    "swaps": 7338,
    "switch": 7339,
    "sy": 7340,
    "sym": 7341,
    "symbo": 7342,
    "symbol": 7343,
    "symmetric": 7344,
    "symmetric.": 7345,
    "syn": 7346,
    "sync": 7347,
    "system": 7348,
    "system.": 7349,
    "systems": 7350,
    "t": 7351,
    "t)": 7352,
    "t,": 7353,
    "t.": 7354,
    "ta": 7355,
    "tab": 7356,
    "tabl": 7357,
    "table": 7358,
    "table,": 7359,
    "table.": 7360,
    "tableau": 7361,
    "tables": 7362,
    "tack": 7363,
    "tail": 7364,
    "tail.": 7365,
    "tain": 7366,
    "tains": 7367,
    "take": 7368,
    "taken": 7369,
    "takes": 7370,
    "taking": 7371,
    "tal": 7372,
    "tamp": 7373,
    "tan": 7374,
    "tane": 7375,
    "taneous": 7376,
    "tar": 7377,
    "target": 7378,
    "tas": 7379,
    "task": 7380,
    "task-parallel": 7381,
    "tasks": 7382,
    "te": 7383,
    "tech": 7384,
    "techni": 7385,
    "technical": 7386,
    "techniqu": 7387,
    "technique": 7388,
    "techniques": 7389,
    "techno": 7390,
    "technolog": 7391,
    "ted": 7392,
    "tell": 7393,
    "tells": 7394,
    "temp": 7395,
    "tempor": 7396,
    "temporary": 7397,
    "ten": 7398,
    "tend": 7399,
    "ter": 7400,
    "term": 7401,
    "term.": 7402,
    "termin": 7403,
    "terminat": 7404,
    "terminate": 7405,
    "terminates": 7406,
    "terminates,": 7407,
    "terminates.": 7408,
    "terminating": 7409,
    "termination,": 7410,
    "termine": 7411,
    "terms": 7412,
    "tern": 7413,
    "ternal": 7414,
    "ternative": 7415,
    "ters": 7416,
    "ters,": 7417,
    "test": 7418,
    "testing": 7419,
    "tests": 7420,
    "tex": 7421,
    "text": 7422,
    "text,": 7423,
    "text.": 7424,
    "textbook": 7425,
    "th": 7426,
    "th-": 7427,
    "th-first": 7428,
    "than": 7429,
    "that": 7430,
    "that,": 7431,
    "the": 7432,
    "their": 7433,
    "theless,": 7434,
    "them": 7435,
    "them,": 7436,
    "them.": 7437,
    "themat": 7438,
    "themselves": 7439,
    "then": 7440,
    "then,": 7441,
    "theor": 7442,
    "theore": 7443,
    "theorem": 7444,
    "theorem)": 7445,
    "theorem,": 7446,
    "theorem.": 7447,
    "theoretic": 7448,
    "theoretical": 7449,
    "theory": 7450,
    "theory,": 7451,
    "theory.": 7452,
    "ther": 7453,
    "there": 7454,
    "thereby": 7455,
    "therefore": 7456,
    "therefore,": 7457,
    "these": 7458,
    "they": 7459,
    "thi": 7460,
    "thief": 7461,
    "thing": 7462,
    "think": 7463,
    "thir": 7464,
    "third": 7465,
    "this": 7466,
    "those": 7467,
    "though": 7468,
    "thous": 7469,
    "thousand": 7470,
    "thousands": 7471,
    "thread": 7472,
    "three": 7473,
    "thres": 7474,
    "threshold": 7475,
    "through": 7476,
    "throughout": 7477,
    "thus": 7478,
    "thus,": 7479,
    "ti": 7480,
    "tian": 7481,
    "tic": 7482,
    "tical": 7483,
    "tice": 7484,
    "tices": 7485,
    "ties": 7486,
    "ties,": 7487,
    "ties.": 7488,
    "tific": 7489,
    "tigh": 7490,
    "tight": 7491,
    "tight.": 7492,
    "til": 7493,
    "tim": 7494,
    "time": 7495,
    "time,": 7496,
    "time.": 7497,
    "time:": 7498,
    "time?": 7499,
    "times": 7500,
    "times,": 7501,
    "times.": 7502,
    "timestamp": 7503,
    "tin": 7504,
    "ting": 7505,
    "tion": 7506,
    "tition": 7507,
    "titive": 7508,
    "tive": 7509,
    "tivity": 7510,
    "tl": 7511,
    "tle": 7512,
    "tlene": 7513,
    "tleneck": 7514,
    "to": 7515,
    "to.": 7516,
    "together": 7517,
    "together,": 7518,
    "together.": 7519,
    "tograph": 7520,
    "tom": 7521,
    "ton": 7522,
    "tonian": 7523,
    "too": 7524,
    "tool": 7525,
    "tools": 7526,
    "top": 7527,
    "top-": 7528,
    "top-down": 7529,
    "topolog": 7530,
    "topological": 7531,
    "topologically": 7532,
    "tos": 7533,
    "toss": 7534,
    "tosses": 7535,
    "total": 7536,
    "tour": 7537,
    "tour,": 7538,
    "tour.": 7539,
    "toward": 7540,
    "tr": 7541,
    "tra": 7542,
    "trace": 7543,
    "trace.": 7544,
    "traces": 7545,
    "track": 7546,
    "trade": 7547,
    "trail": 7548,
    "training": 7549,
    "tran": 7550,
    "trans": 7551,
    "transform": 7552,
    "transformation": 7553,
    "transforms": 7554,
    "transi": 7555,
    "transition": 7556,
    "transitive": 7557,
    "transm": 7558,
    "transpose": 7559,
    "travel": 7560,
    "traveling": 7561,
    "traveling-s": 7562,
    "traveling-salesperson": 7563,
    "traver": 7564,
    "traverse": 7565,
    "traverses": 7566,
    "tre": 7567,
    "treat": 7568,
    "treatment": 7569,
    "tree": 7570,
    "tree,": 7571,
    "tree.": 7572,
    "tree?": 7573,
    "trees": 7574,
    "trees,": 7575,
    "trees.": 7576,
    "tri": 7577,
    "trial": 7578,
    "trials": 7579,
    "trials,": 7580,
    "triang": 7581,
    "triangle": 7582,
    "triangular": 7583,
    "tribut": 7584,
    "tric": 7585,
    "trick": 7586,
    "trimming": 7587,
    "triple": 7588,
    "trivi": 7589,
    "trivial": 7590,
    "trivially": 7591,
    "tru": 7592,
    "truck": 7593,
    "true": 7594,
    "truth": 7595,
    "try": 7596,
    "trying": 7597,
    "ts": 7598,
    "tt": 7599,
    "tu": 7600,
    "tup": 7601,
    "tuple": 7602,
    "tuples": 7603,
    "tur": 7604,
    "turn": 7605,
    "turning": 7606,
    "turns": 7607,
    "tw": 7608,
    "tware": 7609,
    "twice": 7610,
    "twiddle": 7611,
    "two": 7612,
    "two-": 7613,
    "twor": 7614,
    "ty": 7615,
    "typ": 7616,
    "type": 7617,
    "types": 7618,
    "typical": 7619,
    "typically": 7620,
    "u": 7621,
    "u's": 7622,
    "u(1),": 7623,
    "u)": 7624,
    "u).": 7625,
    "u,": 7626,
    "u.": 7627,
    "u.d": 7628,
    "u.d,": 7629,
    "u.f": 7630,
    "u.f.": 7631,
    "u.p.": 7632,
    "ual": 7633,
    "ually": 7634,
    "ually,": 7635,
    "ubl": 7636,
    "uch": 7637,
    "uck": 7638,
    "ucky": 7639,
    "ucl": 7640,
    "uclidean": 7641,
    "ue": 7642,
    "uent": 7643,
    "ufact": 7644,
    "uk": 7645,
    "ul": 7646,
    "ular": 7647,
    "ulation": 7648,
    "ule": 7649,
    "ulti": 7650,
    "um": 7651,
    "uman": 7652,
    "ume": 7653,
    "ument": 7654,
    "un": 7655,
    "unately,": 7656,
    "unchang": 7657,
    "unchanged.": 7658,
    "uncle": 7659,
    "und": 7660,
    "under": 7661,
    "underlying": 7662,
    "understand": 7663,
    "understanding": 7664,
    "undirected": 7665,
    "ung": 7666,
    "uni": 7667,
    "unications": 7668,
    "uniform": 7669,
    "uniformly": 7670,
    "union": 7671,
    "unique": 7672,
    "unique,": 7673,
    "unique.": 7674,
    "uniquely": 7675,
    "unit": 7676,
    "units": 7677,
    "units,": 7678,
    "unity": 7679,
    "unity.": 7680,
    "universal": 7681,
    "universal.": 7682,
    "universe": 7683,
    "unknown": 7684,
    "unless": 7685,
    "unlike": 7686,
    "unlikely": 7687,
    "unmatched": 7688,
    "unsuccessful": 7689,
    "until": 7690,
    "unweighted": 7691,
    "up": 7692,
    "up,": 7693,
    "up.": 7694,
    "upd": 7695,
    "update": 7696,
    "updated": 7697,
    "updates": 7698,
    "updating": 7699,
    "upon": 7700,
    "upper": 7701,
    "upper-bound": 7702,
    "upper-triangular": 7703,
    "ur": 7704,
    "ural": 7705,
    "urb": 7706,
    "urban": 7707,
    "ure": 7708,
    "uri": 7709,
    "uring": 7710,
    "uristic": 7711,
    "urther": 7712,
    "us": 7713,
    "us,": 7714,
    "use": 7715,
    "use,": 7716,
    "used": 7717,
    "used.": 7718,
    "useful": 7719,
    "uses": 7720,
    "ush": 7721,
    "using": 7722,
    "usion": 7723,
    "ust": 7724,
    "usti": 7725,
    "ustify": 7726,
    "usu": 7727,
    "usual": 7728,
    "usually": 7729,
    "ut": 7730,
    "ute": 7731,
    "uting": 7732,
    "ution": 7733,
    "uture": 7734,
    "uv": 7735,
    "v": 7736,
    "v's": 7737,
    "v)": 7738,
    "v),": 7739,
    "v).": 7740,
    "v)E": 7741,
    "v,": 7742,
    "v.": 7743,
    "v.d": 7744,
    "v.d,": 7745,
    "v.f": 7746,
    "v.p": 7747,
    "v0": 7748,
    "v0,": 7749,
    "v1": 7750,
    "v1,": 7751,
    "v2),": 7752,
    "v2,": 7753,
    "vably": 7754,
    "val": 7755,
    "valid": 7756,
    "valu": 7757,
    "valuable": 7758,
    "value": 7759,
    "value,": 7760,
    "value.": 7761,
    "valued": 7762,
    "values": 7763,
    "values,": 7764,
    "values.": 7765,
    "van": 7766,
    "vari": 7767,
    "variab": 7768,
    "variable": 7769,
    "variable,": 7770,
    "variable-length": 7771,
    "variables": 7772,
    "variables,": 7773,
    "variables.": 7774,
    "variance": 7775,
    "variant": 7776,
    "variants": 7777,
    "variety": 7778,
    "various": 7779,
    "vary": 7780,
    "ve": 7781,
    "vector": 7782,
    "vector,": 7783,
    "vector.": 7784,
    "vectors": 7785,
    "ved": 7786,
    "ved,": 7787,
    "ved.": 7788,
    "vel": 7789,
    "velo": 7790,
    "velop": 7791,
    "ven": 7792,
    "venue": 7793,
    "ver": 7794,
    "verage": 7795,
    "veral": 7796,
    "verification": 7797,
    "verified": 7798,
    "verifies": 7799,
    "verify": 7800,
    "vers": 7801,
    "versa": 7802,
    "versa.": 7803,
    "versal": 7804,
    "verse": 7805,
    "versed": 7806,
    "versely,": 7807,
    "version": 7808,
    "versions": 7809,
    "versus": 7810,
    "vert": 7811,
    "vertex": 7812,
    "vertex,": 7813,
    "vertex-": 7814,
    "vertex-cover": 7815,
    "vertex-disjoint": 7816,
    "vertex.": 7817,
    "vertices": 7818,
    "vertices,": 7819,
    "vertices.": 7820,
    "very": 7821,
    "ves": 7822,
    "ves,": 7823,
    "ves.": 7824,
    "vi": 7825,
    "vi)": 7826,
    "vi,": 7827,
    "vi-1,": 7828,
    "vi.": 7829,
    "vi.d": 7830,
    "via": 7831,
    "vice": 7832,
    "vid": 7833,
    "view": 7834,
    "viewed": 7835,
    "ving": 7836,
    "viol": 7837,
    "violated": 7838,
    "violates": 7839,
    "violating": 7840,
    "violation": 7841,
    "violations": 7842,
    "vious": 7843,
    "vir": 7844,
    "vis": 7845,
    "vised": 7846,
    "visit": 7847,
    "visited": 7848,
    "visits": 7849,
    "vity": 7850,
    "vj": 7851,
    "vj)": 7852,
    "vk": 7853,
    "vk,": 7854,
    "vk.": 7855,
    "vo": 7856,
    "vol": 7857,
    "volume": 7858,
    "vot": 7859,
    "votes": 7860,
    "w": 7861,
    "w's": 7862,
    "w(": 7863,
    "w(l,": 7864,
    "w(p)": 7865,
    "w(u,": 7866,
    "w)": 7867,
    "w,": 7868,
    "w-bit": 7869,
    "w.": 7870,
    "w.color": 7871,
    "wT": 7872,
    "w[i,": 7873,
    "wa": 7874,
    "wait": 7875,
    "wal": 7876,
    "walk": 7877,
    "wan": 7878,
    "want": 7879,
    "wants": 7880,
    "ward": 7881,
    "ware": 7882,
    "was": 7883,
    "water": 7884,
    "watershed": 7885,
    "way": 7886,
    "way,": 7887,
    "way.": 7888,
    "ways": 7889,
    "we": 7890,
    "we'll": 7891,
    "we're": 7892,
    "weak": 7893,
    "wee": 7894,
    "ween": 7895,
    "weigh": 7896,
    "weight": 7897,
    "weight,": 7898,
    "weight.": 7899,
    "weighted": 7900,
    "weighted,": 7901,
    "weighted-": 7902,
    "weighted-union": 7903,
    "weights": 7904,
    "weights,": 7905,
    "weights.": 7906,
    "well": 7907,
    "well,": 7908,
    "well-": 7909,
    "well.": 7910,
    "wer": 7911,
    "were": 7912,
    "wh": 7913,
    "what": 7914,
    "whate": 7915,
    "whatever": 7916,
    "whe": 7917,
    "when": 7918,
    "whenever": 7919,
    "where": 7920,
    "whereas": 7921,
    "whether": 7922,
    "whi": 7923,
    "which": 7924,
    "which,": 7925,
    "whichever": 7926,
    "while": 7927,
    "white": 7928,
    "white,": 7929,
    "who": 7930,
    "whole": 7931,
    "whom": 7932,
    "whose": 7933,
    "why": 7934,
    "why,": 7935,
    "wi": 7936,
    "wick": 7937,
    "wick.": 7938,
    "wide": 7939,
    "widely": 7940,
    "will": 7941,
    "win": 7942,
    "wind": 7943,
    "window": 7944,
    "winning": 7945,
    "wire": 7946,
    "wires": 7947,
    "wise": 7948,
    "wise,": 7949,
    "wish": 7950,
    "wishes": 7951,
    "wit": 7952,
    "witch": 7953,
    "with": 7954,
    "within": 7955,
    "without": 7956,
    "witness": 7957,
    "wn": 7958,
    "wom": 7959,
    "woman": 7960,
    "women": 7961,
    "won": 7962,
    "won't": 7963,
    "wonder": 7964,
    "wor": 7965,
    "word": 7966,
    "word.": 7967,
    "words": 7968,
    "words,": 7969,
    "work": 7970,
    "work,": 7971,
    "work.": 7972,
    "working": 7973,
    "works": 7974,
    "works,": 7975,
    "works.": 7976,
    "world": 7977,
    "worry": 7978,
    "worst": 7979,
    "worst-case": 7980,
    "worth": 7981,
    "would": 7982,
    "wr": 7983,
    "writ": 7984,
    "write": 7985,
    "writing": 7986,
    "written": 7987,
    "wrong": 7988,
    "x": 7989,
    "x's": 7990,
    "x(": 7991,
    "x(0)": 7992,
    "x(0),": 7993,
    "x(t": 7994,
    "x(t)": 7995,
    "x(t+1)": 7996,
    "x(v)": 7997,
    "x)": 7998,
    "x),": 7999,
    "x*": 8000,
    "x*.": 8001,
    "x,": 8002,
    "x.": 8003,
    "x.ci": 8004,
    "x.f": 8005,
    "x.freq": 8006,
    "x.int": 8007,
    "x.int.": 8008,
    "x.key": 8009,
    "x.key,": 8010,
    "x.key.": 8011,
    "x.keyi": 8012,
    "x.left": 8013,
    "x.left.": 8014,
    "x.left.max": 8015,
    "x.left.size": 8016,
    "x.n": 8017,
    "x.next": 8018,
    "x.p": 8019,
    "x.p.": 8020,
    "x.p.rank": 8021,
    "x.prev": 8022,
    "x.rank": 8023,
    "x.right": 8024,
    "x.right.": 8025,
    "x0": 8026,
    "x0,": 8027,
    "x1": 8028,
    "x1,": 8029,
    "x2": 8030,
    "x2,": 8031,
    "x3": 8032,
    "x4": 8033,
    "x[i]": 8034,
    "xa": 8035,
    "xi": 8036,
    "xi.": 8037,
    "xj": 8038,
    "xk": 8039,
    "xm": 8040,
    "xn": 8041,
    "xn-1": 8042,
    "y": 8043,
    "y's": 8044,
    "y)": 8045,
    "y).": 8046,
    "y*": 8047,
    "y,": 8048,
    "y-": 8049,
    "y.": 8050,
    "y.freq": 8051,
    "y.key": 8052,
    "y.p": 8053,
    "y.p.": 8054,
    "y.right": 8055,
    "y1": 8056,
    "y1,": 8057,
    "y2": 8058,
    "y2,": 8059,
    "y3": 8060,
    "year": 8061,
    "year,": 8062,
    "years": 8063,
    "yell": 8064,
    "yellow": 8065,
    "yes": 8066,
    "yet": 8067,
    "yi": 8068,
    "yield": 8069,
    "yielding": 8070,
    "yields": 8071,
    "yle": 8072,
    "ym": 8073,
    "ymous": 8074,
    "ymp": 8075,
    "ympto": 8076,
    "ymptotic": 8077,
    "yn": 8078,
    "ynam": 8079,
    "ynamic": 8080,
    "you": 8081,
    "you'll": 8082,
    "you're": 8083,
    "you've": 8084,
    "your": 8085,
    "yourself": 8086,
    "ys": 8087,
    "z": 8088,
    "z's": 8089,
    "z)": 8090,
    "z*": 8091,
    "z,": 8092,
    "z.": 8093,
    "z.key": 8094,
    "z.left": 8095,
    "z.p": 8096,
    "z.p.": 8097,
    "z.p.p": 8098,
    "z.p.p.": 8099,
    "z.right": 8100,
    "zation": 8101,
    "ze": 8102,
    "zed": 8103,
    "zero": 8104,
    "zes": 8105,
    "zi": 8106,
    "zing": 8107,
    "zj": 8108,
    "zk": 8109,
    "{": 8110,
    "{(": 8111,
    "{(u,": 8112,
    "{0,": 8113,
    "{1,": 8114,
    "{A": 8115,
    "{A}": 8116,
    "{B": 8117,
    "{L": 8118,
    "{X": 8119,
    "{a": 8120,
    "{a,": 8121,
    "{a1,": 8122,
    "{e": 8123,
    "{k": 8124,
    "{s": 8125,
    "{s,": 8126,
    "{s}": 8127,
    "{s},": 8128,
    "{u,": 8129,
    "{v": 8130,
    "{x": 8131,
    "{x1,": 8132,
    "{x}": 8133,
    "{y": 8134,
    "{z": 8135,
    "|": 8136,
    "|,": 8137,
    "|.": 8138,
    "|A": 8139,
    "|A|": 8140,
    "|B": 8141,
    "|C": 8142,
    "|E": 8143,
    "|E|": 8144,
    "|E|.": 8145,
    "|M": 8146,
    "|M*|": 8147,
    "|M|": 8148,
    "|S": 8149,
    "|S|": 8150,
    "|U": 8151,
    "|V": 8152,
    "|V|": 8153,
    "|V|,": 8154,
    "|V|.": 8155,
    "|X": 8156,
    "|a": 8157,
    "|f": 8158,
    "|f*|": 8159,
    "|f|": 8160,
    "|x": 8161,
    "|x|": 8162,
    "||": 8163,
    "}": 8164,
    "})": 8165,
    "},": 8166,
    "}.": 8167,
    "~": 8168,
    "¬": 8169,
    "¬x": 8170,
    "¬x2": 8171,
    "±": 8172,
    "·": 8173,
    "Á": 8174,
    "É": 8175,
    "Õ": 8176,
    "×": 8177,
    "×n": 8178,
    "Ø": 8179,
    "Ø,": 8180,
    "á": 8181,
    "ás": 8182,
    "â": 8183,
    "ã": 8184,
    "ä": 8185,
    "å": 8186,
    "ç": 8187,
    "è": 8188,
    "é": 8189,
    "í": 8190,
    "î": 8191,
    "ó": 8192,
    "ö": 8193,
    "ø": 8194,
    "ü": 8195
  },
  "merges": [
    [
      "t",
      "h"
    ],
    [
      "i",
      "n"
    ],
    [
      "th",
      "e"
    ],
    [
      "r",
      "e"
    ],
    [
      "o",
      "n"
    ],
    [
      "a",
      "n"
    ],
    [
      "a",
      "t"
    ],
    [
      "e",
      "r"
    ],
    [
      "o",
      "r"
    ],
    [
      "a",
      "l"
    ],
    [
      "e",
      "s"
    ],
    [
      "i",
      "s"
    ],
    [
      "t",
      "i"
    ],
    [
      "o",
      "f"
    ],
    [
      "e",
      "n"
    ],
    [
      "l",
      "e"
    ],
    [
      "r",
      "o"
    ],
    [
      "in",
      "g"
    ],
    [
      "t",
      "o"
    ],
    [
      "e",
      "d"
    ],
    [
      "an",
      "d"
    ],
    [
      "c",
      "h"
    ],
    [
      "a",
      "r"
    ],
    [
      "s",
      "t"
    ],
    [
      "s",
      "e"
    ],
    [
      "i",
      "t"
    ],
    [
      "th",
      "at"
    ],
    [
      "a",
      "s"
    ],
    [
      "p",
      "ro"
    ],
    [
      "o",
      "u"
    ],
    [
      "i",
      "on"
    ],
    [
      "h",
      "e"
    ],
    [
      "f",
      "or"
    ],
    [
      "m",
      "e"
    ],
    [
      "i",
      "th"
    ],
    [
      "c",
      "o"
    ],
    [
      "m",
      "p"
    ],
    [
      "d",
      "e"
    ],
    [
      "l",
      "y"
    ],
    [
      "v",
      "e"
    ],
    [
      "ti",
      "on"
    ],
    [
      "o",
      "w"
    ],
    [
      "en",
      "t"
    ],
    [
      "at",
      "ion"
    ],
    [
      "s",
      "u"
    ],
    [
      "c",
      "t"
    ],
    [
      "e",
      "x"
    ],
    [
      "r",
      "a"
    ],
    [
      "v",
      "er"
    ],
    [
      "b",
      "e"
    ],
    [
      "u",
      "t"
    ],
    [
      "s",
      "i"
    ],
    [
      "i",
      "c"
    ],
    [
      "n",
      "o"
    ],
    [
      "T",
      "he"
    ],
    [
      "le",
      "m"
    ],
    [
      "c",
      "e"
    ],
    [
      "u",
      "n"
    ],
    [
      "c",
      "on"
    ],
    [
      "q",
      "u"
    ],
    [
      "i",
      "g"
    ],
    [
      "s",
      "o"
    ],
    [
      "w",
      "e"
    ],
    [
      "w",
      "h"
    ],
    [
      "t",
      "er"
    ],
    [
      "p",
      "o"
    ],
    [
      "a",
      "ch"
    ],
    [
      "a",
      "re"
    ],
    [
      "ith",
      "m"
    ],
    [
      "g",
      "or"
    ],
    [
      "gor",
      "ithm"
    ],
    [
      "r",
      "i"
    ],
    [
      "al",
      "l"
    ],
    [
      "m",
      "a"
    ],
    [
      "t",
      "a"
    ],
    [
      "p",
      "er"
    ],
    [
      "u",
      "m"
    ],
    [
      "g",
      "e"
    ],
    [
      "i",
      "f"
    ],
    [
      "al",
      "gorithm"
    ],
    [
      "u",
      "r"
    ],
    [
      "ti",
      "me"
    ],
    [
      "s",
      ","
    ],
    [
      "b",
      "y"
    ],
    [
      "pro",
      "b"
    ],
    [
      "co",
      "mp"
    ],
    [
      "l",
      "l"
    ],
    [
      "w",
      "ith"
    ],
    [
      "l",
      "o"
    ],
    [
      "in",
      "e"
    ],
    [
      "h",
      "ow"
    ],
    [
      "p",
      "a"
    ],
    [
      "(",
      "n"
    ],
    [
      "u",
      "re"
    ],
    [
      "m",
      "o"
    ],
    [
      "c",
      "tion"
    ],
    [
      "s",
      "."
    ],
    [
      "a",
      "p"
    ],
    [
      "c",
      "es"
    ],
    [
      "a",
      "d"
    ],
    [
      "a",
      "b"
    ],
    [
      "re",
      "e"
    ],
    [
      "m",
      "at"
    ],
    [
      "ig",
      "h"
    ],
    [
      "prob",
      "lem"
    ],
    [
      "i",
      "r"
    ],
    [
      "g",
      "ra"
    ],
    [
      "n",
      "e"
    ],
    [
      "1",
      ","
    ],
    [
      "y",
      "ou"
    ],
    [
      "i",
      "l"
    ],
    [
      "wh",
      "i"
    ],
    [
      "k",
      "e"
    ],
    [
      "d",
      "i"
    ],
    [
      "e",
      "ach"
    ],
    [
      "v",
      "al"
    ],
    [
      "igh",
      "t"
    ],
    [
      "su",
      "b"
    ],
    [
      "or",
      "t"
    ],
    [
      "in",
      "t"
    ],
    [
      "c",
      "an"
    ],
    [
      "ro",
      "m"
    ],
    [
      ".",
      "."
    ],
    [
      "es",
      "t"
    ],
    [
      "c",
      "a"
    ],
    [
      "f",
      "rom"
    ],
    [
      "the",
      "r"
    ],
    [
      "u",
      "l"
    ],
    [
      "re",
      "s"
    ],
    [
      "i",
      "m"
    ],
    [
      "lem",
      "ent"
    ],
    [
      "no",
      "t"
    ],
    [
      "a",
      "c"
    ],
    [
      ")",
      ","
    ],
    [
      "h",
      "a"
    ],
    [
      "whi",
      "ch"
    ],
    [
      "h",
      "as"
    ],
    [
      "u",
      "s"
    ],
    [
      "d",
      "er"
    ],
    [
      "o",
      "p"
    ],
    [
      "t",
      "ree"
    ],
    [
      "is",
      "t"
    ],
    [
      ")",
      "."
    ],
    [
      "b",
      "er"
    ],
    [
      "se",
      "t"
    ],
    [
      "it",
      "y"
    ],
    [
      "u",
      "e"
    ],
    [
      "f",
      "in"
    ],
    [
      "T",
      "h"
    ],
    [
      "st",
      "r"
    ],
    [
      "n",
      "um"
    ],
    [
      "an",
      "y"
    ],
    [
      "th",
      "is"
    ],
    [
      "c",
      "ur"
    ],
    [
      "o",
      "re"
    ],
    [
      "p",
      "ar"
    ],
    [
      "at",
      "e"
    ],
    [
      "u",
      "se"
    ],
    [
      "p",
      "l"
    ],
    [
      "p",
      "h"
    ],
    [
      "num",
      "ber"
    ],
    [
      "for",
      "m"
    ],
    [
      "o",
      "t"
    ],
    [
      "v",
      "i"
    ],
    [
      "l",
      "ine"
    ],
    [
      "u",
      "p"
    ],
    [
      "the",
      "n"
    ],
    [
      "so",
      "l"
    ],
    [
      "d",
      "u"
    ],
    [
      "t",
      "ex"
    ],
    [
      "e",
      "lement"
    ],
    [
      "m",
      "in"
    ],
    [
      "t",
      "w"
    ],
    [
      "ha",
      "ve"
    ],
    [
      "p",
      "e"
    ],
    [
      "1",
      "."
    ],
    [
      "gra",
      "ph"
    ],
    [
      "ou",
      "n"
    ],
    [
      "i",
      "v"
    ],
    [
      "al",
      "ly"
    ],
    [
      "I",
      "n"
    ],
    [
      "ta",
      "in"
    ],
    [
      "2",
      ","
    ],
    [
      "on",
      "e"
    ],
    [
      "pa",
      "th"
    ],
    [
      "c",
      "ed"
    ],
    [
      "a",
      "ct"
    ],
    [
      "'",
      "s"
    ],
    [
      "(n",
      ")"
    ],
    [
      "r",
      "un"
    ],
    [
      "e",
      "qu"
    ],
    [
      "n",
      "ing"
    ],
    [
      "an",
      "t"
    ],
    [
      "ti",
      "m"
    ],
    [
      "mp",
      "le"
    ],
    [
      "l",
      "d"
    ],
    [
      "y",
      "s"
    ],
    [
      "re",
      "n"
    ],
    [
      "d",
      "es"
    ],
    [
      "d",
      "o"
    ],
    [
      "s",
      "ort"
    ],
    [
      "ct",
      "ed"
    ],
    [
      "ver",
      "tex"
    ],
    [
      "ti",
      "c"
    ],
    [
      "comp",
      "ut"
    ],
    [
      "u",
      "tion"
    ],
    [
      "s",
      "how"
    ],
    [
      "z",
      "e"
    ],
    [
      "re",
      "d"
    ],
    [
      "W",
      "e"
    ],
    [
      "it",
      "s"
    ],
    [
      "s",
      "h"
    ],
    [
      "ir",
      "st"
    ],
    [
      "c",
      "l"
    ],
    [
      "ar",
      "y"
    ],
    [
      "F",
      "or"
    ],
    [
      "l",
      "ow"
    ],
    [
      "b",
      "le"
    ],
    [
      "f",
      "un"
    ],
    [
      "w",
      "he"
    ],
    [
      "b",
      "ut"
    ],
    [
      "u",
      "st"
    ],
    [
      "o",
      "per"
    ],
    [
      ".",
      "1"
    ],
    [
      "s",
      "a"
    ],
    [
      "fun",
      "ction"
    ],
    [
      "ation",
      "s"
    ],
    [
      "p",
      "ut"
    ],
    [
      "w",
      "or"
    ],
    [
      "m",
      "i"
    ],
    [
      "tw",
      "o"
    ],
    [
      "f",
      "irst"
    ],
    [
      "g",
      "es"
    ],
    [
      "r",
      "an"
    ],
    [
      "le",
      "t"
    ],
    [
      "re",
      "cur"
    ],
    [
      "i",
      "ve"
    ],
    [
      "pro",
      "ced"
    ],
    [
      "proced",
      "ure"
    ],
    [
      "0",
      ","
    ],
    [
      "L",
      "e"
    ],
    [
      "I",
      "f"
    ],
    [
      "..",
      "."
    ],
    [
      "ex",
      "a"
    ],
    [
      "ar",
      "ch"
    ],
    [
      "th",
      "an"
    ],
    [
      "ig",
      "ure"
    ],
    [
      "I",
      "N"
    ],
    [
      "2",
      "."
    ],
    [
      "ar",
      "ra"
    ],
    [
      "f",
      "e"
    ],
    [
      "val",
      "ue"
    ],
    [
      "in",
      "ce"
    ],
    [
      "ou",
      "t"
    ],
    [
      "oun",
      "d"
    ],
    [
      "o",
      "d"
    ],
    [
      "se",
      "arch"
    ],
    [
      "ca",
      "se"
    ],
    [
      "g",
      "iv"
    ],
    [
      "en",
      "d"
    ],
    [
      "p",
      "res"
    ],
    [
      "F",
      "igure"
    ],
    [
      "ar",
      "i"
    ],
    [
      "a",
      "m"
    ],
    [
      "im",
      "um"
    ],
    [
      "ke",
      "y"
    ],
    [
      "l",
      "g"
    ],
    [
      "S",
      "E"
    ],
    [
      "the",
      "re"
    ],
    [
      "o",
      "ther"
    ],
    [
      "t",
      "y"
    ],
    [
      "it",
      "e"
    ],
    [
      "o",
      "ll"
    ],
    [
      "ces",
      "s"
    ],
    [
      "sol",
      "ution"
    ],
    [
      "ti",
      "ve"
    ],
    [
      "whe",
      "re"
    ],
    [
      "arra",
      "y"
    ],
    [
      "b",
      "l"
    ],
    [
      "con",
      "tain"
    ],
    [
      "f",
      "i"
    ],
    [
      "no",
      "de"
    ],
    [
      "1",
      ")"
    ],
    [
      "in",
      "put"
    ],
    [
      "st",
      "e"
    ],
    [
      "su",
      "ch"
    ],
    [
      "ou",
      "r"
    ],
    [
      "run",
      "ning"
    ],
    [
      "4",
      "."
    ],
    [
      "ed",
      "ge"
    ],
    [
      "es",
      "."
    ],
    [
      "or",
      "der"
    ],
    [
      "s",
      "er"
    ],
    [
      "d",
      "ing"
    ],
    [
      "a",
      "st"
    ],
    [
      "on",
      "ly"
    ],
    [
      "P",
      "ro"
    ],
    [
      "A",
      "["
    ],
    [
      "wh",
      "en"
    ],
    [
      "O",
      "("
    ],
    [
      "ac",
      "k"
    ],
    [
      "en",
      "ce"
    ],
    [
      "(",
      "x"
    ],
    [
      "m",
      "ent"
    ],
    [
      "on",
      "g"
    ],
    [
      "u",
      ","
    ],
    [
      "m",
      "m"
    ],
    [
      "we",
      "ight"
    ],
    [
      "c",
      "re"
    ],
    [
      "ab",
      "le"
    ],
    [
      "ri",
      "x"
    ],
    [
      "l",
      "i"
    ],
    [
      "c",
      "i"
    ],
    [
      "co",
      "st"
    ],
    [
      "mat",
      "rix"
    ],
    [
      "exa",
      "mple"
    ],
    [
      "c",
      "k"
    ],
    [
      "f",
      "ore"
    ],
    [
      "c",
      "or"
    ],
    [
      "p",
      "re"
    ],
    [
      "c",
      "is"
    ],
    [
      "b",
      "ound"
    ],
    [
      "ti",
      "ces"
    ],
    [
      "re",
      "qu"
    ],
    [
      "op",
      "tim"
    ],
    [
      "1",
      "0"
    ],
    [
      "in",
      "to"
    ],
    [
      "i",
      "mp"
    ],
    [
      "ca",
      "use"
    ],
    [
      "ma",
      "x"
    ],
    [
      "c",
      "all"
    ],
    [
      "al",
      "le"
    ],
    [
      "con",
      "st"
    ],
    [
      "ver",
      "tices"
    ],
    [
      "b",
      "in"
    ],
    [
      "lo",
      "op"
    ],
    [
      "S",
      "e"
    ],
    [
      "si",
      "ze"
    ],
    [
      "o",
      "b"
    ],
    [
      "1",
      "9"
    ],
    [
      "ed",
      "ges"
    ],
    [
      "val",
      "u"
    ],
    [
      "so",
      "me"
    ],
    [
      "R",
      "T"
    ],
    [
      "in",
      "ter"
    ],
    [
      "pres",
      "ent"
    ],
    [
      "di",
      "re"
    ],
    [
      "g",
      "er"
    ],
    [
      "o",
      "m"
    ],
    [
      "x",
      "."
    ],
    [
      "es",
      ","
    ],
    [
      "b",
      "o"
    ],
    [
      "E",
      "-"
    ],
    [
      "de",
      "p"
    ],
    [
      "ro",
      "ot"
    ],
    [
      "w",
      "a"
    ],
    [
      "m",
      "ul"
    ],
    [
      "-",
      "1"
    ],
    [
      "oll",
      "ow"
    ],
    [
      "s",
      "ion"
    ],
    [
      "t",
      "ur"
    ],
    [
      "v",
      ")"
    ],
    [
      "e",
      "ver"
    ],
    [
      "g",
      "h"
    ],
    [
      "mo",
      "st"
    ],
    [
      "f",
      "ic"
    ],
    [
      "f",
      "ollow"
    ],
    [
      "mat",
      "ch"
    ],
    [
      "3",
      "."
    ],
    [
      "v",
      "ari"
    ],
    [
      "str",
      "u"
    ],
    [
      "mi",
      "al"
    ],
    [
      "n",
      "ow"
    ],
    [
      "k",
      "es"
    ],
    [
      "tur",
      "n"
    ],
    [
      "es",
      "s"
    ],
    [
      "t",
      "ri"
    ],
    [
      "ly",
      "no"
    ],
    [
      "n",
      ")"
    ],
    [
      "se",
      "qu"
    ],
    [
      "f",
      "low"
    ],
    [
      "d",
      "is"
    ],
    [
      "int",
      "e"
    ],
    [
      "t",
      "ing"
    ],
    [
      "po",
      "lyno"
    ],
    [
      "mul",
      "ti"
    ],
    [
      "pro",
      "gra"
    ],
    [
      "0",
      "."
    ],
    [
      "line",
      "ar"
    ],
    [
      "(",
      "u,"
    ],
    [
      "R",
      "E"
    ],
    [
      "optim",
      "al"
    ],
    [
      "giv",
      "en"
    ],
    [
      "s",
      "ing"
    ],
    [
      "Le",
      "t"
    ],
    [
      "oper",
      "ation"
    ],
    [
      "ch",
      "o"
    ],
    [
      "polyno",
      "mial"
    ],
    [
      "time",
      "."
    ],
    [
      "ab",
      "il"
    ],
    [
      "P",
      "-"
    ],
    [
      "it",
      "er"
    ],
    [
      "de",
      "fin"
    ],
    [
      "l",
      "ist"
    ],
    [
      "M",
      "A"
    ],
    [
      "e",
      "f"
    ],
    [
      "5",
      "."
    ],
    [
      "pl",
      "ic"
    ],
    [
      "ore",
      "m"
    ],
    [
      "mo",
      "re"
    ],
    [
      "m",
      "ust"
    ],
    [
      "re",
      "turn"
    ],
    [
      "l",
      "in"
    ],
    [
      "t",
      "e"
    ],
    [
      "ou",
      "ld"
    ],
    [
      "t",
      "s"
    ],
    [
      "po",
      "int"
    ],
    [
      "o",
      "se"
    ],
    [
      "2",
      ")"
    ],
    [
      "at",
      "ive"
    ],
    [
      "r",
      "and"
    ],
    [
      "c",
      "y"
    ],
    [
      "ma",
      "in"
    ],
    [
      "si",
      "ve"
    ],
    [
      "ar",
      "d"
    ],
    [
      "E",
      "x"
    ],
    [
      "sh",
      "ort"
    ],
    [
      "d",
      "if"
    ],
    [
      "element",
      "s"
    ],
    [
      "(",
      "a"
    ],
    [
      "o",
      "ver"
    ],
    [
      "i",
      ","
    ],
    [
      "i",
      "ll"
    ],
    [
      "po",
      "si"
    ],
    [
      "en",
      "g"
    ],
    [
      "at",
      "es"
    ],
    [
      "inte",
      "ger"
    ],
    [
      "d",
      "ist"
    ],
    [
      "as",
      "su"
    ],
    [
      "a",
      "f"
    ],
    [
      "en",
      "ti"
    ],
    [
      "e",
      "v"
    ],
    [
      "pro",
      "per"
    ],
    [
      "dire",
      "cted"
    ],
    [
      "r",
      "ic"
    ],
    [
      "1",
      "]"
    ],
    [
      "t",
      "ra"
    ],
    [
      "g",
      "o"
    ],
    [
      "W",
      "h"
    ],
    [
      "re",
      "present"
    ],
    [
      "se",
      "e"
    ],
    [
      "sa",
      "me"
    ],
    [
      "al",
      "so"
    ],
    [
      "example",
      ","
    ],
    [
      "at",
      "ed"
    ],
    [
      "short",
      "est"
    ],
    [
      "contain",
      "s"
    ],
    [
      "i",
      "z"
    ],
    [
      "p",
      "ri"
    ],
    [
      "ran",
      "k"
    ],
    [
      "i",
      "ent"
    ],
    [
      "s",
      "ince"
    ],
    [
      "me",
      "th"
    ],
    [
      "f",
      "t"
    ],
    [
      "us",
      "ing"
    ],
    [
      "stru",
      "ct"
    ],
    [
      "il",
      "d"
    ],
    [
      "alle",
      "l"
    ],
    [
      "equ",
      "ation"
    ],
    [
      "ap",
      "pro"
    ],
    [
      "Se",
      "ction"
    ],
    [
      "const",
      "ant"
    ],
    [
      "le",
      "ft"
    ],
    [
      "r",
      "ight"
    ],
    [
      "n",
      ","
    ],
    [
      "j",
      "e"
    ],
    [
      "T",
      "-"
    ],
    [
      "abil",
      "ity"
    ],
    [
      "ter",
      "m"
    ],
    [
      "meth",
      "od"
    ],
    [
      "fin",
      "d"
    ],
    [
      "S",
      "how"
    ],
    [
      "an",
      "al"
    ],
    [
      "do",
      "es"
    ],
    [
      "o",
      "c"
    ],
    [
      "a",
      "u"
    ],
    [
      "A",
      "s"
    ],
    [
      "O",
      "N"
    ],
    [
      "v",
      "es"
    ],
    [
      "has",
      "h"
    ],
    [
      "Th",
      "is"
    ],
    [
      "l",
      "ong"
    ],
    [
      "ta",
      "ble"
    ],
    [
      "po",
      "s"
    ],
    [
      "si",
      "der"
    ],
    [
      "match",
      "ing"
    ],
    [
      "sequ",
      "ence"
    ],
    [
      "pro",
      "du"
    ],
    [
      "v",
      "ing"
    ],
    [
      "er",
      "s"
    ],
    [
      "er",
      "cis"
    ],
    [
      "ch",
      "ild"
    ],
    [
      "ren",
      "ce"
    ],
    [
      "par",
      "allel"
    ],
    [
      "wor",
      "k"
    ],
    [
      "qu",
      "e"
    ],
    [
      "is",
      ","
    ],
    [
      "A",
      "l"
    ],
    [
      "l",
      "eng"
    ],
    [
      "leng",
      "th"
    ],
    [
      "Ex",
      "ercis"
    ],
    [
      "3",
      ","
    ],
    [
      "A",
      "n"
    ],
    [
      "R",
      "A"
    ],
    [
      "ap",
      "ter"
    ],
    [
      "bin",
      "ary"
    ],
    [
      "B",
      "e"
    ],
    [
      "2",
      "0"
    ],
    [
      "po",
      "se"
    ],
    [
      "c",
      "ut"
    ],
    [
      "i",
      "d"
    ],
    [
      "ta",
      "kes"
    ],
    [
      "algorithm",
      "s"
    ],
    [
      "co",
      "l"
    ],
    [
      "fic",
      "ient"
    ],
    [
      "valu",
      "es"
    ],
    [
      "at",
      "is"
    ],
    [
      "re",
      "l"
    ],
    [
      "ter",
      "min"
    ],
    [
      "re",
      "ad"
    ],
    [
      "k",
      "now"
    ],
    [
      "n",
      "."
    ],
    [
      "lo",
      "ck"
    ],
    [
      "s",
      "p"
    ],
    [
      "V",
      ","
    ],
    [
      "in",
      "ser"
    ],
    [
      "min",
      "imum"
    ],
    [
      "u",
      "s,"
    ],
    [
      "d",
      "at"
    ],
    [
      "L",
      "E"
    ],
    [
      "max",
      "imum"
    ],
    [
      "ly",
      ","
    ],
    [
      "-",
      "-"
    ],
    [
      "]",
      ","
    ],
    [
      "t",
      "re"
    ],
    [
      "T",
      "I"
    ],
    [
      "1",
      "/"
    ],
    [
      "b",
      "lock"
    ],
    [
      "recur",
      "sive"
    ],
    [
      "dep",
      "end"
    ],
    [
      "g",
      "re"
    ],
    [
      "ch",
      "an"
    ],
    [
      "ch",
      "ar"
    ],
    [
      "ne",
      "ed"
    ],
    [
      "al",
      "ity"
    ],
    [
      "sub",
      "problem"
    ],
    [
      "follow",
      "ing"
    ],
    [
      "a",
      "ge"
    ],
    [
      "ne",
      "w"
    ],
    [
      "be",
      "t"
    ],
    [
      "l",
      "ar"
    ],
    [
      "S",
      "ince"
    ],
    [
      "Th",
      "us,"
    ],
    [
      "le",
      "ast"
    ],
    [
      "mo",
      "d"
    ],
    [
      "'",
      "ll"
    ],
    [
      "n",
      "/"
    ],
    [
      "co",
      "m"
    ],
    [
      "en",
      "er"
    ],
    [
      "ste",
      "p"
    ],
    [
      "p",
      "on"
    ],
    [
      "oper",
      "ations"
    ],
    [
      "pa",
      "ge"
    ],
    [
      "2",
      "-"
    ],
    [
      "bl",
      "ack"
    ],
    [
      "ed",
      ","
    ],
    [
      "an",
      "ce"
    ],
    [
      "lin",
      "es"
    ],
    [
      "/",
      "/"
    ],
    [
      "ex",
      "t"
    ],
    [
      "g",
      "ro"
    ],
    [
      "X",
      "-"
    ],
    [
      "su",
      "l"
    ],
    [
      "d",
      "en"
    ],
    [
      "g",
      "n"
    ],
    [
      "3",
      "-"
    ],
    [
      "i",
      "ti"
    ],
    [
      "comp",
      "let"
    ],
    [
      "rand",
      "om"
    ],
    [
      "D",
      "-"
    ],
    [
      "prob",
      "ability"
    ],
    [
      "t",
      "al"
    ],
    [
      "b",
      "it"
    ],
    [
      "cl",
      "u"
    ],
    [
      "re",
      "sul"
    ],
    [
      "mm",
      "ing"
    ],
    [
      "s",
      "m"
    ],
    [
      "char",
      "act"
    ],
    [
      "ed",
      "."
    ],
    [
      "z",
      "ed"
    ],
    [
      "dat",
      "a"
    ],
    [
      "Y",
      "ou"
    ],
    [
      "f",
      "act"
    ],
    [
      "comput",
      "e"
    ],
    [
      "imp",
      "lement"
    ],
    [
      "n",
      "on"
    ],
    [
      "g",
      "ener"
    ],
    [
      "the",
      "se"
    ],
    [
      "4",
      ","
    ],
    [
      "ou",
      "gh"
    ],
    [
      "a",
      "in"
    ],
    [
      "C",
      "h"
    ],
    [
      "fi",
      "x"
    ],
    [
      "D",
      "E"
    ],
    [
      "si",
      "mple"
    ],
    [
      "a",
      "g"
    ],
    [
      "y",
      "."
    ],
    [
      "str",
      "ing"
    ],
    [
      "T",
      "o"
    ],
    [
      "y",
      ","
    ],
    [
      "k",
      ","
    ],
    [
      "ul",
      "ar"
    ],
    [
      "in",
      "d"
    ],
    [
      "C",
      "on"
    ],
    [
      "T",
      "."
    ],
    [
      "is",
      "h"
    ],
    [
      "c",
      "ach"
    ],
    [
      "to",
      "tal"
    ],
    [
      "i",
      "e"
    ],
    [
      "time",
      ","
    ],
    [
      "sm",
      "all"
    ],
    [
      "]",
      "."
    ],
    [
      "per",
      "form"
    ],
    [
      "s",
      "atis"
    ],
    [
      "j",
      "ust"
    ],
    [
      "y",
      "mp"
    ],
    [
      "par",
      "ti"
    ],
    [
      "struct",
      "ure"
    ],
    [
      "-",
      "time"
    ],
    [
      "plic",
      "ation"
    ],
    [
      "ef",
      "ficient"
    ],
    [
      "bo",
      "th"
    ],
    [
      "C",
      "o"
    ],
    [
      "g",
      "u"
    ],
    [
      "st",
      "ar"
    ],
    [
      "af",
      "ter"
    ],
    [
      "si",
      "gn"
    ],
    [
      "pro",
      "ve"
    ],
    [
      "ex",
      "pe"
    ],
    [
      "(",
      "b"
    ],
    [
      "ma",
      "y"
    ],
    [
      "pos",
      "si"
    ],
    [
      "1",
      "1"
    ],
    [
      "di",
      "tion"
    ],
    [
      "ic",
      "ally"
    ],
    [
      "a",
      "se"
    ],
    [
      "ever",
      "y"
    ],
    [
      "be",
      "cause"
    ],
    [
      "(",
      "2"
    ],
    [
      "show",
      "s"
    ],
    [
      "c",
      "le"
    ],
    [
      "...",
      ","
    ],
    [
      "(",
      "3"
    ],
    [
      "ob",
      "je"
    ],
    [
      "m",
      "any"
    ],
    [
      "requ",
      "i"
    ],
    [
      "T",
      "E"
    ],
    [
      "B",
      "-"
    ],
    [
      "(x",
      ")"
    ],
    [
      "c",
      "ri"
    ],
    [
      "s",
      "y"
    ],
    [
      "in",
      "cre"
    ],
    [
      "E",
      ")"
    ],
    [
      "6",
      "."
    ],
    [
      "k",
      ")"
    ],
    [
      "o",
      "ld"
    ],
    [
      "The",
      "orem"
    ],
    [
      "co",
      "de"
    ],
    [
      "i",
      "ther"
    ],
    [
      "Be",
      "cause"
    ],
    [
      "dif",
      "fe"
    ],
    [
      "tim",
      "es"
    ],
    [
      "(",
      "V,"
    ],
    [
      "v",
      "."
    ],
    [
      "you",
      "r"
    ],
    [
      "iter",
      "ation"
    ],
    [
      "m",
      "ight"
    ],
    [
      "sp",
      "an"
    ],
    [
      "progra",
      "mming"
    ],
    [
      "pa",
      "ir"
    ],
    [
      "ren",
      "t"
    ],
    [
      "wa",
      "ys"
    ],
    [
      "e",
      "l"
    ],
    [
      "o",
      "l"
    ],
    [
      "or",
      "s"
    ],
    [
      "7",
      "."
    ],
    [
      "i",
      "]"
    ],
    [
      "ymp",
      "to"
    ],
    [
      "ympto",
      "tic"
    ],
    [
      "th",
      "-"
    ],
    [
      "w",
      "ill"
    ],
    [
      "res",
      "pon"
    ],
    [
      "appro",
      "x"
    ],
    [
      "den",
      "ot"
    ],
    [
      "S",
      "O"
    ],
    [
      "m",
      "an"
    ],
    [
      "i",
      "tion"
    ],
    [
      "cach",
      "e"
    ],
    [
      "5",
      ","
    ],
    [
      "[",
      "1"
    ],
    [
      "ou",
      "s"
    ],
    [
      "tri",
      "but"
    ],
    [
      "oc",
      "cur"
    ],
    [
      "he",
      "ap"
    ],
    [
      "ic",
      "e"
    ],
    [
      "k",
      "s"
    ],
    [
      "A",
      ","
    ],
    [
      "di",
      "vi"
    ],
    [
      "proper",
      "ty"
    ],
    [
      "path",
      "s"
    ],
    [
      "cor",
      "respon"
    ],
    [
      "wor",
      "st"
    ],
    [
      "as",
      "ymptotic"
    ],
    [
      "Th",
      "en"
    ],
    [
      "re",
      "ct"
    ],
    [
      "O",
      "(n"
    ],
    [
      "ex",
      "e"
    ],
    [
      "su",
      "m"
    ],
    [
      "no",
      "des"
    ],
    [
      "c",
      "tive"
    ],
    [
      "recur",
      "rence"
    ],
    [
      "c",
      "oun"
    ],
    [
      "pro",
      "cess"
    ],
    [
      "mat",
      "ric"
    ],
    [
      "k",
      "."
    ],
    [
      "requ",
      "est"
    ],
    [
      "posi",
      "tion"
    ],
    [
      "complet",
      "e"
    ],
    [
      "an",
      "s"
    ],
    [
      "su",
      "f"
    ],
    [
      "ne",
      "g"
    ],
    [
      "co",
      "ver"
    ],
    [
      "enti",
      "al"
    ],
    [
      "C",
      "H"
    ],
    [
      "s",
      "pe"
    ],
    [
      "Co",
      "mp"
    ],
    [
      "a",
      "."
    ],
    [
      "th",
      "ough"
    ],
    [
      "ex",
      "ist"
    ],
    [
      "i",
      "es"
    ],
    [
      "IN",
      "SE"
    ],
    [
      "INSE",
      "RT"
    ],
    [
      "equ",
      "al"
    ],
    [
      "us",
      "es"
    ],
    [
      "are",
      "n"
    ],
    [
      "P",
      "A"
    ],
    [
      "I",
      "t"
    ],
    [
      "Exercis",
      "e"
    ],
    [
      "as",
      "s"
    ],
    [
      "O",
      "M"
    ],
    [
      "y",
      "n"
    ],
    [
      "possi",
      "ble"
    ],
    [
      "t",
      "ran"
    ],
    [
      "P",
      "r"
    ],
    [
      "b",
      "as"
    ],
    [
      "The",
      "re"
    ],
    [
      "anal",
      "ys"
    ],
    [
      "sol",
      "ve"
    ],
    [
      "th-",
      "first"
    ],
    [
      "ad",
      "d"
    ],
    [
      "con",
      "sider"
    ],
    [
      "whi",
      "le"
    ],
    [
      "we",
      "en"
    ],
    [
      "m",
      "ut"
    ],
    [
      "E",
      "R"
    ],
    [
      "E",
      "ach"
    ],
    [
      "p",
      "ly"
    ],
    [
      "bet",
      "ween"
    ],
    [
      "[",
      "2"
    ],
    [
      "g",
      "ment"
    ],
    [
      "at",
      "tribut"
    ],
    [
      "9",
      "."
    ],
    [
      "ke",
      "ys"
    ],
    [
      ".",
      ")"
    ],
    [
      "progra",
      "m"
    ],
    [
      "me",
      "m"
    ],
    [
      "the",
      "y"
    ],
    [
      "pl",
      "a"
    ],
    [
      "S",
      "up"
    ],
    [
      "Sup",
      "pose"
    ],
    [
      "m",
      "ma"
    ],
    [
      "ex",
      "act"
    ],
    [
      "-",
      "case"
    ],
    [
      "neg",
      "ative"
    ],
    [
      "S",
      ","
    ],
    [
      "[",
      "3"
    ],
    [
      "n",
      "ext"
    ],
    [
      "e",
      "ither"
    ],
    [
      "l",
      "es"
    ],
    [
      "un",
      "i"
    ],
    [
      "8",
      "."
    ],
    [
      "tw",
      "or"
    ],
    [
      "ti",
      "es"
    ],
    [
      "pro",
      "of"
    ],
    [
      "ap",
      "pe"
    ],
    [
      "fore",
      ","
    ],
    [
      "p",
      "aren"
    ],
    [
      "con",
      "ne"
    ],
    [
      "ct",
      "s"
    ],
    [
      "N",
      "I"
    ],
    [
      "Ch",
      "apter"
    ],
    [
      "r",
      "y"
    ],
    [
      "1",
      "2"
    ],
    [
      "ne",
      "twor"
    ],
    [
      ".1",
      "-"
    ],
    [
      "t",
      ","
    ],
    [
      "is",
      "e"
    ],
    [
      "cy",
      "cle"
    ],
    [
      "con",
      "d"
    ],
    [
      "satis",
      "fi"
    ],
    [
      "bo",
      "o"
    ],
    [
      "yn",
      "am"
    ],
    [
      "whe",
      "ther"
    ],
    [
      "not",
      "ation"
    ],
    [
      "at",
      "ing"
    ],
    [
      "cor",
      "rect"
    ],
    [
      "sub",
      "tree"
    ],
    [
      "s",
      "to"
    ],
    [
      "th",
      "ree"
    ],
    [
      "wa",
      "y"
    ],
    [
      "p",
      "r"
    ],
    [
      "b",
      "."
    ],
    [
      "au",
      "gment"
    ],
    [
      "l",
      "ess"
    ],
    [
      "charact",
      "er"
    ],
    [
      "s",
      "our"
    ],
    [
      "f",
      "ine"
    ],
    [
      "s",
      "pa"
    ],
    [
      "C",
      "."
    ],
    [
      "assu",
      "me"
    ],
    [
      "appe",
      "ar"
    ],
    [
      "li",
      "ke"
    ],
    [
      "m",
      "ed"
    ],
    [
      "in",
      "clu"
    ],
    [
      "S",
      "I"
    ],
    [
      "in",
      "de"
    ],
    [
      "ter",
      "n"
    ],
    [
      "Le",
      "mma"
    ],
    [
      "k",
      "ing"
    ],
    [
      "ve",
      "l"
    ],
    [
      "}",
      "."
    ],
    [
      "A",
      "R"
    ],
    [
      "expe",
      "cted"
    ],
    [
      "T",
      "["
    ],
    [
      "3",
      "1."
    ],
    [
      "ynam",
      "ic"
    ],
    [
      "re",
      "main"
    ],
    [
      "3",
      ")"
    ],
    [
      "N",
      "P-"
    ],
    [
      "de",
      "termin"
    ],
    [
      "wh",
      "ose"
    ],
    [
      "in",
      "iti"
    ],
    [
      "v",
      "is"
    ],
    [
      "de",
      "fine"
    ],
    [
      "ta",
      "ke"
    ],
    [
      "tre",
      "es"
    ],
    [
      "m",
      "il"
    ],
    [
      "a",
      ","
    ],
    [
      "x",
      ","
    ],
    [
      "the",
      "orem"
    ],
    [
      "posi",
      "tive"
    ],
    [
      "par",
      "t"
    ],
    [
      "h",
      "old"
    ],
    [
      "Comp",
      "ut"
    ],
    [
      "algorithm",
      "."
    ],
    [
      "as",
      "es"
    ],
    [
      "low",
      "er"
    ],
    [
      "re",
      "du"
    ],
    [
      "l",
      "a"
    ],
    [
      "sour",
      "ce"
    ],
    [
      "or",
      "y"
    ],
    [
      "Wh",
      "en"
    ],
    [
      "al",
      "ways"
    ],
    [
      "be",
      "fore"
    ],
    [
      "Pro",
      "ve"
    ],
    [
      "at",
      "er"
    ],
    [
      "le",
      "a"
    ],
    [
      "su",
      "c"
    ],
    [
      "ev",
      "en"
    ],
    [
      "(",
      "s,"
    ],
    [
      "A",
      "."
    ],
    [
      "c",
      "u"
    ],
    [
      "b",
      "i"
    ],
    [
      "w",
      "as"
    ],
    [
      "problem",
      ","
    ],
    [
      "(a",
      ")"
    ],
    [
      "n",
      "al"
    ],
    [
      "i",
      "ble"
    ],
    [
      "G",
      "."
    ],
    [
      "se",
      "cond"
    ],
    [
      "lo",
      "g"
    ],
    [
      "R",
      "I"
    ],
    [
      "the",
      "ir"
    ],
    [
      "0",
      "0"
    ],
    [
      "parti",
      "tion"
    ],
    [
      "MA",
      "T"
    ],
    [
      "st",
      "ate"
    ],
    [
      "m",
      "er"
    ],
    [
      "Pro",
      "of"
    ],
    [
      "giv",
      "es"
    ],
    [
      "a",
      "x"
    ],
    [
      "he",
      "ad"
    ],
    [
      "sort",
      "ed"
    ],
    [
      "RA",
      "N"
    ],
    [
      "f",
      "ul"
    ],
    [
      "SO",
      "RT"
    ],
    [
      "P",
      "["
    ],
    [
      "ing",
      ","
    ],
    [
      "pro",
      "vi"
    ],
    [
      "n",
      "i"
    ],
    [
      "G",
      "ive"
    ],
    [
      "ic",
      "al"
    ],
    [
      "ic",
      "k"
    ],
    [
      "j",
      "]"
    ],
    [
      "ind",
      "ic"
    ],
    [
      "mp",
      "ty"
    ],
    [
      "inser",
      "tion"
    ],
    [
      "n",
      "-"
    ],
    [
      "d",
      "ynamic"
    ],
    [
      "how",
      "ever"
    ],
    [
      "T",
      ","
    ],
    [
      "im",
      "ation"
    ],
    [
      "form",
      "ul"
    ],
    [
      "po",
      "t"
    ],
    [
      "per",
      "mut"
    ],
    [
      "problem",
      "."
    ],
    [
      "i",
      "an"
    ],
    [
      "ro",
      "u"
    ],
    [
      "ro",
      "w"
    ],
    [
      "p",
      "p"
    ],
    [
      "un",
      "der"
    ],
    [
      "M",
      "U"
    ],
    [
      "ct",
      "or"
    ],
    [
      "is",
      "tic"
    ],
    [
      "f",
      "a"
    ],
    [
      "sing",
      "le"
    ],
    [
      "se",
      "ction"
    ],
    [
      "analys",
      "is"
    ],
    [
      "c",
      "ir"
    ],
    [
      "v",
      "en"
    ],
    [
      "i",
      ")"
    ],
    [
      "rou",
      "gh"
    ],
    [
      "run",
      "s"
    ],
    [
      "i",
      "de"
    ],
    [
      "d",
      "."
    ],
    [
      "B",
      "y"
    ],
    [
      "Th",
      "at"
    ],
    [
      "defin",
      "ition"
    ],
    [
      "ab",
      "out"
    ],
    [
      "iz",
      "ation"
    ],
    [
      "the",
      "m"
    ],
    [
      "li",
      "es"
    ],
    [
      "tree",
      "."
    ],
    [
      "dist",
      "in"
    ],
    [
      "m",
      "is"
    ],
    [
      "return",
      "s"
    ],
    [
      "w",
      "ould"
    ],
    [
      "defin",
      "ed"
    ],
    [
      "|",
      "V"
    ],
    [
      "number",
      "s"
    ],
    [
      "(",
      "1"
    ],
    [
      "form",
      "ation"
    ],
    [
      "lar",
      "ge"
    ],
    [
      "multi",
      "plication"
    ],
    [
      "const",
      "ra"
    ],
    [
      "matric",
      "es"
    ],
    [
      "co",
      "mm"
    ],
    [
      "set",
      "s"
    ],
    [
      "s",
      "ti"
    ],
    [
      "A",
      "P"
    ],
    [
      "distin",
      "ct"
    ],
    [
      "ie",
      "ld"
    ],
    [
      "r",
      "at"
    ],
    [
      "ch",
      "e"
    ],
    [
      "we",
      "'ll"
    ],
    [
      "us",
      "ed"
    ],
    [
      "R",
      "e"
    ],
    [
      "chan",
      "ge"
    ],
    [
      "term",
      "ine"
    ],
    [
      "pot",
      "ential"
    ],
    [
      "c",
      "ent"
    ],
    [
      "L",
      "I"
    ],
    [
      "w",
      "r"
    ],
    [
      "4",
      ")"
    ],
    [
      "vari",
      "able"
    ],
    [
      "approx",
      "imation"
    ],
    [
      "gro",
      "up"
    ],
    [
      "u",
      "ch"
    ],
    [
      "y",
      "ield"
    ],
    [
      "tex",
      "t"
    ],
    [
      "f",
      "ast"
    ],
    [
      "fact",
      "or"
    ],
    [
      "or",
      "ti"
    ],
    [
      "(b",
      ")"
    ],
    [
      "s",
      "ist"
    ],
    [
      "exe",
      "cut"
    ],
    [
      "up",
      "per"
    ],
    [
      "exact",
      "ly"
    ],
    [
      "in",
      "st"
    ],
    [
      "ed",
      "y"
    ],
    [
      "act",
      "u"
    ],
    [
      "de",
      "termine"
    ],
    [
      "inde",
      "x"
    ],
    [
      "M",
      ","
    ],
    [
      "k",
      "-"
    ],
    [
      "in",
      "depend"
    ],
    [
      "4",
      "-"
    ],
    [
      "orti",
      "zed"
    ],
    [
      "augment",
      "ing"
    ],
    [
      "A[",
      "p"
    ],
    [
      "or",
      "ig"
    ],
    [
      "ar",
      "is"
    ],
    [
      "ad",
      "dition"
    ],
    [
      "en",
      "cy"
    ],
    [
      "+",
      "1"
    ],
    [
      "u",
      "."
    ],
    [
      "worst",
      "-case"
    ],
    [
      "Wh",
      "at"
    ],
    [
      "wor",
      "d"
    ],
    [
      "i",
      "."
    ],
    [
      "B",
      "."
    ],
    [
      "c",
      "."
    ],
    [
      "[",
      "4"
    ],
    [
      "gener",
      "al"
    ],
    [
      "initi",
      "al"
    ],
    [
      "cl",
      "a"
    ],
    [
      "show",
      "n"
    ],
    [
      "v",
      "ed"
    ],
    [
      "i",
      "j"
    ],
    [
      "4",
      ".1"
    ],
    [
      "un",
      "directed"
    ],
    [
      "constra",
      "int"
    ],
    [
      "(n",
      "/"
    ],
    [
      "col",
      "um"
    ],
    [
      "6",
      ","
    ],
    [
      "me",
      "t"
    ],
    [
      "E",
      "."
    ],
    [
      "j",
      "o"
    ],
    [
      "diffe",
      "rent"
    ],
    [
      "ly",
      "."
    ],
    [
      "p",
      ","
    ],
    [
      "p",
      "."
    ],
    [
      "sh",
      "ould"
    ],
    [
      "problem",
      "s"
    ],
    [
      "polynomial",
      "-time"
    ],
    [
      "Con",
      "sider"
    ],
    [
      "ste",
      "ad"
    ],
    [
      "ma",
      "ke"
    ],
    [
      "re",
      "al"
    ],
    [
      "am",
      "ortized"
    ],
    [
      "gre",
      "edy"
    ],
    [
      "be",
      "en"
    ],
    [
      "v",
      ","
    ],
    [
      "th",
      "rough"
    ],
    [
      "de",
      "l"
    ],
    [
      "des",
      "cri"
    ],
    [
      "correspon",
      "ding"
    ],
    [
      "denot",
      "e"
    ],
    [
      "w",
      "ise"
    ],
    [
      "orig",
      "in"
    ],
    [
      "ver",
      "se"
    ],
    [
      "with",
      "in"
    ],
    [
      "s",
      "es"
    ],
    [
      "ev",
      "ent"
    ],
    [
      "ch",
      "apter"
    ],
    [
      "i",
      "ze"
    ],
    [
      "shortest",
      "-"
    ],
    [
      "|V",
      "|"
    ],
    [
      "si",
      "mp"
    ],
    [
      "we",
      "ll"
    ],
    [
      "ste",
      "m"
    ],
    [
      "st",
      "ra"
    ],
    [
      "h",
      "igh"
    ],
    [
      "divi",
      "de"
    ],
    [
      "ex",
      "p"
    ],
    [
      "ac",
      "ti"
    ],
    [
      "7",
      ","
    ],
    [
      "ine",
      "qu"
    ],
    [
      "go",
      "od"
    ],
    [
      "ob",
      "tain"
    ],
    [
      "red",
      "-"
    ],
    [
      "par",
      "tic"
    ],
    [
      "con",
      "sist"
    ],
    [
      "however",
      ","
    ],
    [
      "2",
      "2"
    ],
    [
      "anal",
      "y"
    ],
    [
      "ally",
      ","
    ],
    [
      "que",
      "ue"
    ],
    [
      "c",
      "al"
    ],
    [
      "ve",
      "ctor"
    ],
    [
      "independ",
      "ent"
    ],
    [
      "com",
      "es"
    ],
    [
      "networ",
      "k"
    ],
    [
      "N",
      "P"
    ],
    [
      "po",
      "inter"
    ],
    [
      "c",
      "alle"
    ],
    [
      "main",
      "tain"
    ],
    [
      "1",
      "3"
    ],
    [
      "le",
      "vel"
    ],
    [
      "ce",
      "p"
    ],
    [
      "t",
      "en"
    ],
    [
      "E",
      "N"
    ],
    [
      "out",
      "put"
    ],
    [
      "at",
      "or"
    ],
    [
      "he",
      "ight"
    ],
    [
      "suf",
      "fix"
    ],
    [
      "l",
      "an"
    ],
    [
      "ver",
      "sion"
    ],
    [
      "si",
      "de"
    ],
    [
      "n/",
      "2"
    ],
    [
      "ma",
      "kes"
    ],
    [
      "on",
      "ce"
    ],
    [
      "algorithm",
      ","
    ],
    [
      "an",
      "other"
    ],
    [
      "tic",
      "al"
    ],
    [
      "equ",
      "i"
    ],
    [
      "T",
      "RE"
    ],
    [
      "TI",
      "ON"
    ],
    [
      "conne",
      "cted"
    ],
    [
      "wh",
      "at"
    ],
    [
      "A",
      "C"
    ],
    [
      "h",
      "and"
    ],
    [
      "sort",
      "ing"
    ],
    [
      "str",
      "ate"
    ],
    [
      "F",
      "I"
    ],
    [
      "qu",
      "er"
    ],
    [
      "p",
      "s"
    ],
    [
      "ite",
      "m"
    ],
    [
      "s",
      "lo"
    ],
    [
      "z",
      "."
    ],
    [
      "ow",
      "n"
    ],
    [
      "e",
      "mpty"
    ],
    [
[...]
